
/**
  ******************************************************************************
  * @file    aitest_data.c
  * @author  AST Embedded Analytics Research Platform
  * @date    Tue Mar 15 13:12:05 2022
  * @brief   AI Tool Automatic Code Generator for Embedded NN computing
  ******************************************************************************
  * @attention
  *
  * Copyright (c) 2021 STMicroelectronics.
  * All rights reserved.
  *
  * This software is licensed under terms that can be found in the LICENSE file
  * in the root directory of this software component.
  * If no LICENSE file comes with this software, it is provided AS-IS.
  ******************************************************************************
  */
#include "aitest_data.h"
#include "ai_platform_interface.h"

AI_API_DECLARE_BEGIN

AI_ALIGNED(32)
const ai_u64 s_aitest_aitest_weights_array_u64[ 5698 ] = {
  0xbcdc3a473c9d4e33U, 0xbdbcc43dU, 0xbbfbb051bdad0938U, 0x3e4890813e05b5abU,
  0xbd2d0938bd8d932eU, 0x3df3d2ce3e1570b0U, 0x3d6bf54cbdd45cc4U, 0x3e195f713c9d4e33U,
  0x3d2d0938bdc4a1bfU, 0x3cdc3a47bde417c9U, 0x3d3cc43d3d8d932eU, 0xbb7bb051bdf3d2ceU,
  0x3cfbb0513d7bb051U, 0x3cdc3a47bd0d932eU, 0xbe01c6ea3cdc3a47U, 0x3dad09383cfbb051U,
  0x3c3cc43dbd2d0938U, 0xbbfbb0513d5c3a47U, 0xbd4c7f42bd6bf54cU, 0x3dc4a1bf3b7bb051U,
  0xbde417c93bfbb051U, 0xbdb4e6ba3e09a46cU, 0x3da52bb5bc7bb051U, 0x3c7bb051bd2d0938U,
  0xbcdc3a47U, 0x3dad0938bcdc3a47U, 0x3d1d4e33bd8d932eU, 0x3d5c3a47bd2d0938U,
  0x3cbcc43dbd1d4e33U, 0x3d0d932e00000000U, 0x3cdc3a47bc9d4e33U, 0xbc9d4e33be3cc43dU,
  0x3e4c7f423d7bb051U, 0x3cfbb0513e0d932eU, 0x3d1d4e33bddc3a47U, 0x3dbcc43d3dbcc43dU,
  0xbdfbb0513bfbb051U, 0xbcbcc43d3e0d932eU, 0x3debf54c3de417c9U, 0xbd8d932ebde417c9U,
  0x3d8d932ebd5c3a47U, 0xbb7bb051bcdc3a47U, 0xbc3cc43d3e6417c9U, 0xbe1d4e33be545cc4U,
  0xbcdc3a47be0d932eU, 0xbd9d4e33U, 0x3cdc3a47bd3cc43dU, 0xbe0d932e3db4e6baU,
  0x3d2d0938bcdc3a47U, 0xbdbcc43dbdcc7f42U, 0xbd9570b0bd85b5abU, 0xbd8d932ebc9d4e33U,
  0xbdad09383dfbb051U, 0x3e489081bcdc3a47U, 0x3d9d4e33bdf3d2ceU, 0xbe05b5ab3bfbb051U,
  0xbd6bf54c3c3cc43dU, 0xbcbcc43dbda52bb5U, 0x3c9d4e33bd8d932eU, 0x3d5c3a47bdfbb051U,
  0xbd6bf54cbd9570b0U, 0xbcdc3a47bdfbb051U, 0xbd9d4e33bdf3d2ceU, 0xbdebf54cbc9d4e33U,
  0x3dbcc43dbcdc3a47U, 0x3c3cc43d3e87ad0cU, 0x3d4c7f42bd2d0938U, 0x3d4c7f423cdc3a47U,
  0xbe0d932ebd1d4e33U, 0xbe1181ef3d7bb051U, 0xbd3cc43d3d85b5abU, 0xbd9570b03e34e6baU,
  0x3cfbb0513cfbb051U, 0x3c7bb051bdf3d2ceU, 0x3dad09383d4c7f42U, 0xbd85b5abbd5c3a47U,
  0x3e01c6ea3b7bb051U, 0x3dad09383cfbb051U, 0x3d1d4e33be195f71U, 0x3e1181ef3d0d932eU,
  0xbe252bb53c9d4e33U, 0x3c3cc43dbe30f7f9U, 0x3d2d09383d4c7f42U, 0x3e09a46cbe34e6baU,
  0x3cdc3a47bbfbb051U, 0xbe291a763d1d4e33U, 0xbd0d932e3d3cc43dU, 0x3c9d4e333c7bb051U,
  0x3d8d932ebe1570b0U, 0xbbfbb0513d9570b0U, 0xbd6bf54cU, 0x3d7bb051bbfbb051U,
  0x3c9d4e33bdc4a1bfU, 0xbd2d0938bc7bb051U, 0xbd6bf54cbc3cc43dU, 0xbbfbb0513e40b2feU,
  0x3da52bb53b7bb051U, 0xbdb4e6ba3da52bb5U, 0xbc9d4e33bd85b5abU, 0x3cfbb0513c9d4e33U,
  0x3e01c6ea3d9570b0U, 0xbd0d932e3e584b86U, 0xbe0d932eU, 0x3debf54c3e213cf4U,
  0x3d9570b0bd9570b0U, 0xbc3cc43d3e1181efU, 0x3dc4a1bf3dd45cc4U, 0x3c9d4e333e252bb5U,
  0xbdebf54cbd1d4e33U, 0x3e9181efbc9d4e33U, 0x3d8d932ebd3cc43dU, 0xbe4890813eb8d57bU,
  0xbe9f4593bd85b5abU, 0x3e30f7f9be0d932eU, 0xbd9d4e333c9d4e33U, 0x3cbcc43d3dad0938U,
  0xbda52bb53d9570b0U, 0xbde417c93d2d0938U, 0xbd2d09383e05b5abU, 0xbde417c93e01c6eaU,
  0xbd7bb0513c7bb051U, 0xbd0d932ebdb4e6baU, 0x3d7bb0513de417c9U, 0xbcdc3a47U,
  0xbe1d4e333e6417c9U, 0xbd4c7f42bbfbb051U, 0x3d85b5ab3e1570b0U, 0x3cfbb0513c7bb051U,
  0x3d3cc43dbcbcc43dU, 0x3e34e6babcdc3a47U, 0x3d9d4e33bd85b5abU, 0xbe252bb53c7bb051U,
  0xbcfbb0513bfbb051U, 0xbc9d4e333dfbb051U, 0x3c9d4e33bd9570b0U, 0x3dad0938bb7bb051U,
  0xbd1d4e333d5c3a47U, 0xbdf3d2cebda52bb5U, 0xbc3cc43d3e4c7f42U, 0xbd1d4e33bda52bb5U,
  0x3e05b5ab3d2d0938U, 0x3c3cc43dbe291a76U, 0x3d8d932eU, 0x3bfbb0513bfbb051U,
  0xbddc3a473c7bb051U, 0x3db4e6babd0d932eU, 0x3dbcc43d3ddc3a47U, 0xbd7bb051be0d932eU,
  0xbd2d0938bb7bb051U, 0x3dcc7f423c3cc43dU, 0xbd6bf54cbc7bb051U, 0xbc3cc43d3b7bb051U,
  0xbdebf54c3e09a46cU, 0x3da52bb53c3cc43dU, 0xbddc3a47bdb4e6baU, 0x3d9570b03de417c9U,
  0xbd4c7f42bda52bb5U, 0x3d7bb0513c7bb051U, 0xbd3cc43dU, 0xbdb4e6ba3dbcc43dU,
  0xbb7bb0513dbcc43dU, 0x3d6bf54c3e195f71U, 0x3d9d4e33bbfbb051U, 0xbd0d932ebcfbb051U,
  0xbb7bb0513c3cc43dU, 0xbe09a46c3dcc7f42U, 0x3d3cc43d3d0d932eU, 0xbdd45cc43d6bf54cU,
  0x3d5c3a473cdc3a47U, 0xbc3cc43dbe09a46cU, 0xbdb4e6babe01c6eaU, 0xbddc3a473cbcc43dU,
  0x3d8d932e3d8d932eU, 0xbd6bf54c3d3cc43dU, 0x3c3cc43dbdb4e6baU, 0xbe1181efbcdc3a47U,
  0xbe506e033dad0938U, 0x3d0d932ebd5c3a47U, 0xbbfbb0513dd45cc4U, 0x3d1d4e33bd0d932eU,
  0x3d9570b0bcdc3a47U, 0xbc3cc43dbd9d4e33U, 0x3cdc3a473debf54cU, 0xbcbcc43d3d85b5abU,
  0x3d2d09383cbcc43dU, 0x3d6bf54cbd9d4e33U, 0x3dad09383da52bb5U, 0xbdcc7f423d4c7f42U,
  0xbdc4a1bfbb7bb051U, 0xbd9570b03d0d932eU, 0xbe01c6ea3b7bb051U, 0xbd3cc43dbe01c6eaU,
  0x3e30f7f9bd85b5abU, 0x3d0d932ebe40b2feU, 0x3b7bb0513cfbb051U, 0x3c7bb0513ddc3a47U,
  0x3d9570b0bdc4a1bfU, 0x3debf54cbd9d4e33U, 0xbdcc7f42bc7bb051U, 0x3d85b5abbe1181efU,
  0xbbfbb0513ddc3a47U, 0xbdad09383e3cc43dU, 0xbd7bb051U, 0xbc7bb0513debf54cU,
  0x3d5c3a47be09a46cU, 0xbd0d932e3d7bb051U, 0xbcbcc43dbdebf54cU, 0x3d2d09383d8d932eU,
  0xbd1d4e33bd5c3a47U, 0x3e40b2fe3d2d0938U, 0xbdebf54cbcfbb051U, 0xbcdc3a473d2d0938U,
  0xbc3cc43d00000000U, 0x3d4c7f423d4c7f42U, 0x3d2d0938bde417c9U, 0x3db4e6babc3cc43dU,
  0xbbfbb051bdbcc43dU, 0x3b7bb0513d0d932eU, 0xbd85b5ab3cdc3a47U, 0xbc7bb0513d0d932eU,
  0xbd0d932e3cdc3a47U, 0xbb7bb0513d1d4e33U, 0x3d2d09383cfbb051U, 0xbe213cf4be68068bU,
  0xbe87ad0cbcbcc43dU, 0x3df3d2ce3dbcc43dU, 0x3da52bb5bd85b5abU, 0x3e213cf43bfbb051U,
  0x3c7bb051bd1d4e33U, 0xbcbcc43dbd7bb051U, 0xbdfbb051bdebf54cU, 0x3c7bb051be0d932eU,
  0x3de417c93d7bb051U, 0x3e1d4e333e09a46cU, 0xbd6bf54c3e1181efU, 0x3e38d57bbcbcc43dU,
  0xbd3cc43dbd85b5abU, 0x3d8d932ebc7bb051U, 0x3df3d2cebd85b5abU, 0x3e01c6eabcbcc43dU,
  0x3d9d4e33bd85b5abU, 0xbcfbb0513e195f71U, 0x3c3cc43d3dad0938U, 0x3d5c3a473bfbb051U,
  0x3b7bb0513d1d4e33U, 0x3ddc3a473cdc3a47U, 0xbd8d932ebe195f71U, 0xbddc3a473d7bb051U,
  0x3dad0938be213cf4U, 0x3d9d4e333dad0938U, 0x3c7bb051be1d4e33U, 0xbdc4a1bf3c9d4e33U,
  0xbd5c3a47bd8d932eU, 0xbdbcc43dU, 0xbd3cc43dbd6bf54cU, 0xbc3cc43dbd9d4e33U,
  0x3df3d2cebdebf54cU, 0x3dbcc43d3cdc3a47U, 0xbb7bb051bda52bb5U, 0xbd2d0938be1181efU,
  0xbd8d932ebd85b5abU, 0xbd4c7f42bc3cc43dU, 0x3dcc7f423dbcc43dU, 0x3d1d4e333e09a46cU,
  0xbd5c3a47bdc4a1bfU, 0x3d5c3a47bd8d932eU, 0xbc9d4e333d4c7f42U, 0x3d3cc43dbdcc7f42U,
  0x3cbcc43d3cdc3a47U, 0x3bfbb051bdd45cc4U, 0x3e195f713d9570b0U, 0x3cbcc43dbbfbb051U,
  0xbd6bf54cbd4c7f42U, 0xbda52bb53e05b5abU, 0xbcbcc43dbe252bb5U, 0xbdb4e6ba3e01c6eaU,
  0xbc3cc43d3c9d4e33U, 0xbd6bf54c3d3cc43dU, 0xbd6bf54c3c7bb051U, 0xbc3cc43d3dad0938U,
  0xbc3cc43dbbfbb051U, 0x3d3cc43dbc9d4e33U, 0xbc3cc43dbc7bb051U, 0x3cdc3a47bc7bb051U,
  0xbc3cc43dU, 0xbd5c3a473cbcc43dU, 0x3d0d932e3d3cc43dU, 0xbd9d4e3300000000U,
  0xbb7bb0513cbcc43dU, 0xbc7bb0513df3d2ceU, 0xbe1d4e333dcc7f42U, 0x3d7bb0513d8d932eU,
  0x3da52bb5bbfbb051U, 0xbd3cc43d3dd45cc4U, 0x3dd45cc4be252bb5U, 0xbd85b5abbdad0938U,
  0x3d85b5abbc7bb051U, 0x3b7bb051be1181efU, 0xbe01c6ea3b7bb051U, 0xbddc3a473cbcc43dU,
  0xbbfbb0513dad0938U, 0x3d8d932e3d1d4e33U, 0xbe83be4a3d0d932eU, 0xbddc3a47bcbcc43dU,
  0x3d9d4e333e506e03U, 0x3bfbb051bb7bb051U, 0xbc9d4e333cbcc43dU, 0x3e38d57bbc3cc43dU,
  0xbdfbb0513d6bf54cU, 0x3e195f713d2d0938U, 0x3e489081be09a46cU, 0x3cdc3a473e1181efU,
  0xbdcc7f42bcbcc43dU, 0xbd7bb051bd1d4e33U, 0x3c9d4e333db4e6baU, 0x3d8d932ebe252bb5U,
  0x3e09a46c3e252bb5U, 0xbd0d932ebe1181efU, 0xbbfbb0513b7bb051U, 0x3cfbb0513d0d932eU,
  0x3dd45cc43b7bb051U, 0xbd3cc43d3dcc7f42U, 0xbcfbb051bd6bf54cU, 0xbdb4e6babdc4a1bfU,
  0xbd6bf54cbd4c7f42U, 0x3d3cc43dbc3cc43dU, 0xbdad09383e545cc4U, 0x3e01c6ea3cbcc43dU,
  0xbd0d932ebd9570b0U, 0x3dcc7f423d1d4e33U, 0xbd9570b0bd6bf54cU, 0x3d9d4e33U,
  0xbda52bb53cfbb051U, 0x3d6bf54cbbfbb051U, 0xbe2d0938be05b5abU, 0x3d85b5abbdb4e6baU,
  0x3bfbb0513e0d932eU, 0x3d0d932e3dbcc43dU, 0x3e01c6eabdad0938U, 0xbc3cc43dbd2d0938U,
  0xbd9570b03dcc7f42U, 0x3b7bb051bd0d932eU, 0xbbfbb0513d2d0938U, 0x3bfbb051bd0d932eU,
  0x3cdc3a473c3cc43dU, 0x3d85b5abbd8d932eU, 0x3c7bb051bbfbb051U, 0x3d2d0938bd8d932eU,
  0x3c9d4e333d1d4e33U, 0x3dad0938bdd45cc4U, 0x3bfbb051bcdc3a47U, 0x3de417c9bde417c9U,
  0xbcdc3a473d9d4e33U, 0x3cdc3a47bd1d4e33U, 0x3d6bf54cbde417c9U, 0xbe01c6ea3dbcc43dU,
  0x3e01c6eabd2d0938U, 0xbd3cc43d3c7bb051U, 0xbe213cf4be1d4e33U, 0x3bfbb0513bfbb051U,
  0x3db4e6babd3cc43dU, 0x3ddc3a473d6bf54cU, 0x3c9d4e333e1181efU, 0xbd8d932e3bfbb051U,
  0x3d6bf54c00000000U, 0x3db4e6babd0d932eU, 0xbdb4e6babd9d4e33U, 0x3c9d4e333e291a76U,
  0x3d9570b03d1d4e33U, 0xbdfbb051bdfbb051U, 0x3d8d932e3e01c6eaU, 0xbd3cc43d3c3cc43dU,
  0x3cbcc43dbd5c3a47U, 0xbbfbb051bbfbb051U, 0xbd4c7f42bcbcc43dU, 0xbdb4e6ba3d9d4e33U,
  0x3e01c6eabd9570b0U, 0x3d2d0938be1570b0U, 0x3e6417c9bbfbb051U, 0xbc7bb051bdebf54cU,
  0x3e05b5ab3d5c3a47U, 0x3e0d932ebc7bb051U, 0xbdcc7f423d85b5abU, 0xbe5c3a47bcdc3a47U,
  0xbd0d932ebda52bb5U, 0xbe40b2fe3e05b5abU, 0xbe1181ef3d5c3a47U, 0xbe09a46c3cfbb051U,
  0x3d5c3a473dd45cc4U, 0xbd2d09383cfbb051U, 0x3e1181efbe195f71U, 0x3b7bb051bd7bb051U,
  0xbdb4e6babe9570b0U, 0x3df3d2ce3da52bb5U, 0xbdcc7f42bd6bf54cU, 0x3c7bb0513c7bb051U,
  0xbcdc3a473db4e6baU, 0x3cdc3a47bd4c7f42U, 0xbd9570b03ddc3a47U, 0xbd3cc43dbd3cc43dU,
  0xbe252bb53d0d932eU, 0x3d85b5abbd0d932eU, 0xbe01c6ea3df3d2ceU, 0x3e6bf54c3d7bb051U,
  0xbe0d932ebcfbb051U, 0xbdc4a1bf3dd45cc4U, 0x3d8d932ebc7bb051U, 0x3c7bb051U,
  0x3b7bb051bd7bb051U, 0x3b7bb0513d4c7f42U, 0x3df3d2cebdb4e6baU, 0x3db4e6babde417c9U,
  0x3d1d4e33bd1d4e33U, 0x3dbcc43dbd85b5abU, 0xbd6bf54cbcfbb051U, 0x3e85b5abbd9570b0U,
  0xbd2d0938bd0d932eU, 0x3e30f7f9bb7bb051U, 0x3e2d09383d0d932eU, 0xbcbcc43dbdcc7f42U,
  0xbdad09383bfbb051U, 0x3c3cc43dbdad0938U, 0x3d1d4e333cdc3a47U, 0x3e4c7f42bcfbb051U,
  0x3d85b5abbc7bb051U, 0xbd1d4e333e252bb5U, 0xbd1d4e333debf54cU, 0x3c9d4e333db4e6baU,
  0x3d6bf54c3d85b5abU, 0xbd7bb0513da52bb5U, 0xbe6bf54c3e40b2feU, 0x3d0d932e3d2d0938U,
  0x3e40b2fe3b7bb051U, 0xbcbcc43dbb7bb051U, 0xbd2d09383c9d4e33U, 0xbd85b5ab3ddc3a47U,
  0xbd9570b0be584b86U, 0xbdb4e6ba3e291a76U, 0xbd9570b0be213cf4U, 0x3d3cc43d3d3cc43dU,
  0xbd3cc43dbd9570b0U, 0xbe213cf4bd9d4e33U, 0x3e6bf54cbd9d4e33U, 0xbd4c7f42be1181efU,
  0xbd6bf54c3d4c7f42U, 0x3e85b5ab3da52bb5U, 0xbe2d09383c7bb051U, 0xbcdc3a473e584b86U,
  0x3ddc3a47be1d4e33U, 0xbe9570b03e2d0938U, 0xbe6bf54c3dc4a1bfU, 0xbd85b5ab3e1570b0U,
  0x3d4c7f423d85b5abU, 0xbe2d0938be2d0938U, 0x3dd45cc4bd9d4e33U, 0x3e584b86be195f71U,
  0x3de417c9be6bf54cU, 0x3c9d4e33bd4c7f42U, 0x3de417c93d3cc43dU, 0x3d7bb051bd7bb051U,
  0x3d3cc43d3e09a46cU, 0xbd5c3a473e252bb5U, 0xbddc3a473e05b5abU, 0xbd4c7f42be2d0938U,
  0xbe05b5abbd0d932eU, 0xbdbcc43d3e1181efU, 0x3dbcc43dbe291a76U, 0xbdb4e6ba3e1570b0U,
  0x3d1d4e33be252bb5U, 0x3b7bb0513dcc7f42U, 0x3e09a46cbe291a76U, 0x3d9d4e333de417c9U,
  0x3e09a46cbd5c3a47U, 0x3c7bb051bdcc7f42U, 0x3e2d0938be30f7f9U, 0xbda52bb53dad0938U,
  0x3dfbb0513d3cc43dU, 0x3bfbb051bd3cc43dU, 0x3e2d0938bdd45cc4U, 0x3de417c9be213cf4U,
  0xbddc3a473dad0938U, 0xbdc4a1bfbe5c3a47U, 0x3e9768113d3cc43dU, 0x3dad09383d9570b0U,
  0xbdc4a1bf00000000U, 0xbd2d0938bdc4a1bfU, 0x3e2d09383ddc3a47U, 0x3eb0f7f9bdd45cc4U,
  0x3dad09383da52bb5U, 0xbc3cc43d3e09a46cU, 0x3d1d4e33bd6bf54cU, 0x3d3cc43d3d85b5abU,
  0x3e05b5ab3d8d932eU, 0xbd8d932e3d0d932eU, 0xbe85b5abbcfbb051U, 0x3d9d4e33bdfbb051U,
  0x3e6029083d0d932eU, 0xbd5c3a473ddc3a47U, 0x3d4c7f423cdc3a47U, 0xbc9d4e333cdc3a47U,
  0xbcfbb051be44a1bfU, 0xbdfbb0513ddc3a47U, 0xbd0d932ebd2d0938U, 0x3d7bb0513da52bb5U,
  0xbe01c6eabd4c7f42U, 0xbe4890813de417c9U, 0x3d9d4e33be5c3a47U, 0xbe0d932ebe01c6eaU,
  0xbbfbb051be291a76U, 0x3d9d4e333d0d932eU, 0x3da52bb5be01c6eaU, 0xbe09a46c3e77c190U,
  0x3dcc7f42bdb4e6baU, 0x3debf54cbdfbb051U, 0x3d1d4e33bd4c7f42U, 0x3e4890813dcc7f42U,
  0x3d5c3a473cbcc43dU, 0x3d2d09383de417c9U, 0xbe195f713c3cc43dU, 0xbe0d932e3d3cc43dU,
  0xbd7bb0513db4e6baU, 0x3d2d09383d3cc43dU, 0xbd2d0938bd85b5abU, 0x3d4c7f423d2d0938U,
  0x3d4c7f42bdfbb051U, 0x3d7bb051bd0d932eU, 0xbdad0938bd6bf54cU, 0x3bfbb051be05b5abU,
  0x3dbcc43dbdb4e6baU, 0x3e1181ef3cfbb051U, 0xbe195f713e0d932eU, 0xbe195f713debf54cU,
  0x3debf54c3d7bb051U, 0xbdcc7f42bd3cc43dU, 0x3dd45cc43d1d4e33U, 0x3b7bb051bdc4a1bfU,
  0x3dbcc43d3d0d932eU, 0x3da52bb5be2d0938U, 0xbd7bb0513db4e6baU, 0xbd85b5abU,
  0x3cfbb0513dad0938U, 0xbcfbb051be01c6eaU, 0x3e01c6ea3d3cc43dU, 0xbe1d4e33bd2d0938U,
  0x3ddc3a47be1d4e33U, 0xbcdc3a473e44a1bfU, 0xbe87ad0c3d8d932eU, 0xbdbcc43d3dd45cc4U,
  0x3dd45cc4bcbcc43dU, 0x3cfbb051bd2d0938U, 0xbc9d4e33be0d932eU, 0xbd5c3a47bbfbb051U,
  0x3dfbb051bcbcc43dU, 0x3d2d0938bdd45cc4U, 0xbd2d09383d5c3a47U, 0x3d5c3a47bdf3d2ceU,
  0x3bfbb051bd9570b0U, 0x3e2d0938bb7bb051U, 0x3b7bb051be09a46cU, 0xbe252bb53dcc7f42U,
  0xbe506e03bc7bb051U, 0x3dfbb0513cdc3a47U, 0x3e4c7f42be252bb5U, 0xbdcc7f42bd85b5abU,
  0xbcfbb0513d3cc43dU, 0x3d1d4e33bd9570b0U, 0xbb7bb051bd3cc43dU, 0x3cfbb05100000000U,
  0xbd9d4e333d0d932eU, 0x3db4e6babd7bb051U, 0xbe01c6ea3e1d4e33U, 0x3da52bb53e1570b0U,
  0x3d4c7f423dc4a1bfU, 0xbe6417c9U, 0x3bfbb0513e01c6eaU, 0x3debf54cbc9d4e33U,
  0xbda52bb5be01c6eaU, 0x3e09a46c3c3cc43dU, 0xbd7bb051bd2d0938U, 0xbd1d4e333c9d4e33U,
  0x3bfbb051bd5c3a47U, 0xbe01c6eaU, 0xbd8d932e3db4e6baU, 0x3d3cc43dbdf3d2ceU,
  0xbd0d932e3e1d4e33U, 0x3d5c3a47bd7bb051U, 0xbd6bf54c3d8d932eU, 0x3d7bb051bd9d4e33U,
  0xbd7bb0513d4c7f42U, 0xbe1570b0bd1d4e33U, 0x3de417c93e3cc43dU, 0x3df3d2cebc7bb051U,
  0xbe3cc43dbd9d4e33U, 0x3e291a763dc4a1bfU, 0xbddc3a47bd2d0938U, 0x3d85b5abbe1570b0U,
  0xbd5c3a473db4e6baU, 0xbdbcc43d3cbcc43dU, 0xbd8d932e3e09a46cU, 0x3e291a76bd85b5abU,
  0xbd8d932ebd85b5abU, 0x3d3cc43d3bfbb051U, 0xbdcc7f423d4c7f42U, 0x3b7bb051U,
  0xbcdc3a473d85b5abU, 0xbbfbb051bbfbb051U, 0x3d7bb0513d8d932eU, 0xbd0d932ebe30f7f9U,
  0xbda52bb53c7bb051U, 0xbe3cc43d3c9d4e33U, 0x3d9570b0be30f7f9U, 0xbcdc3a473cfbb051U,
  0xbcdc3a473d7bb051U, 0xbe01c6eabdebf54cU, 0xbc9d4e333e1d4e33U, 0x3b7bb051bc7bb051U,
  0x3dc4a1bfbd9570b0U, 0x3d6bf54c3df3d2ceU, 0x3dcc7f42bd4c7f42U, 0x3de417c9be584b86U,
  0x3d4c7f42be01c6eaU, 0x3d9570b0bdc4a1bfU, 0xbd7bb051U, 0xbe252bb5bd2d0938U,
  0xbd8d932ebcfbb051U, 0xbdad0938bc3cc43dU, 0x3c3cc43d3c3cc43dU, 0x3ddc3a47bd9570b0U,
  0xbe77c190bdcc7f42U, 0x3d6bf54cbdebf54cU, 0x3e213cf4bcdc3a47U, 0xbdfbb051bdc4a1bfU,
  0xbd7bb051be602908U, 0x3df3d2ce3c3cc43dU, 0x3e252bb53bfbb051U, 0xbd7bb051bd9d4e33U,
  0xbd4c7f423cdc3a47U, 0xbd9d4e33be1570b0U, 0x3d6bf54c3d0d932eU, 0xbddc3a47be38d57bU,
  0x3b7bb051bdcc7f42U, 0xbddc3a473cbcc43dU, 0x3d7bb0513ddc3a47U, 0x3c3cc43d3e68068bU,
  0xbdfbb051bcdc3a47U, 0xbd5c3a47bc7bb051U, 0xbdc4a1bfbe1d4e33U, 0xbc3cc43dbd1d4e33U,
  0x3bfbb0513d7bb051U, 0x3cbcc43d3c7bb051U, 0xbb7bb051bd9570b0U, 0xbd4c7f423dad0938U,
  0x3cdc3a47bd0d932eU, 0xbdf3d2ce3d3cc43dU, 0x3cdc3a473dd45cc4U, 0x3b7bb0513c3cc43dU,
  0x3cdc3a473ddc3a47U, 0xbcfbb0513dc4a1bfU, 0xbe213cf4be05b5abU, 0xbbfbb0513c3cc43dU,
  0xbda52bb53dad0938U, 0x3d8d932ebb7bb051U, 0x3de417c9bdebf54cU, 0xbd5c3a47bb7bb051U,
  0x3e0d932ebda52bb5U, 0xbde417c93d4c7f42U, 0x3c9d4e33bcbcc43dU, 0x3d8d932e3c3cc43dU,
  0xbdebf54cbd6bf54cU, 0x3cbcc43d3dfbb051U, 0xbe291a76bbfbb051U, 0xbc3cc43d3c9d4e33U,
  0xbd1d4e333e1181efU, 0x3d4c7f42bb7bb051U, 0x3e0d932ebdd45cc4U, 0xbbfbb051bd4c7f42U,
  0x3d9d4e33be0d932eU, 0x3b7bb051be44a1bfU, 0x3e01c6eabd5c3a47U, 0x3d7bb051bdd45cc4U,
  0xbdad09383c9d4e33U, 0x3d6bf54cbc7bb051U, 0xbe30f7f9bd3cc43dU, 0xbc9d4e333e0d932eU,
  0x3c9d4e333cfbb051U, 0x3bfbb051bd0d932eU, 0xbd0d932ebbfbb051U, 0xbdb4e6ba3cfbb051U,
  0xbbfbb051bc7bb051U, 0x3d9570b03d7bb051U, 0xbddc3a473e34e6baU, 0x3d85b5ab3d8d932eU,
  0x3d8d932ebe0d932eU, 0x3d2d0938bd8d932eU, 0x3c3cc43dbd3cc43dU, 0xbd4c7f423d3cc43dU,
  0xbdcc7f42bd9570b0U, 0xbd5c3a473dcc7f42U, 0xbddc3a47bb7bb051U, 0xbcbcc43d3cfbb051U,
  0x3bfbb0513d4c7f42U, 0xbe05b5abbc7bb051U, 0x3c9d4e33U, 0xbd0d932e3d5c3a47U,
  0xbe05b5abbe213cf4U, 0x3cdc3a47bd8d932eU, 0x3d0d932ebd9570b0U, 0x3cdc3a473c9d4e33U,
  0xbcdc3a47be09a46cU, 0x3e1181efbcbcc43dU, 0x3d7bb051be291a76U, 0x3d2d0938be0d932eU,
  0xbc7bb0513e602908U, 0xbd3cc43dbc7bb051U, 0x3d1d4e33U, 0x3dbcc43dbcfbb051U,
  0x3d85b5abbe1d4e33U, 0xbdc4a1bf3d5c3a47U, 0xbe4890813dbcc43dU, 0x3ddc3a47bdb4e6baU,
  0x3dad0938bc3cc43dU, 0x3b7bb0513d6bf54cU, 0xbc9d4e333c9d4e33U, 0xbd2d09383dad0938U,
  0x3cbcc43dbdebf54cU, 0xbd1d4e333e09a46cU, 0x3dbcc43dbdfbb051U, 0xbdc4a1bf3cfbb051U,
  0xbd85b5ab3de417c9U, 0xbd9d4e333cbcc43dU, 0xbbfbb0513dad0938U, 0xbcbcc43dbc3cc43dU,
  0x3db4e6babd0d932eU, 0xbcbcc43dbc9d4e33U, 0x3e01c6eabd2d0938U, 0x3d8d932e3bfbb051U,
  0xbd2d09383dd45cc4U, 0x3c3cc43d3d9d4e33U, 0x3e4c7f42bdbcc43dU, 0x3dad0938bb7bb051U,
  0x3d85b5abbd9d4e33U, 0x3e30f7f93bfbb051U, 0x3d8d932e3dc4a1bfU, 0xbbfbb0513bfbb051U,
  0x3c3cc43dbd0d932eU, 0xbdd45cc43e01c6eaU, 0x3d0d932e3d7bb051U, 0x3d6bf54cbe30f7f9U,
  0x3e489081bda52bb5U, 0xbe6029083cfbb051U, 0xbd9570b0U, 0x3d0d932e3d4c7f42U,
  0xbe291a76bcbcc43dU, 0xbc3cc43dbcfbb051U, 0xbe5c3a47bc9d4e33U, 0x3c9d4e333d5c3a47U,
  0xbda52bb53d1d4e33U, 0xbdc4a1bfbd1d4e33U, 0x3d6bf54cbd3cc43dU, 0xbdad0938bd3cc43dU,
  0x3c7bb0513d9d4e33U, 0x3c7bb051bd85b5abU, 0xbd1d4e33bd4c7f42U, 0xbd4c7f42bd6bf54cU,
  0xbe0d932e3dc4a1bfU, 0xbdcc7f42bd5c3a47U, 0x3b7bb051bd0d932eU, 0xbd9570b0bd8d932eU,
  0x3db4e6babdebf54cU, 0x3d6bf54cbd7bb051U, 0xbd9d4e333d7bb051U, 0xbcbcc43dbd1d4e33U,
  0x3d5c3a47be09a46cU, 0x3cdc3a473cdc3a47U, 0x3e1d4e33bcfbb051U, 0x3c9d4e33be291a76U,
  0xbdd45cc43debf54cU, 0x3c9d4e333debf54cU, 0xbdcc7f42bbfbb051U, 0x3dc4a1bf3dad0938U,
  0xbcdc3a47be213cf4U, 0xbd0d932e3dfbb051U, 0xbdd45cc43b7bb051U, 0xbb7bb0513d6bf54cU,
  0x3dbcc43d3d4c7f42U, 0x3debf54cbdbcc43dU, 0xbdd45cc400000000U, 0xbcbcc43dbc9d4e33U,
  0x3d0d932ebbfbb051U, 0xbe01c6ea3dbcc43dU, 0x3e291a76bd4c7f42U, 0x3c7bb051bd85b5abU,
  0x3d4c7f42bd9570b0U, 0x3da52bb5bbfbb051U, 0xbd2d0938bdb4e6baU, 0xbd4c7f423d85b5abU,
  0xbdebf54c3dd45cc4U, 0x3dad0938bc9d4e33U, 0xbdf3d2ce3d5c3a47U, 0xbd4c7f42bd6bf54cU,
  0xbd2d0938be01c6eaU, 0x3e7f9f12bd85b5abU, 0x3dad09383d9570b0U, 0x3da52bb53cdc3a47U,
  0x3df3d2ce3cbcc43dU, 0xbd5c3a47bc9d4e33U, 0x3d5c3a47bb7bb051U, 0xbdc4a1bf3d7bb051U,
  0x3ddc3a47bb7bb051U, 0xbe252bb5bb7bb051U, 0x3d0d932e3cfbb051U, 0x3d8d932ebd7bb051U,
  0x3cfbb0513e40b2feU, 0x3dbcc43dbc7bb051U, 0xbd9d4e33bcbcc43dU, 0x3c3cc43d3c7bb051U,
  0xbd7bb0513e0d932eU, 0x3d3cc43dbdb4e6baU, 0xbe01c6ea3d4c7f42U, 0x3d4c7f42bd4c7f42U,
  0xbe05b5abbbfbb051U, 0x3c7bb0513d7bb051U, 0x3da52bb5be545cc4U, 0xbc9d4e33bd9d4e33U,
  0xbd1d4e33bd9d4e33U, 0x3d0d932ebc3cc43dU, 0x3db4e6babdcc7f42U, 0xbd4c7f42bc7bb051U,
  0xbddc3a473b7bb051U, 0xbd7bb0513da52bb5U, 0xbd1d4e333d3cc43dU, 0x3ddc3a47be584b86U,
  0xbde417c9bb7bb051U, 0x3e2d0938beb2ef5aU, 0x3e8b9bcdbe3cc43dU, 0x3d8d932ebd3cc43dU,
  0xbc7bb0513e489081U, 0x3dad0938bc9d4e33U, 0xbcbcc43dbdcc7f42U, 0x3e05b5ab3c9d4e33U,
  0xbdebf54c3e545cc4U, 0x3cfbb0513bfbb051U, 0xbcfbb0513cfbb051U, 0xbda52bb5bd5c3a47U,
  0xbc7bb051bcbcc43dU, 0x3d3cc43dbd9d4e33U, 0xbdbcc43d3d9d4e33U, 0x3cbcc43d3dad0938U,
  0x3cdc3a47bdd45cc4U, 0x3d4c7f42bdf3d2ceU, 0x3d0d932ebcfbb051U, 0x3cbcc43d3e291a76U,
  0x3d7bb0513c3cc43dU, 0x3d4c7f423d0d932eU, 0x3d1d4e33bd4c7f42U, 0xbb7bb051be195f71U,
  0xbb7bb051be05b5abU, 0x3dcc7f423e09a46cU, 0x3b7bb0513c3cc43dU, 0xbd0d932ebda52bb5U,
  0x3d9d4e33bdad0938U, 0x3d9d4e33bd7bb051U, 0xbd7bb0513c9d4e33U, 0xbdbcc43d3d1d4e33U,
  0xbe584b86be506e03U, 0x3e6bf54c3e2d0938U, 0xbe3cc43d3cdc3a47U, 0xbe195f71bdad0938U,
  0x3e195f713e1181efU, 0xbb7bb0513cdc3a47U, 0xbeaf0098bcbcc43dU, 0xbe9d4e33bd5c3a47U,
  0xbe87ad0c3e7f9f12U, 0x3cdc3a473dbcc43dU, 0xbe0d932e3e252bb5U, 0xbdcc7f42bc3cc43dU,
  0xbcfbb051be195f71U, 0x3d0d932e3d9570b0U, 0x3e85b5ab3e213cf4U, 0x3ea33455bda52bb5U,
  0x3cfbb0513d3cc43dU, 0xbd3cc43dbe7bb051U, 0xbc9d4e333d2d0938U, 0xbe9181ef3e8d932eU,
  0x3d8d932e3cbcc43dU, 0x3d9570b03b7bb051U, 0x3bfbb051bbfbb051U, 0x3bfbb051be1d4e33U,
  0x3d7bb0513e30f7f9U, 0x3debf54c3cfbb051U, 0xbe0d932e3e05b5abU, 0x3dd45cc4U,
  0x3da52bb5bcbcc43dU, 0x3d1d4e33bd9570b0U, 0x3d0d932e3e85b5abU, 0x3e3cc43d00000000U,
  0x3d7bb051U, 0xbc7bb0513e602908U, 0xbe1570b03e1570b0U, 0xbb7bb051bb7bb051U,
  0x3dd45cc4bbfbb051U, 0x3d9570b03d9d4e33U, 0xbd85b5ab3c7bb051U, 0x3e1570b03d1d4e33U,
  0x3b7bb051bc7bb051U, 0x3c3cc43dbcbcc43dU, 0xbd2d09383cbcc43dU, 0x3cfbb051bcbcc43dU,
  0xbdebf54c3d4c7f42U, 0x3e1d4e333d2d0938U, 0xbe0d932ebd8d932eU, 0xbe0d932e3e30f7f9U,
  0x3d85b5abbe195f71U, 0xbd3cc43dbd4c7f42U, 0x3dd45cc43e1181efU, 0xbd6bf54cbb7bb051U,
  0xbcbcc43d3d9d4e33U, 0x3dc4a1bfbda52bb5U, 0xbe1570b03cdc3a47U, 0x3c9d4e333de417c9U,
  0xbddc3a47bc9d4e33U, 0x3dbcc43d3dc4a1bfU, 0xbd4c7f42bdebf54cU, 0xbd8d932e3debf54cU,
  0xbc9d4e333d2d0938U, 0x3c7bb051bc9d4e33U, 0xbd8d932e3d1d4e33U, 0x3de417c9bd6bf54cU,
  0x3d8d932ebbfbb051U, 0x3dc4a1bf3cfbb051U, 0x3d6bf54cbcdc3a47U, 0xbd5c3a473debf54cU,
  0x3d0d932ebd8d932eU, 0x3d7bb051bd4c7f42U, 0xbc7bb051bd0d932eU, 0xbd0d932ebda52bb5U,
  0xbd85b5ab3d0d932eU, 0x3d9d4e33be05b5abU, 0xbd9d4e333dcc7f42U, 0xbd0d932e3c9d4e33U,
  0x3d0d932e3da52bb5U, 0xbb7bb0513e1d4e33U, 0xbdcc7f423d2d0938U, 0x3d8d932ebd4c7f42U,
  0xbc9d4e33bd3cc43dU, 0xbd3cc43d3d2d0938U, 0x3e30f7f93e213cf4U, 0x3dc4a1bf3e1181efU,
  0xbdb4e6babbfbb051U, 0x3e01c6eabd5c3a47U, 0x3e3cc43d3dad0938U, 0xbdc4a1bf3dfbb051U,
  0x3d6bf54cbdbcc43dU, 0x3d85b5abbcfbb051U, 0x3bfbb0513d6bf54cU, 0x3cbcc43d3d2d0938U,
  0xbd8d932e3dc4a1bfU, 0xbcdc3a47bcbcc43dU, 0xbdc4a1bf3e195f71U, 0x3d2d0938bd5c3a47U,
  0xbd0d932e3c3cc43dU, 0xbc7bb0513e195f71U, 0xbd0d932ebd1d4e33U, 0xbd2d0938bc7bb051U,
  0xbd1d4e333d6bf54cU, 0xbdad0938bd3cc43dU, 0xbd0d932e3d6bf54cU, 0xbc3cc43d3e1570b0U,
  0xbd8d932ebcfbb051U, 0x3d9d4e33bbfbb051U, 0xbd6bf54cbc9d4e33U, 0x3dad0938bcdc3a47U,
  0xbcbcc43dbcbcc43dU, 0x3debf54cbdbcc43dU, 0xbe195f71bd3cc43dU, 0xbd3cc43d3b7bb051U,
  0x3cdc3a473d9d4e33U, 0xbc9d4e333dc4a1bfU, 0x3d3cc43d00000000U, 0xbd4c7f423c9d4e33U,
  0xbd2d0938bb7bb051U, 0xbc9d4e333da52bb5U, 0x3b7bb051bd2d0938U, 0xbd9d4e333dbcc43dU,
  0xbcfbb0513d2d0938U, 0x3d4c7f42bd3cc43dU, 0xbddc3a473dcc7f42U, 0x3d9d4e33bda52bb5U,
  0xbe05b5ab3e09a46cU, 0x3c9d4e333b7bb051U, 0xbd4c7f423de417c9U, 0x3d85b5abbddc3a47U,
  0x3d85b5abbdf3d2ceU, 0x3d0d932ebd6bf54cU, 0xbd1d4e333d5c3a47U, 0xbe213cf4be3cc43dU,
  0xbd1d4e333d4c7f42U, 0xbbfbb0513d6bf54cU, 0x3d0d932e3d1d4e33U, 0x3d6bf54c3debf54cU,
  0x3cbcc43dbd9570b0U, 0xbc3cc43d3b7bb051U, 0xbdcc7f42bdbcc43dU, 0xbbfbb0513c3cc43dU,
  0x3e44a1bfbda52bb5U, 0xbe44a1bfbe05b5abU, 0x3cfbb051bdd45cc4U, 0xbd9570b0bdfbb051U,
  0xbd4c7f423bfbb051U, 0xbd2d093800000000U, 0xbe30f7f93de417c9U, 0x3d2d0938bc3cc43dU,
  0xbd2d09383d7bb051U, 0xbe09a46c3d6bf54cU, 0xbdc4a1bfbd3cc43dU, 0xbd8d932ebda52bb5U,
  0xbb7bb05100000000U, 0xbd7bb0513cdc3a47U, 0x3d9570b03c9d4e33U, 0xbbfbb0513c3cc43dU,
  0x3b7bb051bc3cc43dU, 0xbcfbb051be09a46cU, 0xbd0d932e3dcc7f42U, 0xbb7bb051bc9d4e33U,
  0x3c3cc43dbd3cc43dU, 0xbcfbb051be05b5abU, 0x3d1d4e33bcbcc43dU, 0xbbfbb0513d5c3a47U,
  0xbc7bb0513cdc3a47U, 0x3d9570b0bc7bb051U, 0x3d6bf54c00000000U, 0x3d9d4e33be77c190U,
  0x3d0d932e3b7bb051U, 0xbdf3d2ce3d2d0938U, 0x3db4e6ba00000000U, 0x3c7bb051bcdc3a47U,
  0x3d5c3a47bdb4e6baU, 0xbb7bb0513d85b5abU, 0x3dad0938bd1d4e33U, 0xbcbcc43d3dbcc43dU,
  0x3c7bb051be602908U, 0x3d8d932e3d7bb051U, 0xbcbcc43d3dd45cc4U, 0xbe1570b0be40b2feU,
  0x3dad09383e09a46cU, 0x3bfbb051bd9570b0U, 0x3c3cc43dbcbcc43dU, 0xbe1181ef3da52bb5U,
  0x3d9d4e333d85b5abU, 0xbb7bb051bda52bb5U, 0xbdcc7f423d8d932eU, 0xbe1570b03e1570b0U,
  0xbbfbb0513d5c3a47U, 0x3bfbb051bcfbb051U, 0x3d5c3a473bfbb051U, 0x3d9570b03db4e6baU,
  0xbda52bb5bdfbb051U, 0xbe09a46cbe1d4e33U, 0xbb7bb0513b7bb051U, 0x3cfbb051bbfbb051U,
  0xbd6bf54cbd9d4e33U, 0xbe05b5abbd0d932eU, 0xbcdc3a473df3d2ceU, 0x3da52bb5U,
  0x3e01c6eabb7bb051U, 0x3db4e6babdd45cc4U, 0xbd0d932ebdcc7f42U, 0x3c3cc43d3d4c7f42U,
  0xbcfbb051bd85b5abU, 0x3c3cc43d3e3cc43dU, 0x3d9570b0bd1d4e33U, 0xbcfbb0513d8d932eU,
  0x3dc4a1bf3d7bb051U, 0xbe0d932ebd85b5abU, 0x3b7bb0513d1d4e33U, 0xbd2d09383dad0938U,
  0x3d2d09383b7bb051U, 0x3bfbb0513d85b5abU, 0xbbfbb0513e1d4e33U, 0xbd8d932ebc9d4e33U,
  0xbd0d932ebdd45cc4U, 0x3dbcc43dbd1d4e33U, 0x3cfbb0513cdc3a47U, 0xbdad09383e1181efU,
  0xbe2d0938bdbcc43dU, 0x3d8d932e3d6bf54cU, 0x3de417c93d2d0938U, 0xbd2d09383e38d57bU,
  0xbd9570b03d0d932eU, 0x3e976811be05b5abU, 0xbcdc3a47bdf3d2ceU, 0xbc7bb0513db4e6baU,
  0xbc3cc43d3dad0938U, 0x3debf54cbe2d0938U, 0xbdd45cc43d1d4e33U, 0x3d9570b03e09a46cU,
  0xbd8d932e3e68068bU, 0xbcbcc43d3dad0938U, 0x3c9d4e33bcbcc43dU, 0xbddc3a473cdc3a47U,
  0x3debf54c3d85b5abU, 0xbe34e6babe195f71U, 0xbd85b5ab3d6bf54cU, 0x3dad09383dad0938U,
  0xbcdc3a47be584b86U, 0x3dc4a1bf3c7bb051U, 0x3e1181ef3dfbb051U, 0xbd6bf54cbda52bb5U,
  0xbd8d932e3d2d0938U, 0xbc3cc43d3d5c3a47U, 0xbde417c93dc4a1bfU, 0xbcdc3a473c3cc43dU,
  0xbe252bb53ddc3a47U, 0xbb7bb0513e09a46cU, 0xbdebf54cbbfbb051U, 0xbc3cc43d3e09a46cU,
  0xbd85b5abbc3cc43dU, 0x3d3cc43d3d7bb051U, 0xbd4c7f42bd2d0938U, 0xbbfbb0513c9d4e33U,
  0x3cbcc43d3d6bf54cU, 0x3d85b5abbd2d0938U, 0xbe40b2fe3d4c7f42U, 0x3d5c3a473c9d4e33U,
  0x3d7bb0513c3cc43dU, 0x3db4e6ba3e0d932eU, 0x3e1570b03d6bf54cU, 0xbd7bb0513d1d4e33U,
  0x3d85b5ab3dbcc43dU, 0x3e05b5ab3cbcc43dU, 0x3d4c7f423d2d0938U, 0x3e01c6ea3e291a76U,
  0xbe1d4e33be1181efU, 0x3d6bf54c3cfbb051U, 0xbd9d4e33bd7bb051U, 0x3d7bb051bbfbb051U,
  0x3bfbb0513b7bb051U, 0xbc9d4e33bdd45cc4U, 0xbd8d932ebe1d4e33U, 0xbd4c7f42be1181efU,
  0xbd0d932e3d8d932eU, 0x3d5c3a47be1181efU, 0x3d9d4e333dbcc43dU, 0x3dbcc43d3b7bb051U,
  0xbcbcc43dbd8d932eU, 0xbd9d4e333d4c7f42U, 0x3bfbb0513d1d4e33U, 0xbcdc3a473d9d4e33U,
  0xbdad09383cdc3a47U, 0xbe38d57bbd1d4e33U, 0xbd9d4e333dfbb051U, 0xbc3cc43d3cfbb051U,
  0x3bfbb051bc3cc43dU, 0xbd85b5abbdbcc43dU, 0x3e1d4e33be09a46cU, 0xbe44a1bfbdcc7f42U,
  0xbe291a76be01c6eaU, 0xbe85b5abbe195f71U, 0x3d3cc43dbd1d4e33U, 0xbdb4e6babe09a46cU,
  0xbd4c7f423e0d932eU, 0xbbfbb0513dd45cc4U, 0xbd9570b0bd6bf54cU, 0x3cfbb0513d6bf54cU,
  0xbd5c3a473b7bb051U, 0x3db4e6babd9570b0U, 0xbdd45cc4bd9d4e33U, 0x3d8d932e3d9570b0U,
  0x3d0d932ebdfbb051U, 0x3cbcc43d3cbcc43dU, 0xbe09a46c3df3d2ceU, 0x3e05b5abbc7bb051U,
  0xbe252bb53dfbb051U, 0x3cfbb051bd2d0938U, 0x3da52bb53d0d932eU, 0x3dd45cc4be489081U,
  0x3d1d4e333c3cc43dU, 0xbcbcc43dbdad0938U, 0x3dc4a1bfbc9d4e33U, 0xbd9570b0bd5c3a47U,
  0x3bfbb0513d6bf54cU, 0xbda52bb53d2d0938U, 0xbd3cc43dbd9d4e33U, 0xbc9d4e33bdcc7f42U,
  0x3d9d4e33be05b5abU, 0xbdb4e6ba3debf54cU, 0xbe195f713de417c9U, 0x3cdc3a47bdf3d2ceU,
  0xbb7bb0513d5c3a47U, 0xbd9570b03c9d4e33U, 0xbd8d932ebdd45cc4U, 0xbd85b5abbd6bf54cU,
  0xbd6bf54c3dad0938U, 0xbe252bb53bfbb051U, 0x3cfbb051bd85b5abU, 0x3e68068b3d8d932eU,
  0xbdebf54c3c7bb051U, 0xbc9d4e33bd8d932eU, 0x3e77c1903bfbb051U, 0x3e0d932ebe195f71U,
  0xbe09a46c3d3cc43dU, 0x3d2d0938bd5c3a47U, 0x3e213cf4bb7bb051U, 0x3e1181ef3d2d0938U,
  0x3d5c3a473bfbb051U, 0xbe291a76be1d4e33U, 0x3cbcc43d3bfbb051U, 0xbc3cc43d3e545cc4U,
  0xbc3cc43d3d8d932eU, 0x3bfbb051bd6bf54cU, 0xbd9d4e333dbcc43dU, 0x3e291a763e6fe40dU,
  0xbc7bb051bd9570b0U, 0x3d6bf54c3d3cc43dU, 0x3d5c3a473dbcc43dU, 0x3ddc3a473bfbb051U,
  0x3cfbb0513bfbb051U, 0x3e1181efbdebf54cU, 0xbda52bb53cbcc43dU, 0xbd1d4e333dbcc43dU,
  0xbddc3a4700000000U, 0xbd0d932ebd5c3a47U, 0x3cbcc43d3cdc3a47U, 0x3e9181ef3d9570b0U,
  0x3da52bb53d8d932eU, 0x3c9d4e33bd6bf54cU, 0x3ddc3a47bd5c3a47U, 0xbd0d932ebd5c3a47U,
  0x3d7bb0513d85b5abU, 0xbde417c9bdf3d2ceU, 0x3e1570b0bc7bb051U, 0x3debf54cbe1570b0U,
  0x3dfbb0513ddc3a47U, 0x3d1d4e33be213cf4U, 0xbda52bb5bc3cc43dU, 0x3e252bb5bcdc3a47U,
  0x3cbcc43dbdfbb051U, 0x3dbcc43dbda52bb5U, 0xbd1d4e333c7bb051U, 0xbc7bb051bb7bb051U,
  0xbdbcc43d3d2d0938U, 0x3c7bb0513d9d4e33U, 0x3d1d4e33bd85b5abU, 0xbc7bb051bcfbb051U,
  0xbcbcc43d3d5c3a47U, 0xbd3cc43dbcbcc43dU, 0xbdfbb0513ddc3a47U, 0x3cfbb0513e09a46cU,
  0xbdcc7f423e252bb5U, 0x3de417c9bdcc7f42U, 0xbb7bb051bd85b5abU, 0xbd3cc43d3d5c3a47U,
  0x3cbcc43d3d9570b0U, 0x3db4e6baU, 0x3cfbb051bd7bb051U, 0x3db4e6babcfbb051U,
  0xbd4c7f42bbfbb051U, 0x3da52bb53e1570b0U, 0x3b7bb051bdf3d2ceU, 0xbe1570b03da52bb5U,
  0xbe213cf4bb7bb051U, 0x3bfbb051bd0d932eU, 0x3de417c9U, 0xbdebf54cU,
  0x3d9570b0be213cf4U, 0x3dc4a1bf3c9d4e33U, 0xbcfbb051bda52bb5U, 0x3db4e6babd7bb051U,
  0x3e01c6eabcdc3a47U, 0x3c9d4e33be2d0938U, 0xbd85b5ab3d6bf54cU, 0x3cdc3a473debf54cU,
  0x3c9d4e333b7bb051U, 0x3ddc3a473d8d932eU, 0x3e0d932e3bfbb051U, 0xbdebf54cbda52bb5U,
  0xbdebf54cbcbcc43dU, 0x3cbcc43d3dbcc43dU, 0x3cfbb051bd5c3a47U, 0xbcdc3a47bd8d932eU,
  0xbd1d4e333e1570b0U, 0xbdf3d2ce3d9d4e33U, 0xbe1181efbd2d0938U, 0xbc3cc43dbd85b5abU,
  0x3c3cc43d3c3cc43dU, 0x3d1d4e333e2d0938U, 0xbcfbb0513dc4a1bfU, 0xbdad0938bddc3a47U,
  0xbd7bb051U, 0x3d9d4e33bd4c7f42U, 0x3c3cc43dbbfbb051U, 0x3dfbb051bdebf54cU,
  0xbe252bb53d5c3a47U, 0x3e0d932e3d85b5abU, 0x3debf54c3dad0938U, 0x3e05b5ab3dfbb051U,
  0x3d9d4e33bd4c7f42U, 0xbe30f7f9bdcc7f42U, 0xbc9d4e33be545cc4U, 0x3cfbb051be584b86U,
  0xbd3cc43d3e30f7f9U, 0x3cfbb051bddc3a47U, 0x3ddc3a473cdc3a47U, 0xbdf3d2cebdbcc43dU,
  0x3dd45cc43dbcc43dU, 0x3c7bb051bde417c9U, 0xbc7bb051bcdc3a47U, 0xbe09a46c3e1570b0U,
  0xbd3cc43d3d1d4e33U, 0x3d2d09383debf54cU, 0x3dbcc43dbe489081U, 0xbc7bb0513cfbb051U,
  0x3e4c7f42bd6bf54cU, 0xbcdc3a473c9d4e33U, 0x3df3d2cebd7bb051U, 0x3de417c93ddc3a47U,
  0xbddc3a47bd2d0938U, 0xbe3cc43d3cbcc43dU, 0xbe195f71bde417c9U, 0xbe09a46c3cbcc43dU,
  0xbdc4a1bfU, 0xbde417c9bb7bb051U, 0x3d9d4e333d0d932eU, 0xbe6417c93d7bb051U,
  0x3cbcc43d3e7bb051U, 0x3d7bb0513d4c7f42U, 0xbd6bf54c3ddc3a47U, 0xbd4c7f423e5c3a47U,
  0x3e1181ef3d8d932eU, 0xbdad0938bc3cc43dU, 0x3d3cc43d3d4c7f42U, 0x3d0d932ebc7bb051U,
  0x3d0d932e3d0d932eU, 0xbe09a46cbcfbb051U, 0x3d2d0938be489081U, 0x3d85b5abbb7bb051U,
  0xbe252bb53d7bb051U, 0x3d1d4e33be3cc43dU, 0xbd6bf54cbd85b5abU, 0x3dd45cc4bb7bb051U,
  0xbde417c93d6bf54cU, 0xbdd45cc4bd2d0938U, 0x3d2d09383e1570b0U, 0x3db4e6babe195f71U,
  0xbcbcc43d3dc4a1bfU, 0xbc9d4e3300000000U, 0xbcdc3a473d4c7f42U, 0xbdb4e6ba3d2d0938U,
  0xbbfbb0513d5c3a47U, 0x3d2d0938bd2d0938U, 0xbe0d932ebd5c3a47U, 0x3e1570b0bd0d932eU,
  0x3d9d4e33bd3cc43dU, 0xbd9570b03de417c9U, 0x3ddc3a47bddc3a47U, 0xbdbcc43d3d9d4e33U,
  0xbb7bb051bcbcc43dU, 0xbd9d4e333e01c6eaU, 0xbd9d4e33bbfbb051U, 0x3e2d0938be2d0938U,
  0xbcdc3a473dfbb051U, 0x3d9d4e33bdc4a1bfU, 0xbdcc7f423e213cf4U, 0xbd3cc43dbd8d932eU,
  0xbd8d932e3dd45cc4U, 0xbc7bb0513d5c3a47U, 0xbc7bb051bcbcc43dU, 0xbe1d4e333debf54cU,
  0x3e05b5abbc3cc43dU, 0xbdfbb051bcdc3a47U, 0x3d8d932e3d6bf54cU, 0xbd2d0938bcbcc43dU,
  0x3dbcc43dbd2d0938U, 0xbd8d932e3d8d932eU, 0x3df3d2cebdad0938U, 0x3d4c7f423d1d4e33U,
  0xbd4c7f42bdb4e6baU, 0xbcdc3a473d7bb051U, 0x3b7bb051bd85b5abU, 0xbd7bb0513d4c7f42U,
  0xbdb4e6babe1181efU, 0xbdf3d2cebddc3a47U, 0xbc7bb0513d1d4e33U, 0x3e1d4e33bc3cc43dU,
  0xbcbcc43d3d6bf54cU, 0x3e195f713d6bf54cU, 0x3d85b5abU, 0x3e4c7f42bdad0938U,
  0x3dc4a1bfbcdc3a47U, 0xbe09a46c3d1d4e33U, 0xbdebf54cbd9d4e33U, 0xbd85b5ab3b7bb051U,
  0x3d6bf54cbc9d4e33U, 0x3c3cc43dbd6bf54cU, 0x3d8d932e3dbcc43dU, 0xbcbcc43d3d4c7f42U,
  0x3b7bb051bcbcc43dU, 0xbd3cc43d3d4c7f42U, 0xbe38d57bbdcc7f42U, 0xbd2d09383b7bb051U,
  0x3bfbb0513d7bb051U, 0x3c9d4e33bc7bb051U, 0xbdfbb051bdad0938U, 0x3dfbb051bd8d932eU,
  0x3dcc7f42be05b5abU, 0xbda52bb5be1d4e33U, 0xbd0d932e3dbcc43dU, 0xbd2d0938bdcc7f42U,
  0xbd9570b03c7bb051U, 0xbc9d4e33bd7bb051U, 0x3d85b5abbdd45cc4U, 0xbd4c7f42bdbcc43dU,
  0xbdcc7f42bd9570b0U, 0x3da52bb53bfbb051U, 0x3d85b5abbd6bf54cU, 0x3ddc3a473cbcc43dU,
  0xbc3cc43d3da52bb5U, 0xbd2d0938bd8d932eU, 0x3b7bb0513e05b5abU, 0xbcdc3a47bdbcc43dU,
  0x3d8d932e3dbcc43dU, 0xbe291a76be291a76U, 0x3d2d09383dfbb051U, 0xbe1181ef3cdc3a47U,
  0x3db4e6babdad0938U, 0x3e09a46c3dfbb051U, 0xbc7bb0513cfbb051U, 0x3d4c7f42bdebf54cU,
  0x3dd45cc4bdc4a1bfU, 0xbddc3a473d6bf54cU, 0xbd0d932e3c9d4e33U, 0xbb7bb0513d9d4e33U,
  0xbd9d4e33bc7bb051U, 0x3db4e6ba3bfbb051U, 0xbd5c3a4700000000U, 0x3dbcc43dbd6bf54cU,
  0xbd2d09383c9d4e33U, 0x3e01c6eabd8d932eU, 0xbe1181ef3dd45cc4U, 0xbcfbb0513cfbb051U,
  0x3d2d0938bdb4e6baU, 0x3d0d932e3d0d932eU, 0xbd3cc43dbcbcc43dU, 0xbd9570b0bddc3a47U,
  0xbc9d4e33bc9d4e33U, 0x3b7bb051bd8d932eU, 0x3d7bb0513e291a76U, 0x3d0d932e3d3cc43dU,
  0xbdd45cc43dcc7f42U, 0x3db4e6babdbcc43dU, 0x3db4e6ba3d2d0938U, 0xbcdc3a47bddc3a47U,
  0xbdcc7f42bd9570b0U, 0x3d3cc43d3c9d4e33U, 0xbdf3d2cebc7bb051U, 0xbe09a46cbda52bb5U,
  0x3d2d09383debf54cU, 0xbd6bf54cbe0d932eU, 0xbe252bb5be40b2feU, 0xbd5c3a47bd9570b0U,
  0x3e01c6eabd9570b0U, 0x3e2d0938bd1d4e33U, 0x3c9d4e33bd2d0938U, 0x3df3d2cebcbcc43dU,
  0x3d5c3a473dc4a1bfU, 0x3d0d932e3dad0938U, 0x3d2d09383d6bf54cU, 0x3bfbb0513debf54cU,
  0xbd0d932ebdd45cc4U, 0x3d9d4e33U, 0x3d9570b0bda52bb5U, 0xbbfbb051bda52bb5U,
  0xbe4890813d5c3a47U, 0xbdc4a1bf3e506e03U, 0x3d4c7f423d9d4e33U, 0x3d5c3a473e2d0938U,
  0x3d2d09383c3cc43dU, 0x3b7bb0513c7bb051U, 0x3cfbb0513e4c7f42U, 0xbd1d4e333d7bb051U,
  0xbd8d932ebd8d932eU, 0xbdfbb0513d7bb051U, 0xbe01c6ea3e0d932eU, 0xbe05b5ab3dfbb051U,
  0xbdbcc43d3debf54cU, 0x3dc4a1bf3dd45cc4U, 0xbc7bb051bd7bb051U, 0x3e0d932ebdb4e6baU,
  0xbddc3a47be1181efU, 0x3dad0938be38d57bU, 0x3dad09383e252bb5U, 0x3d7bb051bdcc7f42U,
  0x3d5c3a47bd4c7f42U, 0x3d3cc43dbc9d4e33U, 0x3e01c6eabe09a46cU, 0xbdc4a1bfbc3cc43dU,
  0xbbfbb0513d9d4e33U, 0xbda52bb53d85b5abU, 0x3dc4a1bfbd7bb051U, 0xbda52bb53d9d4e33U,
  0xbd0d932ebd0d932eU, 0xbdcc7f423e291a76U, 0xbd0d932ebd6bf54cU, 0x3cbcc43d3b7bb051U,
  0x3d9d4e333e1181efU, 0xbd85b5abbe545cc4U, 0xbd6bf54cbe09a46cU, 0xbdf3d2ce3dcc7f42U,
  0xbc7bb0513dad0938U, 0xbddc3a47be1d4e33U, 0x3debf54cU, 0x3c7bb051bdc4a1bfU,
  0x3d6bf54cbe213cf4U, 0x3d0d932ebcfbb051U, 0xbd9570b03cbcc43dU, 0xbdbcc43dbdb4e6baU,
  0x3d1d4e33bd1d4e33U, 0xbbfbb051bd4c7f42U, 0xbd5c3a47bdebf54cU, 0xbdc4a1bf3e01c6eaU,
  0xbe489081bdbcc43dU, 0x3d8d932e3d4c7f42U, 0x3d6bf54cbcfbb051U, 0xbcdc3a47bdc4a1bfU,
  0xbdb4e6babd85b5abU, 0xbd4c7f42be0d932eU, 0x3d8d932ebd85b5abU, 0xbd3cc43d3dd45cc4U,
  0xbc7bb051bd8d932eU, 0x3d7bb051bd0d932eU, 0x3dcc7f423dcc7f42U, 0xbd3cc43dbcdc3a47U,
  0xbc7bb0513c7bb051U, 0x3c3cc43d3e291a76U, 0x3d9570b03d7bb051U, 0xbd5c3a47bddc3a47U,
  0x3d0d932e3bfbb051U, 0x3e6bf54cbdc4a1bfU, 0xbd85b5abbd5c3a47U, 0x3e05b5abbcbcc43dU,
  0xbcfbb051bd9570b0U, 0xbe30f7f93d8d932eU, 0xbd2d0938bc3cc43dU, 0xbe01c6eabe68068bU,
  0xbb7bb051be30f7f9U, 0xbc9d4e333c3cc43dU, 0xbcdc3a473d7bb051U, 0xbd8d932e3d0d932eU,
  0x3c3cc43d3dad0938U, 0xbe3cc43dbe0d932eU, 0xbe01c6ea3dbcc43dU, 0x3d9570b0bdf3d2ceU,
  0x3cfbb0513c7bb051U, 0x3dd45cc43cfbb051U, 0x3e09a46c3db4e6baU, 0xbd3cc43d3d4c7f42U,
  0x3d9570b0bddc3a47U, 0xbcbcc43d3d2d0938U, 0xbdd45cc43d7bb051U, 0x3c3cc43d3dbcc43dU,
  0x3d3cc43dbd8d932eU, 0x3d2d0938bda52bb5U, 0x3cbcc43d00000000U, 0xbdcc7f423b7bb051U,
  0x3d0d932e3d3cc43dU, 0xbd6bf54c3c7bb051U, 0x3d8d932ebc3cc43dU, 0x3cfbb051bd3cc43dU,
  0xbe6029083d8d932eU, 0x3dcc7f42be252bb5U, 0x3debf54cbd6bf54cU, 0x3cdc3a47be09a46cU,
  0xbb7bb0513dd45cc4U, 0x3d3cc43dbdad0938U, 0xbc7bb0513e05b5abU, 0x3d2d0938bcbcc43dU,
  0x3da52bb5bd2d0938U, 0x3d4c7f423e0d932eU, 0x3dfbb0513d3cc43dU, 0xbbfbb0513ddc3a47U,
  0xbd1d4e333c7bb051U, 0x3d4c7f423e252bb5U, 0xbdd45cc43cdc3a47U, 0xbd1d4e333dcc7f42U,
  0x3c9d4e333dfbb051U, 0x3d9570b0U, 0x3bfbb051bd3cc43dU, 0x3dcc7f42be489081U,
  0xbcfbb051bc7bb051U, 0x3c9d4e33bbfbb051U, 0xbdcc7f42bd2d0938U, 0x3e1181ef00000000U,
  0xbe09a46c3d1d4e33U, 0x3bfbb051bd2d0938U, 0xbe195f71bd5c3a47U, 0x3d1d4e33bddc3a47U,
  0xbd9570b0bb7bb051U, 0xbe30f7f9bbfbb051U, 0x3d4c7f423b7bb051U, 0x3e489081bd1d4e33U,
  0x3cdc3a47bd1d4e33U, 0x3cbcc43d3e44a1bfU, 0xbc9d4e33bdebf54cU, 0xbd85b5ab3dfbb051U,
  0xbd3cc43dbe489081U, 0x3e01c6ea3debf54cU, 0xbe0d932e3d3cc43dU, 0xbcfbb0513d2d0938U,
  0xbd9d4e333ddc3a47U, 0xbde417c93cbcc43dU, 0xbb7bb051bb7bb051U, 0x3d2d0938bc3cc43dU,
  0xbdad0938bd3cc43dU, 0x3d6bf54cbdc4a1bfU, 0x3e30f7f93e44a1bfU, 0x3e6417c9bd4c7f42U,
  0xbbfbb051bde417c9U, 0x3debf54cbdc4a1bfU, 0xbdd45cc43e213cf4U, 0xbe8b9bcdbdcc7f42U,
  0xbe1570b03df3d2ceU, 0x3cdc3a473d2d0938U, 0xbd6bf54cbd4c7f42U, 0x3cfbb0513e213cf4U,
  0xbcfbb051bd3cc43dU, 0xbb7bb051bbfbb051U, 0xbd4c7f42bdb4e6baU, 0xbc7bb0513e09a46cU,
  0xbc9d4e33bd2d0938U, 0x3bfbb051bb7bb051U, 0xbd9570b0bcdc3a47U, 0x3d9d4e333e09a46cU,
  0x3e30f7f93e93794fU, 0xbdebf54c3d5c3a47U, 0xbe1181ef00000000U, 0x3e2d09383e1181efU,
  0x3e195f71bd6bf54cU, 0xbddc3a473e291a76U, 0xbdcc7f423bfbb051U, 0xbd8d932e3e8b9bcdU,
  0xbcfbb0513d6bf54cU, 0xbc3cc43dbdad0938U, 0xbd0d932ebe291a76U, 0xbdf3d2ce3bfbb051U,
  0xbdebf54c3de417c9U, 0x3bfbb051bd1d4e33U, 0x3e195f71bd0d932eU, 0xbe1181ef3d4c7f42U,
  0xbe6417c93cbcc43dU, 0x3d3cc43dbe195f71U, 0x3de417c9be1d4e33U, 0x3e34e6babe252bb5U,
  0xbd4c7f423db4e6baU, 0x3d1d4e33bdfbb051U, 0x3dd45cc43d9d4e33U, 0xbdebf54cbd3cc43dU,
  0x3dcc7f42bd6bf54cU, 0x3e68068b3bfbb051U, 0xbe1570b03d5c3a47U, 0xbdc4a1bf3d1d4e33U,
  0xbc9d4e333d5c3a47U, 0xbd1d4e33be1181efU, 0xbd1d4e33bcbcc43dU, 0xbde417c9be2d0938U,
  0x3d7bb0513d3cc43dU, 0xbe6417c93d4c7f42U, 0xbd6bf54c3e05b5abU, 0xbd9570b03c9d4e33U,
  0xbd6bf54cbdc4a1bfU, 0xbda52bb53de417c9U, 0xbd0d932ebcbcc43dU, 0xbd1d4e33bd8d932eU,
  0xbd2d0938bcfbb051U, 0x3dd45cc4bd1d4e33U, 0xbcbcc43dbd4c7f42U, 0x3e30f7f9bd9570b0U,
  0xbd0d932ebd9570b0U, 0x3e01c6eabcdc3a47U, 0x3d9d4e33bd2d0938U, 0x3cfbb051bc7bb051U,
  0xbd6bf54cbd6bf54cU, 0xbd85b5ab3bfbb051U, 0xbe09a46c3dad0938U, 0x3dad09383da52bb5U,
  0xbe38d57b3cdc3a47U, 0x3d9d4e333d3cc43dU, 0x3e01c6eabddc3a47U, 0xbd8d932ebd4c7f42U,
  0x3dc4a1bf3d2d0938U, 0xbc9d4e33be01c6eaU, 0x3c3cc43d3dbcc43dU, 0x3d3cc43dbddc3a47U,
  0xbb7bb0513d7bb051U, 0x3dad0938bdc4a1bfU, 0xbd3cc43d3d2d0938U, 0x3d5c3a473c3cc43dU,
  0x3e2d0938U, 0x3c9d4e33be0d932eU, 0x3d4c7f42bd3cc43dU, 0x3da52bb5bd6bf54cU,
  0xbe01c6ea3cfbb051U, 0x3d5c3a47bda52bb5U, 0x3e05b5abbb7bb051U, 0xbd8d932e3c7bb051U,
  0xbd0d932e3cbcc43dU, 0xbcbcc43d3e213cf4U, 0x3d9d4e33bdad0938U, 0x3d0d932e3d3cc43dU,
  0x3d3cc43dbd2d0938U, 0xbd4c7f42bde417c9U, 0x3e01c6eabc3cc43dU, 0xbd5c3a473ddc3a47U,
  0xbbfbb051be1181efU, 0xbd1d4e333d1d4e33U, 0xbd0d932e3bfbb051U, 0x3dfbb051bd8d932eU,
  0xbcfbb0513c9d4e33U, 0xbcbcc43dbc3cc43dU, 0x3b7bb0513cdc3a47U, 0xbd0d932ebdbcc43dU,
  0x3c9d4e33bdebf54cU, 0x3db4e6ba3d8d932eU, 0x3cfbb051bde417c9U, 0xbb7bb051bd8d932eU,
  0x3e213cf43df3d2ceU, 0x3e1181efbd0d932eU, 0x3cbcc43d3da52bb5U, 0x3c7bb0513d3cc43dU,
  0x3d5c3a473bfbb051U, 0xbd9d4e333cbcc43dU, 0x3c3cc43d3d5c3a47U, 0xbda52bb53e09a46cU,
  0xbd6bf54cbe1570b0U, 0xbd4c7f423e506e03U, 0x3b7bb051be1181efU, 0xbd7bb051bd6bf54cU,
  0xbd9570b0be09a46cU, 0xbe01c6ea3ddc3a47U, 0xbc9d4e333d85b5abU, 0xbcfbb0513c9d4e33U,
  0x3d4c7f423bfbb051U, 0x3e01c6eabd7bb051U, 0x3ddc3a47bdbcc43dU, 0xbd7bb0513e1181efU,
  0x3d85b5abbe30f7f9U, 0x3e195f71bdc4a1bfU, 0xbe0d932e3d3cc43dU, 0x3cfbb051be01c6eaU,
  0xbdf3d2ce3debf54cU, 0xbdebf54c3e01c6eaU, 0x3dd45cc4bc9d4e33U, 0xbe34e6ba3c9d4e33U,
  0xbdc4a1bf3e213cf4U, 0xbdbcc43d3debf54cU, 0x3d5c3a473bfbb051U, 0xbdbcc43dbb7bb051U,
  0xbdb4e6ba3dc4a1bfU, 0xbd4c7f423da52bb5U, 0x3d2d0938bc3cc43dU, 0x3d3cc43d3d9570b0U,
  0x3dbcc43dbd7bb051U, 0x3df3d2cebc3cc43dU, 0x3d4c7f423e38d57bU, 0xbda52bb5bd7bb051U,
  0xbcdc3a47bdad0938U, 0x3dcc7f423d2d0938U, 0x3dd45cc4be7f9f12U, 0x3dc4a1bfbd1d4e33U,
  0xbde417c9bd1d4e33U, 0x3b7bb0513cbcc43dU, 0x3bfbb051bd2d0938U, 0xbc9d4e333e09a46cU,
  0x3d5c3a473e195f71U, 0xbd3cc43dbdc4a1bfU, 0xbb7bb0513ddc3a47U, 0xbdc4a1bfbb7bb051U,
  0xbdc4a1bfbd9d4e33U, 0xbdcc7f423b7bb051U, 0xbcbcc43dU, 0x3e195f713d9d4e33U,
  0xbd6bf54cbde417c9U, 0xbcdc3a47bcbcc43dU, 0x3df3d2ce3e1570b0U, 0xbd8d932ebc3cc43dU,
  0xbe213cf4bd0d932eU, 0xbdad0938bb7bb051U, 0xbdbcc43dbdf3d2ceU, 0xbd6bf54cbd3cc43dU,
  0x3cdc3a47bc3cc43dU, 0xbe3cc43dbd6bf54cU, 0x3d7bb0513d0d932eU, 0x3bfbb051bcbcc43dU,
  0x3c3cc43d3c7bb051U, 0xbd7bb051bcfbb051U, 0xbd7bb05100000000U, 0xbdb4e6baU,
  0xbd3cc43d3cbcc43dU, 0x3d0d932e3d6bf54cU, 0x3d4c7f42be09a46cU, 0xbd5c3a473e0d932eU,
  0x3e01c6eabd6bf54cU, 0xbdebf54cbd9d4e33U, 0x3dd45cc43dc4a1bfU, 0xbdd45cc4bdd45cc4U,
  0x3cdc3a473e30f7f9U, 0xbd1d4e33be1181efU, 0xbdebf54c3b7bb051U, 0x3e213cf43e30f7f9U,
  0xbe34e6ba3d8d932eU, 0xbddc3a47bd85b5abU, 0x3da52bb53e1181efU, 0x3d0d932ebd9d4e33U,
  0x3cbcc43dbb7bb051U, 0xbc9d4e33bcdc3a47U, 0xbe01c6ea3d9570b0U, 0xbc3cc43d3da52bb5U,
  0xbdad09383d85b5abU, 0x3df3d2cebdad0938U, 0xbdad09383d1d4e33U, 0x3c7bb0513cdc3a47U,
  0xbdc4a1bf3d85b5abU, 0x3dfbb051bc9d4e33U, 0x3db4e6babd4c7f42U, 0x3dbcc43dbe1570b0U,
  0x3cbcc43d3d0d932eU, 0x3d85b5ab3d5c3a47U, 0xbd2d09383d0d932eU, 0xbdad0938bbfbb051U,
  0xbd9570b0bd6bf54cU, 0xbd2d0938bd5c3a47U, 0xbd5c3a47bd4c7f42U, 0x3cbcc43d3d85b5abU,
  0xbb7bb0513de417c9U, 0x3d0d932ebd6bf54cU, 0x3d8d932e3d7bb051U, 0xbe213cf43d1d4e33U,
  0x3d4c7f423e2d0938U, 0xbde417c93e1181efU, 0xbe3cc43d3b7bb051U, 0xbdbcc43d3d3cc43dU,
  0xbd9d4e333e545cc4U, 0xbd5c3a473d2d0938U, 0xbcdc3a473bfbb051U, 0x3e05b5abbcfbb051U,
  0x3d8d932ebd2d0938U, 0x3b7bb0513dfbb051U, 0x3dbcc43d3da52bb5U, 0xbdfbb051bd0d932eU,
  0xbe38d57b3d4c7f42U, 0xbcfbb051bc9d4e33U, 0xbc3cc43dbdbcc43dU, 0x3d9d4e333e38d57bU,
  0xbe09a46cbc3cc43dU, 0xbd1d4e33bda52bb5U, 0xbddc3a47bd0d932eU, 0xbe34e6ba3d0d932eU,
  0xbd5c3a473cfbb051U, 0xbcbcc43dbcdc3a47U, 0x3e30f7f93d85b5abU, 0xbc9d4e333d8d932eU,
  0x3d6bf54c3c3cc43dU, 0x3d3cc43dU, 0x3dd45cc4bd5c3a47U, 0xbdebf54cbdb4e6baU,
  0x3d4c7f42bd8d932eU, 0xbe2d09383d3cc43dU, 0x3b7bb0513dad0938U, 0xbe30f7f93d9d4e33U,
  0x3da52bb53c9d4e33U, 0xbd9d4e333d7bb051U, 0xbd8d932ebe34e6baU, 0xbdad09383d6bf54cU,
  0x3d0d932ebe195f71U, 0x3e291a763e30f7f9U, 0x3e1181efbdbcc43dU, 0x3ddc3a47bd2d0938U,
  0xbe0d932e3bfbb051U, 0x3d3cc43d3cfbb051U, 0xbd1d4e333bfbb051U, 0xbe2d09383dbcc43dU,
  0x3db4e6ba3ddc3a47U, 0xbd3cc43dbdebf54cU, 0xbd6bf54c3df3d2ceU, 0xbd7bb0513d1d4e33U,
  0x3d0d932e3c3cc43dU, 0xbd2d0938bc9d4e33U, 0x3cbcc43dbc9d4e33U, 0x3dfbb051bc9d4e33U,
  0x3ddc3a473e3cc43dU, 0x3c3cc43dbcdc3a47U, 0x3bfbb0513e1d4e33U, 0xbd2d0938bd6bf54cU,
  0xbcbcc43d3d3cc43dU, 0x3b7bb051bd0d932eU, 0x3e2d09383da52bb5U, 0x3c7bb0513cfbb051U,
  0x3de417c93dcc7f42U, 0xbd2d09383dcc7f42U, 0xbbfbb0513d1d4e33U, 0xbe545cc43c9d4e33U,
  0x3dc4a1bf3c7bb051U, 0xbdd45cc43cbcc43dU, 0xbcfbb051bd3cc43dU, 0x3b7bb051bc9d4e33U,
  0x3cfbb0513e195f71U, 0xbcbcc43dbddc3a47U, 0xbd2d09383c7bb051U, 0x3d2d09383bfbb051U,
  0xbe291a763da52bb5U, 0xbbfbb0513d1d4e33U, 0x3e44a1bf3e195f71U, 0xbe01c6ea3dc4a1bfU,
  0xbd9570b03e3cc43dU, 0xbcdc3a47bdfbb051U, 0x3dc4a1bf3cdc3a47U, 0x3dcc7f42bd5c3a47U,
  0xbc9d4e33bbfbb051U, 0xbc3cc43d3d9570b0U, 0xbd6bf54cbd9570b0U, 0x3b7bb0513dad0938U,
  0x3d1d4e33bd5c3a47U, 0x3d5c3a47bdad0938U, 0x3dbcc43dbda52bb5U, 0x3ddc3a473d3cc43dU,
  0x3d2d0938bd4c7f42U, 0xbcdc3a473c3cc43dU, 0x3e0d932e00000000U, 0x3dfbb0513e3cc43dU,
  0x3d9570b0bdb4e6baU, 0xbc3cc43d3c7bb051U, 0x3dcc7f42bdb4e6baU, 0x3debf54cbd4c7f42U,
  0x3d1d4e33be1d4e33U, 0xbe1570b03d7bb051U, 0x3e09a46c3d7bb051U, 0x3d3cc43d3d4c7f42U,
  0xbd5c3a473cfbb051U, 0xbd85b5abbdd45cc4U, 0x3d2d09383cdc3a47U, 0xbe09a46c3b7bb051U,
  0x3d5c3a473c9d4e33U, 0xbd9570b03d7bb051U, 0x3cbcc43d3bfbb051U, 0x3d2d0938bd3cc43dU,
  0xbdad09383d2d0938U, 0x3df3d2cebcbcc43dU, 0x3d1d4e33bdbcc43dU, 0xbd3cc43dbc9d4e33U,
  0xbd8d932e3df3d2ceU, 0x3d6bf54cbd6bf54cU, 0x3dd45cc43c9d4e33U, 0xbd3cc43d3cbcc43dU,
  0xbd2d0938bcbcc43dU, 0x3dc4a1bf3c3cc43dU, 0xbcfbb0513d7bb051U, 0xbd7bb051be09a46cU,
  0x3dfbb051bd3cc43dU, 0x3cdc3a473d5c3a47U, 0xbe01c6ea3e30f7f9U, 0x3d4c7f423d4c7f42U,
  0xbcbcc43d3cdc3a47U, 0xbd5c3a47bd2d0938U, 0x3d9570b0bde417c9U, 0xbd5c3a47bd7bb051U,
  0xbb7bb051bcfbb051U, 0xbd1d4e33bc7bb051U, 0x3d6bf54c3cfbb051U, 0xbd9d4e333d4c7f42U,
  0x3d1d4e33bde417c9U, 0xbe195f71bc7bb051U, 0xbd5c3a47bcfbb051U, 0xbc3cc43dbd9d4e33U,
  0x3d8d932ebc3cc43dU, 0x3da52bb53d9d4e33U, 0xbe01c6eabc9d4e33U, 0x3ddc3a47bc7bb051U,
  0x3b7bb0513c3cc43dU, 0xbe1d4e333e38d57bU, 0xbdbcc43d3d4c7f42U, 0x3d3cc43d3d9570b0U,
  0xbd2d0938bcbcc43dU, 0x3debf54c3d6bf54cU, 0x3bfbb051bd5c3a47U, 0xbc3cc43d3c9d4e33U,
  0x3d4c7f42bc9d4e33U, 0x3e291a76bd8d932eU, 0xbcdc3a47be1570b0U, 0x3cfbb051bd0d932eU,
  0x3d5c3a47be5c3a47U, 0xbc3cc43dbcbcc43dU, 0xbd5c3a47bd85b5abU, 0x3c9d4e33bdcc7f42U,
  0xbd4c7f423bfbb051U, 0xbb7bb0513d85b5abU, 0xbd3cc43d3c7bb051U, 0xbc7bb0513d6bf54cU,
  0x3d9d4e33bcfbb051U, 0xbe1570b0bdcc7f42U, 0xbd9d4e33bda52bb5U, 0x3d9570b03e0d932eU,
  0x3e09a46c3c9d4e33U, 0x3cfbb051bda52bb5U, 0xbb7bb0513dcc7f42U, 0x3e195f71be01c6eaU,
  0x3dad0938bdd45cc4U, 0x3d1d4e33bdad0938U, 0xbdb4e6ba3d1d4e33U, 0x3e3cc43dbd2d0938U,
  0xbda52bb5bd9570b0U, 0x3e213cf4bd1d4e33U, 0xbd4c7f42bd3cc43dU, 0x3debf54cbd2d0938U,
  0xbcfbb051bd2d0938U, 0x3e09a46cbd5c3a47U, 0xbd3cc43d3d7bb051U, 0x3d9570b0bbfbb051U,
  0xbcfbb051bdad0938U, 0x3d85b5ab3e05b5abU, 0xbe584b863dad0938U, 0x3d8d932e3d6bf54cU,
  0x3dfbb0513d9570b0U, 0xbc3cc43d3dbcc43dU, 0x3d2d09383d4c7f42U, 0xbe30f7f9bd9570b0U,
  0xbdbcc43d3e1d4e33U, 0x3d5c3a47bd85b5abU, 0x3d8d932e3db4e6baU, 0x3debf54c3ddc3a47U,
  0xbcdc3a47bdad0938U, 0x3b7bb0513e506e03U, 0xbdad0938bd8d932eU, 0x3d3cc43dbdfbb051U,
  0x3e1d4e333e30f7f9U, 0x3e1181ef3cfbb051U, 0xbcfbb051bd4c7f42U, 0x3d5c3a47be291a76U,
  0xbc9d4e33bde417c9U, 0x3e44a1bf3d85b5abU, 0xbd7bb051bc3cc43dU, 0xbcdc3a473c3cc43dU,
  0x3b7bb051bcdc3a47U, 0xbd8d932e3d8d932eU, 0x3ddc3a47bd6bf54cU, 0xbe1181ef3c7bb051U,
  0xbd7bb0513d0d932eU, 0xbd7bb0513d6bf54cU, 0xbd3cc43dbe05b5abU, 0x3cbcc43dbda52bb5U,
  0xbbfbb051bd1d4e33U, 0xbbfbb051be1181efU, 0x3bfbb0513d6bf54cU, 0x3e1570b03b7bb051U,
  0xbc9d4e333c9d4e33U, 0x3d85b5abbc3cc43dU, 0x3debf54c3e4c7f42U, 0x3d9570b03e1181efU,
  0x3dbcc43d3dbcc43dU, 0xbdfbb0513e05b5abU, 0x3cdc3a47bdb4e6baU, 0xbdc4a1bf3e213cf4U,
  0x3d9570b0be09a46cU, 0x3d2d09383e01c6eaU, 0xbd2d0938be1570b0U, 0x3ddc3a47bb7bb051U,
  0xbddc3a47bda52bb5U, 0x3e1181ef3dad0938U, 0xbde417c93c9d4e33U, 0x3df3d2cebdad0938U,
  0x3e213cf4be05b5abU, 0x3cdc3a47bd8d932eU, 0x3db4e6babd8d932eU, 0xbc3cc43dbd5c3a47U,
  0x3c7bb0513d0d932eU, 0xbdad0938bb7bb051U, 0xbdc4a1bf3e2d0938U, 0xbc7bb0513c3cc43dU,
  0xbdebf54c3db4e6baU, 0xbda52bb53d0d932eU, 0x3b7bb0513debf54cU, 0x3dbcc43d3bfbb051U,
  0x3d8d932ebd9d4e33U, 0x3dc4a1bfU, 0xbd2d09383e30f7f9U, 0x3dad09383d8d932eU,
  0xbdb4e6ba3cdc3a47U, 0x3d3cc43d3cfbb051U, 0x3c7bb051bdc4a1bfU, 0x3d1d4e33bdb4e6baU,
  0xbd6bf54c3ddc3a47U, 0x3d85b5abbd9d4e33U, 0x3ddc3a473e195f71U, 0xbe1d4e33be0d932eU,
  0xbde417c9bd0d932eU, 0x3dd45cc43dd45cc4U, 0xbb7bb0513e1181efU, 0xbdbcc43d3e506e03U,
  0xbd1d4e333d8d932eU, 0x3d8d932e3ddc3a47U, 0x3e252bb5be252bb5U, 0xbdad0938bd85b5abU,
  0xbe6417c93dd45cc4U, 0xbe195f713cbcc43dU, 0x3bfbb0513d2d0938U, 0x3dbcc43d3d5c3a47U,
  0xbe30f7f93e1181efU, 0x3cdc3a47bdfbb051U, 0xbd0d932ebdd45cc4U, 0xbd7bb0513c7bb051U,
  0x3cdc3a47bd1d4e33U, 0xbcdc3a473c3cc43dU, 0x3bfbb0513c3cc43dU, 0x3c9d4e33bd3cc43dU,
  0xbcfbb051bc7bb051U, 0xbd8d932eU, 0xbd9570b03bfbb051U, 0xbcbcc43d3d2d0938U,
  0xbc9d4e333d1d4e33U, 0x3d6bf54cbe40b2feU, 0x3cbcc43dbcfbb051U, 0x3bfbb0513e34e6baU,
  0xbd9d4e333cdc3a47U, 0x3d9d4e333bfbb051U, 0xbd4c7f42bd7bb051U, 0xbd3cc43d3debf54cU,
  0x3d1d4e33bcfbb051U, 0xbe1181efbcbcc43dU, 0x3cdc3a47bdcc7f42U, 0xbb7bb0513d1d4e33U,
  0x3df3d2ce3e05b5abU, 0xbdcc7f42bdf3d2ceU, 0xbdd45cc43da52bb5U, 0x3e2d09383e1570b0U,
  0xbdbcc43dbe05b5abU, 0x3e6417c9bd5c3a47U, 0xbc3cc43dbdb4e6baU, 0xbd3cc43dbcbcc43dU,
  0x3d1d4e333dd45cc4U, 0xbd4c7f42bdd45cc4U, 0xbc3cc43d3df3d2ceU, 0xbdcc7f423d1d4e33U,
  0x3e01c6eabcdc3a47U, 0xbe6fe40d3db4e6baU, 0x3c3cc43d3d7bb051U, 0xbe05b5abbdebf54cU,
  0xbd5c3a473d5c3a47U, 0x3c3cc43dbd1d4e33U, 0xbe6417c93d85b5abU, 0x3d3cc43d3d9570b0U,
  0xbda52bb53d9570b0U, 0x3d1d4e333d6bf54cU, 0xbe1570b0bc3cc43dU, 0xbdd45cc4be34e6baU,
  0xbdb4e6babcbcc43dU, 0x3c3cc43d3cbcc43dU, 0xbcbcc43d3ddc3a47U, 0x3c3cc43d3d9d4e33U,
  0xbd0d932ebd5c3a47U, 0xbd4c7f42bd8d932eU, 0x3e506e03bd3cc43dU, 0x3e68068bbd5c3a47U,
  0x3cdc3a47bb7bb051U, 0x3d85b5ab3dad0938U, 0xbd1d4e33bdad0938U, 0x3bfbb051bd9570b0U,
  0xbde417c93dfbb051U, 0x3d1d4e3300000000U, 0xbd7bb051bdbcc43dU, 0xbd85b5abbd5c3a47U,
  0xbd1d4e33bdbcc43dU, 0xbd5c3a47bd1d4e33U, 0xbd8d932e3e01c6eaU, 0x3d7bb051bb7bb051U,
  0x3cbcc43dbc9d4e33U, 0xbc7bb0513d8d932eU, 0xbd85b5ab3bfbb051U, 0x3bfbb0513dad0938U,
  0x3e291a76bdd45cc4U, 0x3cfbb0513d7bb051U, 0x3cfbb0513c9d4e33U, 0x3e1d4e333cbcc43dU,
  0x3cdc3a47bd9570b0U, 0x3da52bb5bdf3d2ceU, 0x3d1d4e33bc7bb051U, 0xbd7bb0513cfbb051U,
  0x3ddc3a473e05b5abU, 0x3dbcc43dbdcc7f42U, 0x3cbcc43dbd8d932eU, 0xbdc4a1bf3d4c7f42U,
  0xbe01c6ea3e1d4e33U, 0xbdebf54cbcfbb051U, 0xbe213cf43e05b5abU, 0x3d1d4e33be05b5abU,
  0x3d2d09383e38d57bU, 0x3e1d4e333da52bb5U, 0xbdf3d2cebe195f71U, 0x3e01c6ea3cdc3a47U,
  0xbdd45cc4bd1d4e33U, 0xbd0d932e3d9570b0U, 0xbd9d4e333dfbb051U, 0x3e0d932ebde417c9U,
  0x3db4e6babd0d932eU, 0xbcdc3a47bdf3d2ceU, 0x3d6bf54c3d4c7f42U, 0x3d5c3a47bdd45cc4U,
  0xbc9d4e33bb7bb051U, 0x3da52bb5bd4c7f42U, 0xbc3cc43dbc9d4e33U, 0xbd0d932ebdb4e6baU,
  0x3bfbb051bc3cc43dU, 0x3e01c6eabd7bb051U, 0x3d6bf54cbd6bf54cU, 0x3dcc7f42bdb4e6baU,
  0xbb7bb0513e1181efU, 0xbdc4a1bfbd2d0938U, 0x3d85b5ab3d1d4e33U, 0xbcdc3a47bc9d4e33U,
  0xbcfbb0513c7bb051U, 0xbcfbb051bd5c3a47U, 0x3d5c3a47bc7bb051U, 0x3dbcc43d3cbcc43dU,
  0xbdc4a1bfbdebf54cU, 0x3e01c6eabd9d4e33U, 0x3dd45cc4bdd45cc4U, 0x3debf54c3d0d932eU,
  0x3cfbb05100000000U, 0x3d8d932e3e213cf4U, 0x3d1d4e33be213cf4U, 0xbd3cc43d3b7bb051U,
  0x3c9d4e33be09a46cU, 0x3d1d4e333d1d4e33U, 0xbdd45cc4be0d932eU, 0xbd85b5ab00000000U,
  0x3d0d932e3da52bb5U, 0xbd9570b03e7f9f12U, 0x3dad09383d4c7f42U, 0xbc9d4e33bc3cc43dU,
  0x3debf54c3c9d4e33U, 0x3d8d932ebe1181efU, 0x3d3cc43dbe05b5abU, 0x3db4e6ba3c9d4e33U,
  0xbe4c7f423dcc7f42U, 0xbdb4e6babdd45cc4U, 0x3d6bf54cbcdc3a47U, 0x3e545cc43d7bb051U,
  0xbd9d4e33bde417c9U, 0x3dbcc43dbcdc3a47U, 0x3d0d932ebdbcc43dU, 0x3d2d0938bd0d932eU,
  0x3d9d4e33U, 0xbbfbb0513cdc3a47U, 0xbd6bf54c3cbcc43dU, 0xbd0d932e3d9d4e33U,
  0x3c7bb051bd3cc43dU, 0x3e01c6ea3d7bb051U, 0xbe0d932ebe1181efU, 0x3d9d4e33bd9d4e33U,
  0xbdfbb0513d0d932eU, 0xbe05b5ab3d1d4e33U, 0x3cdc3a473e01c6eaU, 0xbc7bb0513e584b86U,
  0xbd85b5abbc7bb051U, 0x3d0d932e3b7bb051U, 0xbc7bb0513cdc3a47U, 0x3dc4a1bfbdf3d2ceU,
  0xbddc3a473d5c3a47U, 0x3d9570b03cdc3a47U, 0xbd3cc43dU, 0x3d9d4e33bcfbb051U,
  0xbcfbb051U, 0x3d3cc43dbd6bf54cU, 0x3d4c7f423bfbb051U, 0x3dad0938bc9d4e33U,
  0x3d4c7f423debf54cU, 0xbddc3a47bd1d4e33U, 0x3c7bb0513e09a46cU, 0x3cfbb0513de417c9U,
  0xbdc4a1bfbd9d4e33U, 0x3e30f7f9bc9d4e33U, 0x3c3cc43dbc9d4e33U, 0xbd4c7f423d1d4e33U,
  0x3d85b5ab3db4e6baU, 0x3db4e6ba3c9d4e33U, 0x3d6bf54c3d5c3a47U, 0x3d0d932e3c7bb051U,
  0xbd1d4e333d8d932eU, 0xbd9d4e33bdb4e6baU, 0x3dfbb051bdc4a1bfU, 0x3dad0938bdd45cc4U,
  0xbd8d932e3dbcc43dU, 0xbcfbb051be252bb5U, 0xbcdc3a47be6417c9U, 0xbddc3a47bdbcc43dU,
  0xbd1d4e333c9d4e33U, 0x0U, 0x3d85b5ab3dad0938U, 0x3d7bb0513e2d0938U,
  0xbe7f9f12bdad0938U, 0xbe545cc4bd1d4e33U, 0xbd1d4e333d9570b0U, 0x3b7bb0513d1d4e33U,
  0x3d3cc43d3d8d932eU, 0xbddc3a473cdc3a47U, 0x3dcc7f42bda52bb5U, 0x3c7bb051bd1d4e33U,
  0xbd1d4e33bb7bb051U, 0xbd9570b03e30f7f9U, 0x3e09a46cbd3cc43dU, 0x3dfbb0513d3cc43dU,
  0x3e213cf4bc9d4e33U, 0xbddc3a47be1d4e33U, 0xbd4c7f423e291a76U, 0x3b7bb0513e2d0938U,
  0x3cfbb051bcfbb051U, 0xbbfbb051bd6bf54cU, 0x3d2d09383d2d0938U, 0x3b7bb051bd9d4e33U,
  0x3c9d4e333cdc3a47U, 0x3d8d932ebc7bb051U, 0x3dad09383ddc3a47U, 0xbdf3d2cebe0d932eU,
  0xbc9d4e33bc9d4e33U, 0xbcfbb0513c7bb051U, 0x3b7bb0513d3cc43dU, 0x3dbcc43dbd6bf54cU,
  0xbd3cc43dbc3cc43dU, 0x3e01c6eabcbcc43dU, 0xbe1570b0bcdc3a47U, 0x3df3d2ce3d5c3a47U,
  0xbddc3a47bda52bb5U, 0x3d7bb0513dfbb051U, 0x3d4c7f42be291a76U, 0x3cfbb0513cfbb051U,
  0xbd0d932ebcbcc43dU, 0xbcdc3a473ddc3a47U, 0xbbfbb051bc7bb051U, 0x3dbcc43d3d85b5abU,
  0xbdd45cc43bfbb051U, 0xbd9570b03c7bb051U, 0xbe30f7f9bdb4e6baU, 0xbe05b5abbd9570b0U,
  0xbd9570b0bd2d0938U, 0x3d7bb051bd1d4e33U, 0xbb7bb0513d9570b0U, 0x3d0d932ebd4c7f42U,
  0xbe195f713cbcc43dU, 0xbddc3a473debf54cU, 0xbd0d932ebcfbb051U, 0xbd9570b03d6bf54cU,
  0x3dbcc43dbe68068bU, 0x3cdc3a47bd4c7f42U, 0x3d5c3a47bd4c7f42U, 0x3c7bb051bda52bb5U,
  0xbda52bb53dad0938U, 0xbe2d09383cfbb051U, 0xbc3cc43d3d9570b0U, 0xbd7bb051bdcc7f42U,
  0x3b7bb051bd1d4e33U, 0xbe60290800000000U, 0xbcfbb051bc3cc43dU, 0x3dfbb0513e01c6eaU,
  0xbdad09383ddc3a47U, 0xbdebf54cbdf3d2ceU, 0x3e0d932e3d6bf54cU, 0xbd9570b0bc3cc43dU,
  0xbe01c6ea3bfbb051U, 0xbe1d4e33bc7bb051U, 0xbb7bb0513c9d4e33U, 0xbe09a46c3d0d932eU,
  0x3dad09383dbcc43dU, 0x3d9d4e333dbcc43dU, 0xbcdc3a473c9d4e33U, 0x3e1d4e333dad0938U,
  0xbc3cc43dbdd45cc4U, 0x3df3d2ce3e1181efU, 0xbe195f713c7bb051U, 0xbd4c7f42bd9d4e33U,
  0x3b7bb051bde417c9U, 0xbdfbb0513cfbb051U, 0x3cbcc43d3df3d2ceU, 0xbdc4a1bfbcfbb051U,
  0x3ddc3a473d9d4e33U, 0x3d3cc43dbd9570b0U, 0x3e09a46c3e195f71U, 0xbdd45cc43e01c6eaU,
  0x3bfbb051be506e03U, 0xbe38d57bbdbcc43dU, 0x3dfbb0513d7bb051U, 0x3d1d4e33be252bb5U,
  0xbdc4a1bf3e213cf4U, 0x3c9d4e33bd1d4e33U, 0x3db4e6babcbcc43dU, 0xbcfbb051bcfbb051U,
  0x3da52bb5bda52bb5U, 0xbddc3a473d8d932eU, 0xbe01c6ea3dc4a1bfU, 0xbdd45cc43e0d932eU,
  0xbdcc7f423d9d4e33U, 0x3d0d932e3d4c7f42U, 0xbbfbb051bcdc3a47U, 0xbd0d932e3d6bf54cU,
  0xbbfbb0513dcc7f42U, 0x3ddc3a473c3cc43dU, 0x3bfbb0513db4e6baU, 0x3cbcc43d3d0d932eU,
  0x3c9d4e333e05b5abU, 0xbd6bf54c3c3cc43dU, 0x3b7bb051be584b86U, 0xbe1181ef3cfbb051U,
  0x3d1d4e33be44a1bfU, 0x3df3d2cebe40b2feU, 0x3d3cc43d3d2d0938U, 0xbd2d0938bdb4e6baU,
  0xbe0d932e3d4c7f42U, 0x3d9d4e333dc4a1bfU, 0xbcbcc43dbc9d4e33U, 0xbda52bb53ddc3a47U,
  0xbe01c6eabe506e03U, 0xbd85b5abbe30f7f9U, 0xbd2d0938be09a46cU, 0xbe0d932e3cfbb051U,
  0xbd85b5ab3c9d4e33U, 0x3e05b5abbcbcc43dU, 0xbd5c3a473cbcc43dU, 0xbd8d932e3d85b5abU,
  0xbe1570b0bd5c3a47U, 0x3debf54c3cdc3a47U, 0x3db4e6ba3d9570b0U, 0x3da52bb53dc4a1bfU,
  0x3b7bb0513debf54cU, 0xbd7bb051bc9d4e33U, 0xbd4c7f423cbcc43dU, 0xbdbcc43dbdf3d2ceU,
  0x3c3cc43d3d1d4e33U, 0x3b7bb051bb7bb051U, 0x3d9570b03bfbb051U, 0x3e1d4e333dc4a1bfU,
  0xbdd45cc43c3cc43dU, 0x3d85b5abbd3cc43dU, 0xbdc4a1bf3d9d4e33U, 0xbd9d4e333d9d4e33U,
  0x3c9d4e333d4c7f42U, 0xbcfbb0513dcc7f42U, 0x3d9570b0bde417c9U, 0xbd5c3a473d9d4e33U,
  0x3d9d4e33bd3cc43dU, 0x3e09a46cbdd45cc4U, 0x3d85b5abbcfbb051U, 0xbd9d4e33bd7bb051U,
  0xbd4c7f423dfbb051U, 0xbe2d09383d6bf54cU, 0xbb7bb0513c3cc43dU, 0x3dd45cc43d5c3a47U,
  0x3dd45cc4be4c7f42U, 0xbbfbb051U, 0x3d8d932ebd3cc43dU, 0x3b7bb051bcbcc43dU,
  0x3d8d932ebd2d0938U, 0x3d2d0938bd3cc43dU, 0x3e0d932ebdd45cc4U, 0x3d9570b0bdc4a1bfU,
  0x3debf54cbdad0938U, 0xbd0d932ebd7bb051U, 0xbdb4e6ba3d7bb051U, 0xbe05b5abbd9570b0U,
  0xbc3cc43d3d2d0938U, 0xbd2d09383e30f7f9U, 0xbdad0938bb7bb051U, 0x3bfbb051bb7bb051U,
  0x3c9d4e333d7bb051U, 0xbd3cc43d3d7bb051U, 0xbd0d932ebd8d932eU, 0xbdbcc43dbde417c9U,
  0xbd85b5ab3dcc7f42U, 0xbcfbb051bd6bf54cU, 0xbc3cc43d3c3cc43dU, 0x3b7bb051bd2d0938U,
  0xbcdc3a473c7bb051U, 0x3dd45cc4be213cf4U, 0x3e9570b0be73d2ceU, 0xbcbcc43dbddc3a47U,
  0xbe09a46cbcfbb051U, 0x3d3cc43d3e40b2feU, 0xbdd45cc43cdc3a47U, 0x3c7bb0513cdc3a47U,
  0x3df3d2cebe05b5abU, 0x3c9d4e33bd0d932eU, 0xbe05b5ab3bfbb051U, 0x3cdc3a473d9570b0U,
  0x3debf54cbc9d4e33U, 0x3d1d4e333d4c7f42U, 0xbcdc3a47bd8d932eU, 0xbc3cc43d3e40b2feU,
  0x3e01c6eabd3cc43dU, 0xbd3cc43dbc3cc43dU, 0xbdc4a1bfbdc4a1bfU, 0x3de417c9be1181efU,
  0xbe195f71bc7bb051U, 0xbe09a46c3e545cc4U, 0x3d5c3a4700000000U, 0x3c9d4e333c9d4e33U,
  0x3b7bb051U, 0xbe1181ef3c9d4e33U, 0xbd9d4e333e1d4e33U, 0x3dc4a1bfbcdc3a47U,
  0xbd9570b0U, 0x3b7bb051bdbcc43dU, 0x3d0d932e3e05b5abU, 0x3bfbb051be2d0938U,
  0x3c7bb0513da52bb5U, 0xbc9d4e33bb7bb051U, 0x3d9d4e33bdb4e6baU, 0x3dfbb051bdc4a1bfU,
  0x3dcc7f423dd45cc4U, 0x3e291a76bd1d4e33U, 0x3cfbb0513dad0938U, 0x3da52bb53e213cf4U,
  0x3e05b5abbc7bb051U, 0xbe3cc43d3db4e6baU, 0x3d9570b0be30f7f9U, 0xbb7bb051bde417c9U,
  0x3d7bb05100000000U, 0xbdc4a1bf3d85b5abU, 0x3d1d4e3300000000U, 0x3bfbb051bcdc3a47U,
  0xbcbcc43dbddc3a47U, 0x3dad0938bc3cc43dU, 0x3e05b5abbe1d4e33U, 0x3c9d4e33U,
  0x3d7bb051bc3cc43dU, 0xbc7bb0513d6bf54cU, 0x3e05b5abbd9d4e33U, 0xbd8d932ebd2d0938U,
  0xbd1d4e333c7bb051U, 0xbe2d0938bcfbb051U, 0x3c3cc43dbe30f7f9U, 0xbd0d932e3d85b5abU,
  0x3d5c3a473bfbb051U, 0x3e05b5ab3de417c9U, 0x3dd45cc4bc9d4e33U, 0xbd1d4e333debf54cU,
  0x3d0d932e3e506e03U, 0xbb7bb0513cfbb051U, 0xbe34e6babd6bf54cU, 0xbe6417c93e5c3a47U,
  0xbe1d4e333d1d4e33U, 0xbc9d4e33bde417c9U, 0xbbfbb0513cfbb051U, 0x3d9570b0be195f71U,
  0xbdcc7f42bcbcc43dU, 0xbe2d09383d6bf54cU, 0x3ddc3a473e73d2ceU, 0xbe4c7f423e4c7f42U,
  0xbe05b5abbdfbb051U, 0xbc7bb051be195f71U, 0x3cbcc43d3dbcc43dU, 0xbe2d0938be44a1bfU,
  0xbdcc7f423d3cc43dU, 0xbd9d4e33bc3cc43dU, 0x3e252bb5bd6bf54cU, 0xbe05b5abbdcc7f42U,
  0x3de417c9bc3cc43dU, 0x3d2d0938bbfbb051U, 0xbd5c3a47bcdc3a47U, 0x3c3cc43d3cbcc43dU,
  0xbd3cc43d3cfbb051U, 0x3db4e6ba3d6bf54cU, 0x3cfbb051be1570b0U, 0xbcbcc43dbc7bb051U,
  0x3cdc3a473d2d0938U, 0x3c7bb051bd3cc43dU, 0x3cfbb051bcbcc43dU, 0x3d5c3a47bc9d4e33U,
  0x3cdc3a47bddc3a47U, 0xbc7bb0513dbcc43dU, 0xbddc3a47bdb4e6baU, 0xbd7bb0513d9d4e33U,
  0x3d4c7f423e30f7f9U, 0xbd5c3a473b7bb051U, 0x3dad0938bd6bf54cU, 0x3de417c9be01c6eaU,
  0xbda52bb5bcdc3a47U, 0x3de417c93d0d932eU, 0xbddc3a47bda52bb5U, 0xbd2d09383e34e6baU,
  0xbe05b5ab3bfbb051U, 0x3d9570b03dad0938U, 0xbda52bb5bd2d0938U, 0x3e05b5ab00000000U,
  0xbd5c3a47bd2d0938U, 0x3dbcc43d3c7bb051U, 0xbdc4a1bf3d0d932eU, 0x3d7bb051bc7bb051U,
  0x3e09a46c3d1d4e33U, 0x3dd45cc43c7bb051U, 0x3e09a46c3c7bb051U, 0xbcfbb051bdc4a1bfU,
  0x3cdc3a473d3cc43dU, 0xbc3cc43d3c3cc43dU, 0x3df3d2ce3d0d932eU, 0x3d8d932e3d5c3a47U,
  0xbdf3d2ce3e1570b0U, 0xbc9d4e333d9570b0U, 0xbe584b86bbfbb051U, 0xbd9d4e33bdc4a1bfU,
  0xbcdc3a47bdcc7f42U, 0xbdf3d2cebcdc3a47U, 0xbd6bf54cbda52bb5U, 0xbd0d932ebcdc3a47U,
  0xbd8d932ebe34e6baU, 0xbc7bb0513e584b86U, 0xbdad09383e01c6eaU, 0xbd85b5ab3e6bf54cU,
  0xbcdc3a47bd9d4e33U, 0x3b7bb0513d1d4e33U, 0xbe0d932e3cfbb051U, 0xbcdc3a47bdcc7f42U,
  0x3cfbb0513e545cc4U, 0xbe1181efbd2d0938U, 0xbdcc7f423cdc3a47U, 0x3d8d932e3bfbb051U,
  0xbd85b5abbc9d4e33U, 0x3da52bb5U, 0xbc3cc43d3d5c3a47U, 0xbcbcc43dbc7bb051U,
  0x3d0d932ebe6bf54cU, 0xbe38d57bbd8d932eU, 0xbda52bb53e34e6baU, 0xbe09a46cbd7bb051U,
  0x3cdc3a473e489081U, 0xbdf3d2cebd6bf54cU, 0x3e7f9f123c7bb051U, 0x3e68068bbdb4e6baU,
  0x3e0d932ebdcc7f42U, 0x3e6bf54c3ddc3a47U, 0x3e1d4e333dbcc43dU, 0x3e93794f3debf54cU,
  0x3e1d4e33bc9d4e33U, 0xbdb4e6ba3d7bb051U, 0xbe05b5abbe30f7f9U, 0xbe584b8600000000U,
  0x3d5c3a47be09a46cU, 0xbdebf54cbe40b2feU, 0x3cbcc43dbe1570b0U, 0x3d8d932ebcbcc43dU,
  0x3d8d932e3d6bf54cU, 0x3e05b5ab3d7bb051U, 0xbbfbb051bd1d4e33U, 0x3dbcc43d3d1d4e33U,
  0x3c9d4e333d2d0938U, 0x3da52bb53d85b5abU, 0xbbfbb0513debf54cU, 0x3e213cf4bc9d4e33U,
  0x3d6bf54cbcbcc43dU, 0x3e09a46cbb7bb051U, 0x3cdc3a47U, 0x3dd45cc4be195f71U,
  0xbe7f9f12bed45cc4U, 0x3e30f7f9bebcc43dU, 0x3e0d932ebe213cf4U, 0x3dc4a1bfbe01c6eaU,
  0xbe09a46c3c9d4e33U, 0x3d9570b0bdebf54cU, 0xbcdc3a473e1570b0U, 0x3ebebb9dbe30f7f9U,
  0x3d0d932e3e01c6eaU, 0x3d8d932e3c7bb051U, 0x3e09a46c3bfbb051U, 0x3b7bb0513df3d2ceU,
  0xbc3cc43dbd4c7f42U, 0xbe01c6ea3d85b5abU, 0xbd9d4e333e995f71U, 0x3e602908be05b5abU,
  0x3ec4a1bf3dc4a1bfU, 0x3cdc3a473e252bb5U, 0x3dbcc43d3da52bb5U, 0xbe252bb53e7bb051U,
  0xbd4c7f4200000000U, 0xbe584b863d85b5abU, 0x3e195f71be34e6baU, 0x3e506e03bd9d4e33U,
  0xbd0d932e3e73d2ceU, 0xbe4890813e38d57bU, 0xbdd45cc4be6417c9U, 0x3d3cc43dbdf3d2ceU,
  0x3dd45cc4bd3cc43dU, 0x3ed06e03bc3cc43dU, 0x3dcc7f423c7bb051U, 0x3dad09383eedecadU,
  0xbe0d932ebd5c3a47U, 0xbd3cc43d3e8f8a8eU, 0xbe6417c9bdad0938U, 0xbe40b2fe3dd45cc4U,
  0xbd9570b03d7bb051U, 0x3d6bf54c3e40b2feU, 0xbe81c6eabd2d0938U, 0x3dad0938bd9570b0U,
  0x3dad0938be34e6baU, 0x3d3cc43d3d1d4e33U, 0x3d6bf54cbcdc3a47U, 0xbd2d09383d6bf54cU,
  0x3e213cf400000000U, 0x3e213cf4bd9d4e33U, 0x3d5c3a473bfbb051U, 0xbdfbb0513d1d4e33U,
  0x3e05b5abbc7bb051U, 0x3e213cf43e30f7f9U, 0xbde417c93c9d4e33U, 0x3d85b5ab3d5c3a47U,
  0xbe01c6eabdcc7f42U, 0x3d9d4e33be1d4e33U, 0xbe195f71bbfbb051U, 0xbd1d4e33bd9570b0U,
  0xbda52bb5bdebf54cU, 0x3c9d4e33bd9570b0U, 0xbdd45cc4bd9d4e33U, 0xbe1181efbd0d932eU,
  0xbd9d4e33bc7bb051U, 0xbdad0938bc7bb051U, 0x3bfbb051be38d57bU, 0x3dad09383e8d932eU,
  0x3dcc7f423ebebb9dU, 0x3c9d4e333c7bb051U, 0x3debf54c3cbcc43dU, 0x3d8d932ebcdc3a47U,
  0x3d5c3a47be09a46cU, 0xbe09a46cbdbcc43dU, 0x3e01c6eabd8d932eU, 0x3debf54c3cbcc43dU,
  0x3e2d0938be545cc4U, 0xbdf3d2ce00000000U, 0x3da52bb5be6bf54cU, 0xbdc4a1bf3d0d932eU,
  0x3e4890813da52bb5U, 0x3e44a1bf3c3cc43dU, 0xbe83be4a3e1d4e33U, 0xbe77c1903ec2aa5fU,
  0xbe506e03be1d4e33U, 0xbe7f9f12bcfbb051U, 0x3d85b5ab3e291a76U, 0x3cdc3a47be85b5abU,
  0x3d85b5abbd3cc43dU, 0x3dad0938bd4c7f42U, 0x3e8f8a8e3e44a1bfU, 0xbda52bb53e93794fU,
  0x3d2d0938be291a76U, 0x3cbcc43dU, 0x3e40b2fe3cfbb051U, 0x3b7bb0513d4c7f42U,
  0xbcdc3a473e3cc43dU, 0xbd85b5ab3dfbb051U, 0xbdbcc43d3bfbb051U, 0xbe09a46cbe34e6baU,
  0x3c9d4e333e6417c9U, 0x3d5c3a473e1181efU, 0xbcdc3a47bd2d0938U, 0x3dad09383c3cc43dU,
  0x3b7bb0513e1d4e33U, 0xbd3cc43dbe05b5abU, 0xbe2d09383e09a46cU, 0xbe05b5abbd3cc43dU,
  0xbd1d4e333ddc3a47U, 0x3c9d4e333d2d0938U, 0xbd7bb0513c7bb051U, 0x3c3cc43dU,
  0xbe2d09383de417c9U, 0x3da52bb53d2d0938U, 0xbd1d4e33bd3cc43dU, 0x3e30f7f9bdfbb051U,
  0x3d1d4e333b7bb051U, 0xbdebf54cbddc3a47U, 0x3bfbb0513d6bf54cU, 0x3e584b863cbcc43dU,
  0xbda52bb5be01c6eaU, 0x3cbcc43d3d5c3a47U, 0x3c9d4e333cdc3a47U, 0xbd1d4e33bd6bf54cU,
  0xbd1d4e333d85b5abU, 0xbe1181ef3dcc7f42U, 0xbc9d4e333dad0938U, 0x3d2d093800000000U,
  0x3d9570b0bd9d4e33U, 0xbc9d4e333c9d4e33U, 0xbcfbb0513d0d932eU, 0xbdad0938bb7bb051U,
  0xbd1d4e333d85b5abU, 0x3cfbb051bd7bb051U, 0x3e30f7f9bdebf54cU, 0xbd85b5ab3cbcc43dU,
  0xbb7bb0513d9d4e33U, 0xbd2d09383e602908U, 0xbe09a46c3cbcc43dU, 0x3b7bb051be252bb5U,
  0xbd3cc43d3d9570b0U, 0xbbfbb051bd9d4e33U, 0xbdad09383d9d4e33U, 0xbe34e6babe6417c9U,
  0xbd9570b0bdb4e6baU, 0xbdc4a1bfbd2d0938U, 0xbd6bf54c3bfbb051U, 0xbb7bb0513c9d4e33U,
  0x3debf54cbd85b5abU, 0xbd6bf54cU, 0xbdad0938bd9d4e33U, 0xbc3cc43dbd1d4e33U,
  0xbb7bb051bddc3a47U, 0x3d2d0938be05b5abU, 0xbdd45cc4bcdc3a47U, 0x3cdc3a47bdc4a1bfU,
  0x3e195f713e6fe40dU, 0xbc9d4e333e0d932eU, 0x3c9d4e33bde417c9U, 0xbd1d4e333db4e6baU,
  0x3d8d932e3e1181efU, 0xbd6bf54cbd6bf54cU, 0xbe0d932ebd85b5abU, 0x3d0d932ebcdc3a47U,
  0xbd7bb0513d6bf54cU, 0xbdcc7f423e73d2ceU, 0x3e6029083df3d2ceU, 0x3c7bb051bcfbb051U,
  0x3e05b5ab3b7bb051U, 0x3c9d4e33be09a46cU, 0x3e34e6ba3d6bf54cU, 0x3d85b5abbb7bb051U,
  0xbb7bb051bd85b5abU, 0x3dc4a1bfbbfbb051U, 0x3c3cc43dbd9d4e33U, 0x3e213cf4bd85b5abU,
  0xbd4c7f42bd85b5abU, 0xbdc4a1bfbd2d0938U, 0xbdd45cc43da52bb5U, 0xbd1d4e333cdc3a47U,
  0x3da52bb53d2d0938U, 0xbcbcc43d3d2d0938U, 0xbddc3a473cdc3a47U, 0x3d6bf54c3e01c6eaU,
  0xbe5c3a473d6bf54cU, 0x3bfbb0513e0d932eU, 0xbd6bf54c00000000U, 0x3db4e6babd4c7f42U,
  0xbc7bb0513d0d932eU, 0x3c3cc43dbcfbb051U, 0xbd3cc43d3b7bb051U, 0xbd4c7f423dbcc43dU,
  0x3cbcc43dbc3cc43dU, 0x3d9570b0bdbcc43dU, 0x3e05b5abbdb4e6baU, 0x3e506e03bd9d4e33U,
  0xbd6bf54cbb7bb051U, 0x3d6bf54c3d8d932eU, 0xbddc3a47bc7bb051U, 0x3e01c6eabd2d0938U,
  0xbc3cc43dbd7bb051U, 0xbbfbb051bd4c7f42U, 0x3cbcc43d3e01c6eaU, 0x3c3cc43d3d9d4e33U,
  0xbc9d4e33bdb4e6baU, 0xbd9d4e333d8d932eU, 0xbdfbb0513d9d4e33U, 0x3bfbb051bc3cc43dU,
  0x3cbcc43dbd85b5abU, 0xbc3cc43dbc3cc43dU, 0x3e1181efbd7bb051U, 0xbde417c93d2d0938U,
  0xbd6bf54c00000000U, 0x3e01c6eabd0d932eU, 0xbd4c7f423d0d932eU, 0x3d5c3a473d2d0938U,
  0xbe30f7f93d85b5abU, 0xbc3cc43d3de417c9U, 0xbe01c6ea3b7bb051U, 0xbe34e6ba3da52bb5U,
  0xbd85b5abbe2d0938U, 0xbd7bb051bdd45cc4U, 0x3d9d4e333d5c3a47U, 0xbe4890813d1d4e33U,
  0x3cfbb0513d1d4e33U, 0x3e1d4e333d6bf54cU, 0xbcdc3a473d2d0938U, 0x3d1d4e33bbfbb051U,
  0x3c9d4e33bdcc7f42U, 0x3b7bb051bd2d0938U, 0x3d85b5ab3cdc3a47U, 0x3e1181ef3d0d932eU,
  0xbd5c3a47bd9d4e33U, 0xbd2d0938bd2d0938U, 0x3cfbb0513cbcc43dU, 0x3da52bb53cfbb051U,
  0xbc3cc43d3bfbb051U, 0x3c7bb0513d2d0938U, 0xbd8d932ebd3cc43dU, 0xbdbcc43d3e34e6baU,
  0xbcbcc43d3bfbb051U, 0xbcbcc43d3d7bb051U, 0xbcdc3a473d9d4e33U, 0x3de417c93da52bb5U,
  0x3c9d4e333c3cc43dU, 0xbd3cc43dbdc4a1bfU, 0xbdc4a1bf3cdc3a47U, 0x3dbcc43dbe1181efU,
  0x3dd45cc4bd8d932eU, 0xbd85b5abbd4c7f42U, 0x3e545cc4bc9d4e33U, 0xbe09a46cbda52bb5U,
  0x3e584b86bd1d4e33U, 0xbe30f7f9bb7bb051U, 0xbcdc3a473d6bf54cU, 0xbd2d09383e1181efU,
  0xbd5c3a47bdad0938U, 0x3b7bb0513e40b2feU, 0xbcfbb051be44a1bfU, 0x3d6bf54cbd85b5abU,
  0x3c3cc43dU, 0x3d9570b0bdd45cc4U, 0xbdfbb0513e213cf4U, 0x3cdc3a473d7bb051U,
  0x3d3cc43d3dd45cc4U, 0xbd85b5ab3b7bb051U, 0xbdebf54c3db4e6baU, 0xbcbcc43d3d6bf54cU,
  0xbe05b5abbcfbb051U, 0xbbfbb0513b7bb051U, 0x3e05b5abbe05b5abU, 0xbe09a46cbcfbb051U,
  0x3e291a76bd6bf54cU, 0xbdad0938be73d2ceU, 0x3e38d57bbdbcc43dU, 0xbc3cc43d3c9d4e33U,
  0xbc7bb0513b7bb051U, 0x3cdc3a47bd5c3a47U, 0xbddc3a473b7bb051U, 0xbd0d932e3cfbb051U,
  0x3c3cc43d3d7bb051U, 0xbcfbb051be0d932eU, 0xbe01c6ea3ddc3a47U, 0xbcdc3a47bcbcc43dU,
  0xbde417c93d7bb051U, 0x3d6bf54cbe252bb5U, 0x3d85b5abbdc4a1bfU, 0x3cfbb0513d7bb051U,
  0x3cdc3a473b7bb051U, 0xbe83be4a3e3cc43dU, 0x3d8d932ebe1570b0U, 0x3c9d4e33bd3cc43dU,
  0x3d9d4e333cdc3a47U, 0x3dc4a1bf3d85b5abU, 0x3cbcc43dbd7bb051U, 0x3cfbb0513dad0938U,
  0x3e1181ef00000000U, 0xbc7bb051bb7bb051U, 0xbcdc3a473da52bb5U, 0xbe68068b3d3cc43dU,
  0x3dad0938bc9d4e33U, 0xbe4890813e213cf4U, 0x3cfbb051bb7bb051U, 0xbc7bb0513df3d2ceU,
  0xbd2d0938bde417c9U, 0xbe34e6ba3d7bb051U, 0x3d6bf54cbe5c3a47U, 0xbdb4e6ba3dad0938U,
  0x3dad0938bdcc7f42U, 0x3dfbb0513df3d2ceU, 0x3df3d2ce3dfbb051U, 0xbe30f7f9bb7bb051U,
  0xbdcc7f423c7bb051U, 0x3d4c7f423e1181efU, 0x3d0d932ebd9570b0U, 0x3d5c3a473d5c3a47U,
  0xbd9d4e33bd9d4e33U, 0x3d9570b03c9d4e33U, 0xbd0d932e3d2d0938U, 0x3dd45cc4be195f71U,
  0xbdb4e6ba3da52bb5U, 0xbd8d932e3d9d4e33U, 0x3d5c3a47bd3cc43dU, 0xbd4c7f423d2d0938U,
  0x3dfbb0513bfbb051U, 0xbdb4e6babe30f7f9U, 0x3df3d2cebd5c3a47U, 0xbdc4a1bfbdf3d2ceU,
  0x3e5c3a473ddc3a47U, 0xbd9570b0bd0d932eU, 0x3c7bb0513d3cc43dU, 0x3d6bf54cbd85b5abU,
  0xbdbcc43dbc9d4e33U, 0xbd85b5ab3d2d0938U, 0x3dbcc43d3c9d4e33U, 0x3e05b5ab3d4c7f42U,
  0x3e05b5abbe1181efU, 0x3e05b5ab3d8d932eU, 0x3d6bf54cbcbcc43dU, 0x3dbcc43d3d8d932eU,
  0x3d4c7f42bde417c9U, 0xbe73d2cebbfbb051U, 0x3d6bf54c3cbcc43dU, 0x3e1d4e333da52bb5U,
  0xbe213cf43e0d932eU, 0xbc3cc43dbde417c9U, 0xbe1570b0bd2d0938U, 0x3d1d4e33be252bb5U,
  0x3e213cf43cfbb051U, 0xbe5c3a47bcbcc43dU, 0x3cdc3a47bdbcc43dU, 0x3d7bb0513cbcc43dU,
  0xbda52bb53dd45cc4U, 0xbb7bb0513d4c7f42U, 0xbb7bb051bd4c7f42U, 0xbd2d0938be83be4aU,
  0xbd5c3a47be6417c9U, 0xbdf3d2cebc7bb051U, 0x3c3cc43dbdbcc43dU, 0xbd2d0938bd6bf54cU,
  0x3d6bf54cbd0d932eU, 0xbcfbb051bcfbb051U, 0x3cbcc43d3e34e6baU, 0x3d2d09383d6bf54cU,
  0xbda52bb53e3cc43dU, 0x3b7bb051bc9d4e33U, 0x3cbcc43d3b7bb051U, 0x3db4e6babdbcc43dU,
  0xbd1d4e33bd6bf54cU, 0x3bfbb0513c7bb051U, 0xbe05b5ab3d85b5abU, 0x3e0d932e3df3d2ceU,
  0xbd4c7f42bdad0938U, 0x3dc4a1bfbe195f71U, 0xbe05b5ab3d4c7f42U, 0x3e34e6babcbcc43dU,
  0xbd6bf54cbd4c7f42U, 0x3d85b5ab3dad0938U, 0xbdebf54cbd2d0938U, 0x3e09a46cbd5c3a47U,
  0x3dbcc43dbd1d4e33U, 0x3d9d4e33be05b5abU, 0xbcfbb0513d3cc43dU, 0x3b7bb051bc7bb051U,
  0x3d9d4e33bd4c7f42U, 0xbd4c7f42U, 0xbd9d4e333cdc3a47U, 0x3debf54cbe195f71U,
  0x3c3cc43dbe1d4e33U, 0x3cbcc43d3cbcc43dU, 0xbe05b5abbd3cc43dU, 0xbbfbb0513debf54cU,
  0xbe01c6ea3d0d932eU, 0xbe6029083d6bf54cU, 0xbdfbb0513d2d0938U, 0x3c3cc43dU,
  0x3c9d4e333d8d932eU, 0xbd9570b0bc3cc43dU, 0xbe1d4e33bc3cc43dU, 0x3c7bb051bd9d4e33U,
  0x3e09a46cbc3cc43dU, 0xbe38d57b3d4c7f42U, 0xbd1d4e333d8d932eU, 0xbbfbb0513bfbb051U,
  0xbdb4e6ba3cbcc43dU, 0xbd0d932ebddc3a47U, 0x3dbcc43dbd2d0938U, 0xbd6bf54c00000000U,
  0x3d85b5ab3b7bb051U, 0xbd4c7f423cbcc43dU, 0x3e489081bd4c7f42U, 0xbda52bb5bdb4e6baU,
  0xbc7bb0513d4c7f42U, 0x3cbcc43dbdf3d2ceU, 0xbd7bb0513ddc3a47U, 0x3e1570b03da52bb5U,
  0x3d9570b03d3cc43dU, 0xbcdc3a473e1570b0U, 0xbcbcc43d3dfbb051U, 0x3e1d4e33U,
  0xbcbcc43d3dd45cc4U, 0xbcbcc43dbdcc7f42U, 0xbd5c3a47bd4c7f42U, 0xbbfbb0513cfbb051U,
  0x3d5c3a473d2d0938U, 0x3d0d932e3d2d0938U, 0x3c7bb051be584b86U, 0xbdbcc43d3e09a46cU,
  0x3c7bb0513d7bb051U, 0x3debf54cbcdc3a47U, 0x3d4c7f42bdc4a1bfU, 0x3dd45cc4bddc3a47U,
  0xbdb4e6ba3c3cc43dU, 0xbd6bf54c00000000U, 0xbc7bb051bdbcc43dU, 0x3e09a46cbc7bb051U,
  0xbe1181ef3e1181efU, 0xbdad0938bbfbb051U, 0x3da52bb53e252bb5U, 0x3d4c7f42bdfbb051U,
  0x3d2d09383cbcc43dU, 0xbc7bb051bd85b5abU, 0x3c7bb0513cfbb051U, 0x3c7bb0513c7bb051U,
  0x3dad0938bddc3a47U, 0xbe05b5ab3da52bb5U, 0xbd85b5ab3d6bf54cU, 0x3d85b5ab3d6bf54cU,
  0xbcbcc43dbdbcc43dU, 0x3d2d09383c9d4e33U, 0x3bfbb051bc9d4e33U, 0x3d0d932e3d5c3a47U,
  0x3d9570b03d3cc43dU, 0xbd7bb051bdc4a1bfU, 0x3df3d2cebd2d0938U, 0x3cfbb051bd7bb051U,
  0xbe291a76bc3cc43dU, 0x3cfbb051bdb4e6baU, 0x3d8d932e3d0d932eU, 0xbdc4a1bf3cfbb051U,
  0x3debf54c3e38d57bU, 0x3e30f7f93dad0938U, 0x3b7bb0513d3cc43dU, 0xbe1181ef3b7bb051U,
  0xbe09a46cbe01c6eaU, 0x3e05b5ab3d9d4e33U, 0x3d85b5abbe83be4aU, 0xbd4c7f4200000000U,
  0x3d8d932e3c9d4e33U, 0xbddc3a47bdcc7f42U, 0xbc7bb0513d7bb051U, 0x3cdc3a473e44a1bfU,
  0xbe4c7f423b7bb051U, 0x3dfbb051bc9d4e33U, 0xbd1d4e333e489081U, 0xbd1d4e33bcdc3a47U,
  0xbd9570b0bd8d932eU, 0xbc7bb051bd1d4e33U, 0x3d8d932e3d9570b0U, 0x3d85b5ab3d8d932eU,
  0xbd1d4e33bc9d4e33U, 0x3e3cc43dbd9570b0U, 0xbb7bb0513d0d932eU, 0xbd6bf54c3db4e6baU,
  0xbdbcc43dbdcc7f42U, 0xbd8d932ebb7bb051U, 0xbc7bb0513d8d932eU, 0xbd2d0938bb7bb051U,
  0xbcfbb0513d4c7f42U, 0x3debf54c3d2d0938U, 0xbdad09383d4c7f42U, 0x3d2d0938bdfbb051U,
  0xbe01c6eaU, 0xbde417c900000000U, 0x3d8d932e3dcc7f42U, 0xbd85b5abbdcc7f42U,
  0x3d8d932e3dcc7f42U, 0xbe09a46cbd6bf54cU, 0x3c9d4e333e1d4e33U, 0x3e1d4e33bdcc7f42U,
  0xbc3cc43d3d7bb051U, 0x3d6bf54c3d2d0938U, 0x3db4e6babe34e6baU, 0xbc7bb051be291a76U,
  0x3e252bb5bcfbb051U, 0x3dd45cc4be01c6eaU, 0x3e1181efbe1d4e33U, 0xbd4c7f42bd5c3a47U,
  0xbc7bb0513cdc3a47U, 0xbd9570b03da52bb5U, 0xbbfbb051U, 0xbe0d932e3dc4a1bfU,
  0xbddc3a473df3d2ceU, 0xbc3cc43d3cfbb051U, 0x3d0d932e3d4c7f42U, 0x3cfbb0513d8d932eU,
  0x3dad0938bda52bb5U, 0xbe01c6eabb7bb051U, 0x3e195f71bda52bb5U, 0x3e1570b03cfbb051U,
  0xbdc4a1bfbd3cc43dU, 0xbd9d4e33bd85b5abU, 0xbb7bb0513d4c7f42U, 0x3d85b5ab3dfbb051U,
  0x3cbcc43d3d1d4e33U, 0xbb7bb0513da52bb5U, 0xbb7bb0513dc4a1bfU, 0xbddc3a4700000000U,
  0x3e545cc43e291a76U, 0x3c3cc43d3d0d932eU, 0xbdcc7f423d3cc43dU, 0xbe01c6ea3d1d4e33U,
  0x3d4c7f423d1d4e33U, 0x3c9d4e33bd2d0938U, 0x3b7bb0513e05b5abU, 0x3d3cc43dbc9d4e33U,
  0x3d6bf54cbbfbb051U, 0x3d3cc43dbdfbb051U, 0xbc9d4e333dd45cc4U, 0x3d3cc43d3dcc7f42U,
  0xbe38d57bbd2d0938U, 0xbc7bb051bdcc7f42U, 0x3dbcc43dbd1d4e33U, 0xbc3cc43d3dc4a1bfU,
  0xbe1181ef3dc4a1bfU, 0x3d7bb051bd1d4e33U, 0x3c3cc43d3db4e6baU, 0xbd5c3a47bc9d4e33U,
  0x3bfbb051bb7bb051U, 0xbd8d932e3c7bb051U, 0xbc9d4e333c3cc43dU, 0xbd3cc43dbd8d932eU,
  0xbe4c7f423d2d0938U, 0xbd4c7f423e6417c9U, 0x3e44a1bf3cbcc43dU, 0x3d3cc43d3de417c9U,
  0xbd5c3a47bd8d932eU, 0xbcdc3a47bd0d932eU, 0xbd1d4e333df3d2ceU, 0x3b7bb051bd7bb051U,
  0x3c9d4e333d9d4e33U, 0x3dd45cc4be05b5abU, 0xbd1d4e33bdb4e6baU, 0x3e213cf4bddc3a47U,
  0x3d85b5ab3db4e6baU, 0xbd0d932ebd6bf54cU, 0x3d9570b0bddc3a47U, 0xbddc3a473dcc7f42U,
  0x3dfbb051bdc4a1bfU, 0xbd0d932e3c3cc43dU, 0xbd2d0938bd0d932eU, 0xbd4c7f423e2d0938U,
  0xbdcc7f42bd85b5abU, 0x3e0d932e3e05b5abU, 0xbdf3d2cebe05b5abU, 0x3db4e6ba3debf54cU,
  0xbdb4e6babda52bb5U, 0x3c9d4e333d9d4e33U, 0xbda52bb5bd8d932eU, 0xbcbcc43d3e01c6eaU,
  0xbd2d09383c9d4e33U, 0x3c3cc43dbdbcc43dU, 0xbdd45cc4U, 0x3d9570b03d8d932eU,
  0x3d1d4e333dad0938U, 0x3d5c3a47bd8d932eU, 0xbbfbb051bdb4e6baU, 0xbb7bb0513c7bb051U,
  0x3d0d932e3d9d4e33U, 0x3cbcc43dbd2d0938U, 0x3dbcc43dbcbcc43dU, 0xbda52bb53dad0938U,
  0xbe7f9f123e01c6eaU, 0x3db4e6babc7bb051U, 0x3c7bb0513d2d0938U, 0xbd7bb0513dc4a1bfU,
  0xbe1570b0bda52bb5U, 0xbe291a76bdb4e6baU, 0xbc3cc43dbcbcc43dU, 0xbddc3a473e09a46cU,
  0xbb7bb051bcdc3a47U, 0xbcbcc43d3d9570b0U, 0x3dc4a1bf3e38d57bU, 0x3d8d932ebd0d932eU,
  0xbd3cc43dbd1d4e33U, 0x3d3cc43dbe34e6baU, 0x3e09a46c3dcc7f42U, 0x3c7bb0513d3cc43dU,
  0xbe1181efbd5c3a47U, 0x3e4890813b7bb051U, 0x3cbcc43dbbfbb051U, 0x3d85b5abbdbcc43dU,
  0x3da52bb5bbfbb051U, 0x3d3cc43dbddc3a47U, 0x3c3cc43dU, 0x3cbcc43dbc3cc43dU,
  0x3c3cc43d3b7bb051U, 0x3d5c3a47bcdc3a47U, 0x3d7bb051bd4c7f42U, 0xbd2d09383cdc3a47U,
  0x3bfbb0513cfbb051U, 0xbcdc3a473d85b5abU, 0xbb7bb051bd8d932eU, 0xbcdc3a473dd45cc4U,
  0xbbfbb051bd3cc43dU, 0x3dc4a1bf3d5c3a47U, 0x3dc4a1bf3e1d4e33U, 0x3debf54c3e213cf4U,
  0x3d9570b03debf54cU, 0x3c7bb0513e05b5abU, 0x3d6bf54c3dc4a1bfU, 0xbd4c7f42bd7bb051U,
  0xbcdc3a4700000000U, 0x3d7bb051bc9d4e33U, 0xbb7bb0513d85b5abU, 0x3d5c3a47U,
  0xbbfbb0513bfbb051U, 0x3cfbb051bc9d4e33U, 0x3b7bb0513b7bb051U, 0x3bfbb0513c9d4e33U,
  0x3cbcc43d3d2d0938U, 0xbcdc3a473bfbb051U, 0xbd4c7f423d85b5abU, 0xbc9d4e33bc7bb051U,
  0xbcfbb051bd0d932eU, 0x3c3cc43dbd0d932eU, 0xbd6bf54c3cdc3a47U, 0x3cfbb0513d0d932eU,
  0x3bfbb051bbfbb051U, 0x3da52bb53d0d932eU, 0xbc3cc43d3d9d4e33U, 0x3cfbb051bc7bb051U,
  0xbcdc3a473cdc3a47U, 0xbd4c7f42bd3cc43dU, 0xbd5c3a473cfbb051U, 0x3cdc3a47bd4c7f42U,
  0xbd2d0938bdbcc43dU, 0xbc7bb0513b7bb051U, 0x3d85b5ab3c7bb051U, 0x3dc4a1bfbe05b5abU,
  0x3dcc7f42bbfbb051U, 0x3cdc3a473d5c3a47U, 0x3c7bb051bc9d4e33U, 0xbd2d09383db4e6baU,
  0x3d0d932e3cbcc43dU, 0x3d4c7f42bbfbb051U, 0xbd6bf54cbddc3a47U, 0x3d9570b0bdc4a1bfU,
  0x3d6bf54c3d8d932eU, 0xbb7bb0513d5c3a47U, 0xbd0d932ebd7bb051U, 0x3d7bb0513d7bb051U,
  0x3d5c3a47bc9d4e33U, 0x3cdc3a47bb7bb051U, 0xbd5c3a473cdc3a47U, 0x3d9570b03d3cc43dU,
  0x3dcc7f423b7bb051U, 0x3dad0938be1d4e33U, 0x3d3cc43dbc7bb051U, 0x3debf54c3ddc3a47U,
  0xbdcc7f423dcc7f42U, 0xbcfbb051bd9570b0U, 0xbd0d932ebb7bb051U, 0xbd1d4e333da52bb5U,
  0x3debf54cbe7bb051U, 0x3d85b5abbcfbb051U, 0x3d2d0938bd85b5abU, 0xbcbcc43d00000000U,
  0xbd0d932e3cbcc43dU, 0x3e38d57b3c9d4e33U, 0xbdb4e6baU, 0x3e05b5abbdbcc43dU,
  0xbe0d932ebb7bb051U, 0xbdfbb0513cbcc43dU, 0x3e213cf43c7bb051U, 0xbcdc3a47bc7bb051U,
  0x3d5c3a47bd85b5abU, 0x3d2d09383bfbb051U, 0xbdc4a1bfbd2d0938U, 0x3debf54cU,
  0xbdd45cc4bb7bb051U, 0x3ddc3a473dc4a1bfU, 0x3d3cc43dbe2d0938U, 0x3d4c7f4200000000U,
  0x3b7bb051bdbcc43dU, 0xbcdc3a473d3cc43dU, 0x3cbcc43dbdd45cc4U, 0x3bfbb0513d9570b0U,
  0x3da52bb5be1181efU, 0xbc3cc43d3b7bb051U, 0xbd5c3a473d9d4e33U, 0xbdf3d2cebddc3a47U,
  0xbb7bb051be213cf4U, 0x3b7bb051bd1d4e33U, 0xbd3cc43d3c7bb051U, 0xbd6bf54c3de417c9U,
  0x3db4e6ba3d1d4e33U, 0x3d2d09383d85b5abU, 0x3d4c7f42bd9570b0U, 0x3d9570b03cfbb051U,
  0xbd6bf54c3e05b5abU, 0x3da52bb5bbfbb051U, 0xbdf3d2cebc9d4e33U, 0x3cbcc43d3cbcc43dU,
  0x3d5c3a473e7f9f12U, 0xbe30f7f9bcbcc43dU, 0x3d0d932ebe252bb5U, 0x3c3cc43dbd8d932eU,
  0x3c9d4e333d1d4e33U, 0xbd85b5ab3e30f7f9U, 0x3bfbb051bc3cc43dU, 0x3b7bb0513d1d4e33U,
  0x3da52bb53b7bb051U, 0xbc9d4e33be05b5abU, 0x3d7bb051bbfbb051U, 0xbd1d4e33bdfbb051U,
  0xbd5c3a473ddc3a47U, 0x3db4e6ba3c9d4e33U, 0xbe44a1bfbe01c6eaU, 0x3cfbb0513d2d0938U,
  0xbdebf54cbc7bb051U, 0xbda52bb53e1570b0U, 0x3d0d932e3dc4a1bfU, 0x3e1d4e333dd45cc4U,
  0x3e3cc43dbe1d4e33U, 0x3d9570b03db4e6baU, 0x3c7bb0513c3cc43dU, 0x3dd45cc4bd0d932eU,
  0xbd4c7f42bdb4e6baU, 0xbd2d0938bc7bb051U, 0xbd85b5ab3debf54cU, 0x3cfbb051bcdc3a47U,
  0xbd8d932e3d4c7f42U, 0xbde417c93cbcc43dU, 0x3debf54cbdc4a1bfU, 0x3ddc3a473de417c9U,
  0x3d8d932ebe1570b0U, 0x3c7bb0513e0d932eU, 0xbd8d932ebd8d932eU, 0xbda52bb5bd0d932eU,
  0xbd4c7f423dc4a1bfU, 0xbdd45cc43dc4a1bfU, 0x3e252bb5bdf3d2ceU, 0xbdb4e6babbfbb051U,
  0xbdb4e6ba3d5c3a47U, 0xbd9570b03e1d4e33U, 0xbe1570b03c7bb051U, 0xbddc3a473e602908U,
  0xbdf3d2ce3cfbb051U, 0xbd8d932e3e0d932eU, 0x3d3cc43dbdfbb051U, 0x3d4c7f423dd45cc4U,
  0x3e506e03bcfbb051U, 0xbd7bb051bdfbb051U, 0x3dd45cc4bcfbb051U, 0x3c9d4e333c3cc43dU,
  0xbd7bb051bc7bb051U, 0x3d3cc43dbe44a1bfU, 0x3dfbb0513d2d0938U, 0xbde417c93e2d0938U,
  0x3dad0938bdfbb051U, 0x3d9d4e33bcbcc43dU, 0x3c9d4e333c3cc43dU, 0xbbfbb051U,
  0x3d3cc43d3e38d57bU, 0x3b7bb051bc3cc43dU, 0x3d9570b0be1d4e33U, 0xbdbcc43d3dd45cc4U,
  0xbdb4e6ba3d85b5abU, 0x3dbcc43dbe05b5abU, 0xbe195f71be545cc4U, 0xbcfbb051bd9570b0U,
  0xbcbcc43d3d6bf54cU, 0xbe09a46cbd85b5abU, 0x3debf54c00000000U, 0xbd8d932e3d0d932eU,
  0xbd5c3a47bb7bb051U, 0x3d2d0938be38d57bU, 0x3dd45cc4bc9d4e33U, 0xbe05b5abbe0d932eU,
  0xbda52bb53e8f8a8eU, 0xbd2d0938bd6bf54cU, 0x3b7bb051bd85b5abU, 0xbd9d4e33bd85b5abU,
  0xbe05b5ab3b7bb051U, 0x3d9d4e33bea52bb5U, 0x3e05b5ab3cfbb051U, 0x3da52bb5bc9d4e33U,
  0x3d4c7f42bc9d4e33U, 0xbe09a46c00000000U, 0x3c7bb0513d9d4e33U, 0xbcbcc43d3d85b5abU,
  0xbd1d4e333de417c9U, 0xbc3cc43d3c9d4e33U, 0xbd8d932e3d1d4e33U, 0xbc9d4e333dbcc43dU,
  0x3cbcc43dbd9570b0U, 0x3dc4a1bf3da52bb5U, 0x3dd45cc43d3cc43dU, 0x3da52bb5bb7bb051U,
  0xbe213cf4bdebf54cU, 0x3e1570b0be44a1bfU, 0xbddc3a473dc4a1bfU, 0x3d85b5abbdcc7f42U,
  0x3dbcc43dbd9570b0U, 0x3d9d4e33bd9570b0U, 0xbd6bf54c3bfbb051U, 0xbcfbb051bc3cc43dU,
  0xbe38d57b3e3cc43dU, 0x3d9d4e3300000000U, 0xbe0d932e3da52bb5U, 0x3cfbb0513c3cc43dU,
  0xbdad09383d1d4e33U, 0xbd1d4e333c3cc43dU, 0x3dd45cc43d6bf54cU, 0xbda52bb53d2d0938U,
  0xbe3cc43dbd7bb051U, 0xbe34e6babddc3a47U, 0x3d3cc43d3cbcc43dU, 0x3d5c3a473dad0938U,
  0xbd9570b03dd45cc4U, 0xbd9570b0bc9d4e33U, 0xbdb4e6babe291a76U, 0xbe38d57bbd2d0938U,
  0x3e1181ef3dcc7f42U, 0x3e73d2ce3b7bb051U, 0x3dad09383db4e6baU, 0xbcdc3a47bd6bf54cU,
  0xbd85b5abbd0d932eU, 0xbe01c6ea3e77c190U, 0x3d5c3a47bd85b5abU, 0x3d6bf54c3cbcc43dU,
  0xbb7bb051bd8d932eU, 0xbdd45cc4bdfbb051U, 0xbcdc3a47bd3cc43dU, 0x3d9d4e33be6417c9U,
  0xbd85b5abU, 0x3bfbb0513e1d4e33U, 0xbd7bb0513dbcc43dU, 0x3dbcc43d3e01c6eaU,
  0xbda52bb53e30f7f9U, 0xbc3cc43dbdbcc43dU, 0x3e1570b000000000U, 0xbd7bb0513db4e6baU,
  0xbe05b5abbcfbb051U, 0x3cbcc43d3d2d0938U, 0xbd5c3a473d9570b0U, 0x3d9d4e333db4e6baU,
  0x3b7bb0513dad0938U, 0x3d2d09383d0d932eU, 0x3cfbb0513e6417c9U, 0x3debf54c3dd45cc4U,
  0x3debf54cbd4c7f42U, 0x3d0d932ebd9570b0U, 0x3dcc7f423e4c7f42U, 0x3d0d932ebe09a46cU,
  0xbcdc3a47bdcc7f42U, 0xbbfbb0513d0d932eU, 0xbc7bb0513c3cc43dU, 0xbc7bb051bcbcc43dU,
  0xbbfbb0513d5c3a47U, 0x3de417c9bdd45cc4U, 0x3d0d932ebd5c3a47U, 0xbd1d4e33bdd45cc4U,
  0x3df3d2cebdbcc43dU, 0xbd7bb0513bfbb051U, 0xbb7bb0513e30f7f9U, 0x3d9d4e33bddc3a47U,
  0x3d2d09383d6bf54cU, 0xbcbcc43dbe01c6eaU, 0x3d85b5ab3db4e6baU, 0xbdfbb051bd85b5abU,
  0xbd8d932e3e34e6baU, 0xbd2d09383d2d0938U, 0x3bfbb0513d0d932eU, 0xbd7bb051bc9d4e33U,
  0x3b7bb0513d85b5abU, 0x3d7bb051be01c6eaU, 0xbcdc3a473cdc3a47U, 0xbe252bb5bc9d4e33U,
  0x3c7bb0513d9d4e33U, 0xbd9570b03b7bb051U, 0xbdebf54cbc3cc43dU, 0xbb7bb051be05b5abU,
  0xbdb4e6babd85b5abU, 0xbe09a46c3cbcc43dU, 0xbe213cf4bc9d4e33U, 0x3cfbb0513cdc3a47U,
  0x3d9d4e333c3cc43dU, 0xbd4c7f4200000000U, 0x3dd45cc4bcfbb051U, 0xbe4890813dbcc43dU,
  0xbd3cc43d3d9d4e33U, 0x3d6bf54c00000000U, 0xbd4c7f42bde417c9U, 0xbdd45cc4bd85b5abU,
  0x3c7bb0513d85b5abU, 0xbd9570b03b7bb051U, 0x3bfbb051bd7bb051U, 0xbdb4e6ba3cfbb051U,
  0xbcfbb051bdf3d2ceU, 0x3db4e6ba3e291a76U, 0x3e4c7f423cdc3a47U, 0x3c9d4e333e05b5abU,
  0xbd5c3a47U, 0x3d6bf54cbe195f71U, 0x3debf54c00000000U, 0xbd85b5ab3e291a76U,
  0x3d0d932e3dbcc43dU, 0x3d4c7f423debf54cU, 0xbde417c93dc4a1bfU, 0x3cfbb0513e195f71U,
  0xbc3cc43dbd6bf54cU, 0xbdcc7f42bde417c9U, 0xbe1181efbcdc3a47U, 0xbd2d0938bd3cc43dU,
  0xbcbcc43d3bfbb051U, 0xbcfbb0513da52bb5U, 0xbdad0938be602908U, 0xbd7bb051bd85b5abU,
  0x3c3cc43dbdad0938U, 0xbc9d4e333debf54cU, 0x3d7bb051bdc4a1bfU, 0x3dbcc43dbbfbb051U,
  0xbddc3a47bdad0938U, 0x3d9d4e333e1181efU, 0xbd6bf54c3db4e6baU, 0xbd4c7f42be2d0938U,
  0x3debf54cbcdc3a47U, 0x3d3cc43d3df3d2ceU, 0xbe2d09383de417c9U, 0xbd1d4e33be213cf4U,
  0x3e1570b03dcc7f42U, 0xbdebf54cbdf3d2ceU, 0x3dd45cc4U, 0xbdad09383d9d4e33U,
  0xbd9570b03cbcc43dU, 0x3c9d4e333d1d4e33U, 0xbe252bb53d2d0938U, 0xbe1d4e333e1570b0U,
  0x3df3d2ceU, 0xbbfbb051bc7bb051U, 0x3dc4a1bfbd0d932eU, 0xbe1181efbdb4e6baU,
  0x3de417c93debf54cU, 0x3e252bb5bb7bb051U, 0x3ddc3a47bddc3a47U, 0xbd2d09383d6bf54cU,
  0x3c9d4e33bd7bb051U, 0xbd8d932ebc7bb051U, 0x3da52bb5bc3cc43dU, 0xbe09a46cbd6bf54cU,
  0xbd6bf54cbd6bf54cU, 0x3d2d0938bd2d0938U, 0x3e1d4e33bdc4a1bfU, 0x3e0d932ebd5c3a47U,
  0xbc3cc43d3e09a46cU, 0x3e6029083dad0938U, 0xbcfbb0513d0d932eU, 0xbe6bf54cbd85b5abU,
  0x3c3cc43d3d7bb051U, 0x3d0d932e00000000U, 0x3e252bb5bdebf54cU, 0x3e44a1bfbdd45cc4U,
  0xbd9d4e333d6bf54cU, 0x3d0d932ebe3cc43dU, 0xbc9d4e333dd45cc4U, 0x3dd45cc4bdf3d2ceU,
  0xbdc4a1bfbdc4a1bfU, 0xbd3cc43d3dad0938U, 0xbd8d932e3dbcc43dU, 0x3d85b5abbd3cc43dU,
  0xbcdc3a473db4e6baU, 0xbe5c3a47bddc3a47U, 0xbd8d932ebd6bf54cU, 0xbd1d4e33bd2d0938U,
  0x3d7bb051bd7bb051U, 0x3c3cc43dbd0d932eU, 0x3d8d932e3e3cc43dU, 0x3e34e6babc7bb051U,
  0x3dbcc43d3e1181efU, 0xbd5c3a473c7bb051U, 0x3b7bb051bdad0938U, 0xbe1570b0be489081U,
  0x3c9d4e333d7bb051U, 0x3cfbb051bd2d0938U, 0xbcbcc43dbbfbb051U, 0xbdfbb0513d5c3a47U,
  0x3d6bf54c3d6bf54cU, 0x3df3d2cebd0d932eU, 0xbb7bb0513cdc3a47U, 0x3cfbb051bde417c9U,
  0x3e05b5abbd85b5abU, 0x3d85b5ab3bfbb051U, 0xbd8d932ebd9d4e33U, 0xbda52bb5bd2d0938U,
  0x3e0d932ebbfbb051U, 0x3d85b5abbd9d4e33U, 0x3e1d4e33be09a46cU, 0xbc3cc43dbda52bb5U,
  0xbd6bf54c3d8d932eU, 0xbc9d4e333d5c3a47U, 0x3c7bb051bd5c3a47U, 0xbdbcc43d3dd45cc4U,
  0x3c7bb051bd4c7f42U, 0xbd5c3a473da52bb5U, 0xbdd45cc43cbcc43dU, 0xbe213cf43d5c3a47U,
  0x3d3cc43d3d1d4e33U, 0xbe584b86bdc4a1bfU, 0xbde417c9bd3cc43dU, 0xbd0d932ebd6bf54cU,
  0xbe01c6eabbfbb051U, 0xbe40b2fe3d3cc43dU, 0x3d7bb0513e0d932eU, 0xbcbcc43d3d6bf54cU,
  0x3db4e6babbfbb051U, 0xbb7bb051bd0d932eU, 0xbd2d0938bddc3a47U, 0x3d8d932e3d2d0938U,
  0xbd0d932e3d3cc43dU, 0xbd85b5ab3c7bb051U, 0xbe01c6ea3c9d4e33U, 0xbc9d4e33bdf3d2ceU,
  0xbbfbb051bdd45cc4U, 0x3e2d09383e30f7f9U, 0xbe09a46cbcfbb051U, 0x3d1d4e33be195f71U,
  0x3bfbb051be01c6eaU, 0x3c9d4e333cfbb051U, 0xbd4c7f42bdebf54cU, 0x3debf54c3dad0938U,
  0xbe1d4e33bcbcc43dU, 0x3e05b5abbc3cc43dU, 0x3db4e6ba3d6bf54cU, 0x3df3d2ce3dcc7f42U,
  0xbc9d4e333d3cc43dU, 0xbd8d932ebdbcc43dU, 0xbc7bb0513d7bb051U, 0x3e1d4e33bcdc3a47U,
  0x3d9d4e333cbcc43dU, 0xbc3cc43d3e30f7f9U, 0x3bfbb051bd1d4e33U, 0xbe1570b03ddc3a47U,
  0xbd9d4e33be291a76U, 0xbd5c3a473e506e03U, 0xbd0d932e3e34e6baU, 0x3c3cc43d3dd45cc4U,
  0x3d0d932e3d8d932eU, 0xbe8b9bcdbc7bb051U, 0x3cdc3a473db4e6baU, 0xbde417c93d6bf54cU,
  0xbd9570b0bdc4a1bfU, 0x3e4890813ddc3a47U, 0xbbfbb0513e09a46cU, 0x3dcc7f423e6417c9U,
  0xbd3cc43d3e2d0938U, 0xbd3cc43d3e1d4e33U, 0xbd8d932e3b7bb051U, 0xbe1d4e33be602908U,
  0x3dfbb051be2d0938U, 0xbe195f713ddc3a47U, 0xbd7bb051bde417c9U, 0x3d9570b03bfbb051U,
  0xbe34e6babb7bb051U, 0xbd1d4e333d2d0938U, 0xbe3cc43d3bfbb051U, 0x3d9d4e333cbcc43dU,
  0xbe584b86bd2d0938U, 0x3b7bb0513d8d932eU, 0xbd9570b0be489081U, 0xbd3cc43d3e7f9f12U,
  0x3e30f7f93e81c6eaU, 0xbd8d932e3d3cc43dU, 0x3debf54cbcdc3a47U, 0xbd9d4e33bd0d932eU,
  0x3e30f7f9be213cf4U, 0x3c9d4e33be40b2feU, 0xbe489081U, 0x3c7bb0513e2d0938U,
  0xbd5c3a47be213cf4U, 0xbd4c7f423d4c7f42U, 0xbdebf54cbd9d4e33U, 0xbd9570b03c7bb051U,
  0xbbfbb051bcdc3a47U, 0x3e30f7f9bd0d932eU, 0x3bfbb051bd85b5abU, 0xbef9b8f03e195f71U,
  0xbe8d932ebe44a1bfU, 0xbd5c3a47be83be4aU, 0x3ddc3a473d7bb051U, 0x3d7bb051be252bb5U,
  0xbe34e6ba3e05b5abU, 0xbe1181efbda52bb5U, 0x3d0d932e3e213cf4U, 0xbe6bf54c3e584b86U,
  0xbcfbb051bebebb9dU, 0xbc3cc43dbda52bb5U, 0x3e09a46c3e3cc43dU, 0x3cfbb051bd3cc43dU,
  0xbd8d932e3e87ad0cU, 0xbe6fe40d3db4e6baU, 0xbd2d09383d3cc43dU, 0xbe252bb5be213cf4U,
  0x3d6bf54c3debf54cU, 0x3b7bb051be8d932eU, 0x3d8d932ebe195f71U, 0x3bfbb0513d0d932eU,
  0x3e6417c9bd7bb051U, 0x3d2d0938be34e6baU, 0x3e3cc43dbde417c9U, 0x3cbcc43dbc3cc43dU,
  0xbe3cc43d3d4c7f42U, 0x3d7bb051bd0d932eU, 0xbdb4e6ba3dfbb051U, 0x3d8d932ebdf3d2ceU,
  0xbd6bf54c3d85b5abU, 0xbd6bf54c3dcc7f42U, 0xbc9d4e33be1181efU, 0xbd9570b03d9570b0U,
  0x3cdc3a473d6bf54cU, 0xbc3cc43d3d2d0938U, 0xbdcc7f42be252bb5U, 0x3d9570b03e195f71U,
  0x3db4e6ba3d85b5abU, 0xbe291a76be09a46cU, 0x3c9d4e333e3cc43dU, 0x3dbcc43dbd7bb051U,
  0xbd1d4e33bd6bf54cU, 0x3cfbb0513cdc3a47U, 0x3d2d0938bcfbb051U, 0x3d85b5abbdbcc43dU,
  0x3d0d932e3c9d4e33U, 0xbd85b5abbd5c3a47U, 0x3bfbb0513e3cc43dU, 0xbc9d4e33U,
  0xbe81c6eabe489081U, 0xbc3cc43d3c7bb051U, 0xbdd45cc4bd0d932eU, 0xbc3cc43dbd3cc43dU,
  0x3d8d932e3e545cc4U, 0x3cbcc43dbc7bb051U, 0x3b7bb0513e5c3a47U, 0xbcbcc43dbe93794fU,
  0xbe77c1903de417c9U, 0xbd2d0938bda52bb5U, 0x3dc4a1bf3c9d4e33U, 0xbc3cc43dbdc4a1bfU,
  0xbdebf54cbddc3a47U, 0xbe3cc43d3d9d4e33U, 0x3e1d4e333dd45cc4U, 0x3e506e03bd1d4e33U,
  0x3d5c3a47bb7bb051U, 0x3d85b5abbc9d4e33U, 0x3debf54c3d85b5abU, 0xbd1d4e333e4c7f42U,
  0x3c3cc43d3d0d932eU, 0xbdad09383dad0938U, 0xbcbcc43dbe291a76U, 0x3e0d932ebe1181efU,
  0x3ddc3a473e68068bU, 0x3e506e033c7bb051U, 0xbd5c3a47U, 0x3bfbb0513e34e6baU,
  0x3cfbb05100000000U, 0x3dad09383dbcc43dU, 0xbd9570b03c9d4e33U, 0x3e38d57b3dfbb051U,
  0xbdfbb0513e1181efU, 0x3c7bb051be93794fU, 0x3cdc3a47be4c7f42U, 0x3cbcc43dbd9d4e33U,
  0xbcfbb051U, 0xbbfbb051bbfbb051U, 0xbe87ad0c3e3cc43dU, 0xbd85b5ab3e506e03U,
  0xbe40b2fe3e68068bU, 0xbbfbb0513cfbb051U, 0xbbfbb0513d3cc43dU, 0x3e0d932ebe1d4e33U,
  0xbdc4a1bfbd85b5abU, 0x3debf54cbe40b2feU, 0xbbfbb0513ddc3a47U, 0xbd3cc43d00000000U,
  0x3c3cc43dbdf3d2ceU, 0x3dad09383dad0938U, 0x3de417c900000000U, 0x3e1181efbe3cc43dU,
  0xbb7bb0513dfbb051U, 0xbe0d932e3e1181efU, 0xbe38d57bbd8d932eU, 0xbdbcc43d3e0d932eU,
  0x3c9d4e333b7bb051U, 0xbcfbb0513d85b5abU, 0xbd3cc43d3dad0938U, 0xbdad09383cbcc43dU,
  0x3d85b5abbdad0938U, 0xbd2d09383d1d4e33U, 0xbcbcc43dbc3cc43dU, 0xbe213cf400000000U,
  0xbd5c3a47bdb4e6baU, 0x3e252bb53dd45cc4U, 0xbe4c7f423d7bb051U, 0xbd85b5ab3b7bb051U,
  0x3c3cc43d3e584b86U, 0x3bfbb0513d5c3a47U, 0xbe195f71be291a76U, 0xbe6fe40d3d1d4e33U,
  0xbe38d57b3e34e6baU, 0x3e213cf4bddc3a47U, 0xbdad09383dfbb051U, 0x3d9d4e33bd6bf54cU,
  0xbdd45cc4bcfbb051U, 0x3b7bb0513e9181efU, 0x3e93794f3e01c6eaU, 0xbc7bb0513cdc3a47U,
  0xbdbcc43d3d8d932eU, 0x3debf54cbe291a76U, 0xbe1570b03d1d4e33U, 0xbe38d57bbd8d932eU,
  0x3dfbb051U, 0x3d8d932e3db4e6baU, 0x3d85b5ab3e38d57bU, 0xbd7bb051bd8d932eU,
  0xbd0d932e3cfbb051U, 0x3e8f8a8ebde417c9U, 0x3dcc7f423da52bb5U, 0x3d3cc43dbd7bb051U,
  0xbcdc3a47bbfbb051U, 0xbdcc7f42be34e6baU, 0xbde417c93dcc7f42U, 0x3c7bb051be3cc43dU,
  0x3de417c93d1d4e33U, 0xbd5c3a473dcc7f42U, 0x3d2d0938bcfbb051U, 0xbcbcc43d00000000U,
  0xbcfbb0513d1d4e33U, 0xbc9d4e33bcdc3a47U, 0x3e30f7f9bdbcc43dU, 0x3cdc3a47bdfbb051U,
  0x3e09a46c3cfbb051U, 0x3d6bf54cbd7bb051U, 0x3d9d4e33bda52bb5U, 0x3df3d2cebdad0938U,
  0x3c9d4e33bdcc7f42U, 0x3db4e6babcfbb051U, 0xbd0d932ebe01c6eaU, 0xbe213cf4bd4c7f42U,
  0x3e01c6ea3e0d932eU, 0x3e1d4e33bd2d0938U, 0x3d5c3a47be0d932eU, 0x3df3d2cebc9d4e33U,
  0xbcfbb051bcfbb051U, 0xbd3cc43d3c9d4e33U, 0xbd9570b03de417c9U, 0xbda52bb53d0d932eU,
  0xbc7bb0513d8d932eU, 0xbdad09383d2d0938U, 0x3d0d932ebc7bb051U, 0xbe30f7f93d9d4e33U,
  0xbb7bb0513df3d2ceU, 0x3d4c7f42bd4c7f42U, 0x0U, 0xbdbcc43d3d2d0938U,
  0x3d2d09383db4e6baU, 0xbbfbb0513e0d932eU, 0x3e01c6eabd0d932eU, 0xbbfbb0513dad0938U,
  0x3b7bb051bbfbb051U, 0x3d4c7f423d3cc43dU, 0x3d3cc43dbdebf54cU, 0x3c3cc43d3d6bf54cU,
  0xbe34e6ba3d8d932eU, 0xbd7bb051be2d0938U, 0x3d0d932ebdbcc43dU, 0xbddc3a47bd2d0938U,
  0x3d1d4e33bcfbb051U, 0x3cbcc43d00000000U, 0x3c7bb0513e0d932eU, 0xbd8d932ebdd45cc4U,
  0x3c3cc43dbd4c7f42U, 0x3de417c9U, 0x3cdc3a47bcdc3a47U, 0x3d7bb051bbfbb051U,
  0xbdb4e6ba3c9d4e33U, 0x3dcc7f42bcdc3a47U, 0xbe01c6eabd6bf54cU, 0x3d5c3a47bc7bb051U,
  0xbd3cc43dbbfbb051U, 0xbde417c93bfbb051U, 0xbe44a1bfbdad0938U, 0xbe44a1bfbdcc7f42U,
  0xbdd45cc43d85b5abU, 0xbd4c7f423d1d4e33U, 0xbc9d4e33bb7bb051U, 0x3e195f713d9d4e33U,
  0xbcdc3a473de417c9U, 0x3d3cc43d3d3cc43dU, 0x3dc4a1bfbe0d932eU, 0x3cbcc43dbc7bb051U,
  0xbd1d4e333d85b5abU, 0xbd85b5ab3cfbb051U, 0xbd6bf54c3db4e6baU, 0xbc7bb051bd9d4e33U,
  0x3dfbb051bdd45cc4U, 0xbc9d4e333c3cc43dU, 0x3e252bb5bdcc7f42U, 0x3dc4a1bfbde417c9U,
  0x3e0d932ebe213cf4U, 0x3e05b5abbd2d0938U, 0x3cbcc43dbd9570b0U, 0x3dfbb051bdcc7f42U,
  0xbdc4a1bfbde417c9U, 0xbdad09383bfbb051U, 0x3e584b863c3cc43dU, 0xbd6bf54c3d2d0938U,
  0x3cfbb051bc3cc43dU, 0x3dad0938bdbcc43dU, 0xbc3cc43d3c7bb051U, 0x3c3cc43dbd1d4e33U,
  0x3e38d57bbda52bb5U, 0xbdf3d2cebd4c7f42U, 0x3e01c6eabc3cc43dU, 0xbe195f713c3cc43dU,
  0xbc3cc43d3dc4a1bfU, 0xbd3cc43d3c9d4e33U, 0x3db4e6ba3c3cc43dU, 0x3e09a46cbbfbb051U,
  0x3ddc3a473e01c6eaU, 0xbc3cc43dbcdc3a47U, 0xbc3cc43dbd3cc43dU, 0xbbfbb051bd1d4e33U,
  0x3ddc3a47bd1d4e33U, 0xbcdc3a47bc3cc43dU, 0xbd5c3a473c3cc43dU, 0x3d0d932ebc7bb051U,
  0xbd2d0938bdfbb051U, 0xbd6bf54c3d85b5abU, 0xbdb4e6ba3d3cc43dU, 0xbd7bb0513d1d4e33U,
  0xbda52bb53d2d0938U, 0xbdbcc43dbd9d4e33U, 0xbde417c9bc7bb051U, 0x3cfbb051bdb4e6baU,
  0x3df3d2ce3e1d4e33U, 0xbdebf54cbdc4a1bfU, 0x3d1d4e333cdc3a47U, 0x3dad0938bd9d4e33U,
  0x3d6bf54c3d3cc43dU, 0x3d1d4e333d8d932eU, 0xbe195f713c9d4e33U, 0xbe40b2fe00000000U,
  0x3c3cc43d3bfbb051U, 0xbd0d932e3c3cc43dU, 0x3cfbb051be1d4e33U, 0x3db4e6babd0d932eU,
  0x3e44a1bf3d85b5abU, 0x3da52bb5bd8d932eU, 0x3d3cc43dbd7bb051U, 0x3c9d4e33bdd45cc4U,
  0xbd7bb051bc7bb051U, 0x3d85b5ab3d2d0938U, 0xbe213cf4bd8d932eU, 0xbd5c3a47be2d0938U,
  0x3d3cc43d3e05b5abU, 0x3d9570b0bcbcc43dU, 0xbc9d4e33bcfbb051U, 0x3debf54c3da52bb5U,
  0x3da52bb53e77c190U, 0xbcbcc43dbcfbb051U, 0x3d8d932ebcdc3a47U, 0xbe506e033d8d932eU,
  0x3d6bf54c3db4e6baU, 0xbe05b5ab3c9d4e33U, 0xbc9d4e33bdebf54cU, 0x3d85b5ab3e1570b0U,
  0x3e195f71be1181efU, 0xbe38d57bU, 0x3e05b5ab3d9570b0U, 0xbd0d932ebcbcc43dU,
  0xbda52bb53d7bb051U, 0xbd5c3a473d8d932eU, 0xbb7bb0513d0d932eU, 0x3d9570b0bd3cc43dU,
  0x3db4e6babdbcc43dU, 0xbdc4a1bf3bfbb051U, 0xbd2d09383d8d932eU, 0xbcdc3a473d6bf54cU,
  0x3bfbb051bc9d4e33U, 0xbcdc3a47bc3cc43dU, 0xbd2d0938bd0d932eU, 0x3df3d2cebdd45cc4U,
  0x3d85b5ab3c3cc43dU, 0x3df3d2cebdbcc43dU, 0x3d6bf54cbd8d932eU, 0x3e506e033e05b5abU,
  0x3b7bb051bd2d0938U, 0x3c9d4e33bcfbb051U, 0xbc3cc43d3e252bb5U, 0x3d1d4e33bb7bb051U,
  0x3e73d2ce3dad0938U, 0x3d6bf54c3db4e6baU, 0x3d2d09383e89a46cU, 0x3bfbb0513bfbb051U,
  0x3dcc7f42bd9570b0U, 0xbbfbb0513d1d4e33U, 0xbdcc7f42bcdc3a47U, 0x3dcc7f4200000000U,
  0x3d5c3a473e01c6eaU, 0xbdcc7f42bc7bb051U, 0xbb7bb0513d1d4e33U, 0xbe2d09383e252bb5U,
  0xbd1d4e333e252bb5U, 0xbcdc3a473d1d4e33U, 0x3e252bb5be09a46cU, 0xbdd45cc43e4c7f42U,
  0xbe01c6eabd9570b0U, 0xbdb4e6babe545cc4U, 0x3b7bb0513c3cc43dU, 0xbd1d4e33bd5c3a47U,
  0xbd6bf54c3d5c3a47U, 0x3d9570b0bd1d4e33U, 0xbdfbb0513e73d2ceU, 0xbc3cc43dbcbcc43dU,
  0x3de2e9f4bd6f852dU, 0x3d0aab6bbd90f907U, 0x3e6937913d307d14U, 0xbe045dcfbcfc2065U,
  0x3e2a2f773dc9b384U, 0xbbc9b384bde93791U, 0xbdb07d143c49b384U, 0xbce2e9f43e7c2065U,
  0x3e0aab6b3e20bb0dU, 0xbd62e9f43c1746a3U, 0xbc9746a33e07849dU, 0x3dc9b384bdd00120U,
  0xbe23e1dbbe33a3e2U, 0xbe468cb63c9746a3U, 0xbd307d14bd1746a3U, 0x3d845dcfbdc365e8U,
  0x3ce2e9f43e8dd239U, 0x3d62e9f43ce2e9f4U, 0x3d3d184cbd23e1dbU, 0xbe693791bdc365e8U,
  0x3bc9b384bd7c2065U, 0xbe2d5645bc1746a3U, 0xbe0137013e4365e8U, 0xbd845dcfbdd64ebcU,
  0xbdb07d143da3e1dbU, 0x3e1746a33e4365e8U, 0x3ec8201dbd3d184cU, 0xbce2e9f43dfc2065U,
  0xbdbd184cbd845dcfU, 0x3d307d14bc9746a3U, 0xbdf5d2c9bdc365e8U, 0x3e1746a3bd9746a3U,
  0xbdc9b3843c9746a3U, 0xbb49b3843bc9b384U, 0xbc1746a33cb07d14U, 0xbdc9b3843c1746a3U,
  0x3cc9b384bc1746a3U, 0x0U, 0xbc49b3843d0aab6bU, 0x3b49b3843c9746a3U,
  0x3c49b384bbc9b384U, 0xbc9746a3bc7c2065U, 0xbbc9b3843b49b384U, 0xbc9746a300000000U,
  0xbce2e9f43c1746a3U, 0xbb49b384U, 0xbc1746a33b49b384U, 0x3c49b38400000000U,
  0xbc1746a3bc7c2065U, 0x3b49b384bce2e9f4U, 0xbce2e9f43c49b384U, 0x3d3d184cbc49b384U,
  0x3d307d14bb49b384U, 0xbc9746a3bcc9b384U, 0xbb49b38400000000U, 0x3cfc2065bc7c2065U,
  0x3c7c2065bcb07d14U, 0xbd307d143c1746a3U, 0x3b49b384U, 0xbc9746a3U,
  0xbbc9b3843c1746a3U, 0xbcc9b3843d307d14U, 0xbd6f852dU, 0x3cfc2065bbc9b384U,
  0x3b49b384bb49b384U, 0xbc1746a3bd0aab6bU, 0x3bc9b3843c49b384U, 0xbb49b3843cb07d14U,
  0x3c1746a3bbc9b384U, 0xbc1746a3bc1746a3U, 0x3c1746a3bb49b384U, 0x3c1746a33c9746a3U,
  0x3c1746a3bc1746a3U, 0x3c49b384U, 0xbce2e9f43c9746a3U, 0xbb49b384U,
  0xbc49b384U, 0x3c7c2065bc9746a3U, 0xbc1746a33b49b384U, 0xbce2e9f4bb49b384U,
  0xbd1746a3bbc9b384U, 0x3bc9b384bce2e9f4U, 0xbbc9b3843c7c2065U, 0x3d8aab6bbd1746a3U,
  0x3bc9b384bcb07d14U, 0xbc9746a3bcc9b384U, 0x3b49b384bc1746a3U, 0xbc1746a300000000U,
  0x3cc9b3843c1746a3U, 0xbd1746a3bb49b384U, 0x3d1746a3U, 0xbc7c2065bd0aab6bU,
  0x3bc9b3843c9746a3U, 0xbce2e9f43bc9b384U, 0xbc9746a3bcc9b384U, 0x3cb07d1400000000U,
  0xbc1746a33c9746a3U, 0xbc49b384bc1746a3U, 0xbc49b384bb49b384U, 0xbcb07d143d0aab6bU,
  0x3c1746a3bbc9b384U, 0x3c49b3843cb07d14U, 0x3c1746a33b49b384U, 0xbc49b384U,
  0xbd0aab6b3bc9b384U, 0x3c1746a3bcb07d14U, 0x3b49b384U, 0x3d1746a3bc9746a3U,
  0xbcc9b384bd1746a3U, 0x3c7c2065U, 0x3b49b3843b49b384U, 0xbc9746a33b49b384U,
  0x3cb07d14bc49b384U, 0x3c49b38400000000U, 0xbc49b3843b49b384U, 0xbd564ebc3c49b384U,
  0x3c1746a3bc49b384U, 0xbc1746a3U, 0x3d307d143c9746a3U, 0xbd49b384bd0aab6bU,
  0xbcb07d14bc1746a3U, 0x3d0aab6bbc49b384U, 0xbb49b384bce2e9f4U, 0x3c49b38400000000U,
  0x3c1746a3bcc9b384U, 0x3d845dcf3d564ebcU, 0xbc9746a33c7c2065U, 0xbb49b384bc7c2065U,
  0x3d307d14bd8aab6bU, 0x3d49b3843e013701U, 0x3cc9b3843c7c2065U, 0xbdc9b384bc7c2065U,
  0x3ce2e9f4bce2e9f4U, 0x3d49b3843d8aab6bU, 0x3d6f852d3c9746a3U, 0xbb49b3843cc9b384U,
  0xbd564ebc3c7c2065U, 0x3b49b3843e564ebcU, 0x3c1746a3U, 0xbd90f907U,
  0xbd9746a3bc1746a3U, 0xbd23e1db3d7c2065U, 0xbda3e1db3b49b384U, 0xbcc9b3843d23e1dbU,
  0x3d23e1dbbd3d184cU, 0xbd23e1dbbd3d184cU, 0xbdaa2f77bc7c2065U, 0x3cfc20653e045dcfU,
  0x3c1746a3bc49b384U, 0xbd8aab6b3d49b384U, 0x3cfc2065bbc9b384U, 0x3de2e9f4bd3d184cU,
  0xbd9746a300000000U, 0x3cb07d143cc9b384U, 0xbdd64ebc3bc9b384U, 0xbd90f9073b49b384U,
  0x3bc9b3843d0aab6bU, 0xbcb07d14bdbd184cU, 0x3b49b384be0dd239U, 0x3cc9b3843b49b384U,
  0xbc7c20653c9746a3U, 0x3cc9b3843c7c2065U, 0xbc1746a3bc1746a3U, 0xbd6f852dbc1746a3U,
  0x3c1746a3bc7c2065U, 0x3c7c20653b49b384U, 0xbcb07d1400000000U, 0xbb49b3843b49b384U,
  0x3b49b384bb49b384U, 0xbb49b38400000000U, 0x3d1746a33ce2e9f4U, 0xbc7c206500000000U,
  0x3c7c20653d6f852dU, 0xbbc9b384U, 0xbb49b384bc7c2065U, 0x3c49b3843b49b384U,
  0x3c7c2065bb49b384U, 0xbc9746a3bbc9b384U, 0xbc7c2065bb49b384U, 0xbbc9b3843d0aab6bU,
  0x3cfc20653b49b384U, 0x3c1746a33b49b384U, 0xbc1746a3bc1746a3U, 0x3bc9b3843c9746a3U,
  0x3cc9b384bc49b384U, 0xbc1746a3bbc9b384U, 0xbd307d14bc7c2065U, 0xbc49b3843c1746a3U,
  0x3cc9b384bc1746a3U, 0x3b49b384U, 0x3bc9b38400000000U, 0x3bc9b384bbc9b384U,
  0xbd8aab6b3b49b384U, 0x3c1746a33c49b384U, 0x3c9746a300000000U, 0x3d7c20653c1746a3U,
  0xbc49b384bcfc2065U, 0xbc49b3843c9746a3U, 0x3dd64ebc3bc9b384U, 0xbcfc20653b49b384U,
  0xbcc9b384bc1746a3U, 0x3b49b384bb49b384U, 0x3c9746a33cc9b384U, 0xbc9746a33ce2e9f4U,
  0x3d307d143d564ebcU, 0xbc1746a33bc9b384U, 0x3b49b384bc1746a3U, 0x3c49b38400000000U,
  0x3c9746a3bce2e9f4U, 0xbce2e9f4bcfc2065U, 0x3d0aab6b3c49b384U, 0xbd9d943fbcc9b384U,
  0x3d0aab6bbbc9b384U, 0xbbc9b3843b49b384U, 0x3d1746a33c49b384U, 0x3d3d184cbc7c2065U,
  0x3d3d184c3bc9b384U, 0x3c1746a3bc7c2065U, 0xbce2e9f4bbc9b384U, 0xbb49b384bc7c2065U,
  0xbbc9b38400000000U, 0x3d90f9073de93791U, 0x3ce2e9f4bbc9b384U, 0xbc49b3843ce2e9f4U,
  0xbe62e9f4bdaa2f77U, 0xbe59758aU, 0xbcfc2065bd49b384U, 0x3e6f852dbdb07d14U,
  0xbd7c20653d9746a3U, 0xbd0aab6bbd3d184cU, 0x3db07d1400000000U, 0xbce2e9f43c1746a3U,
  0x3def852dbc49b384U, 0x3c7c2065bdb6cab0U, 0x3c7c2065bd1746a3U, 0x3c49b384bd49b384U,
  0xbce2e9f4bce2e9f4U, 0x3d90f907bc49b384U, 0xbcfc2065bd845dcfU, 0xbd1746a3bcfc2065U,
  0x3c9746a33d1746a3U, 0x3d7c206500000000U, 0x3cb07d143d1746a3U, 0x3d9d943fbc1746a3U,
  0xbd62e9f4bc7c2065U, 0xbd307d14bc7c2065U, 0x3cb07d14bcc9b384U, 0xbd845dcfbe1746a3U,
  0xbd3d184cbd9746a3U, 0xbd49b3843bc9b384U, 0xbdbd184cbb49b384U, 0xbc1746a3bd3d184cU,
  0xbd90f9073d307d14U, 0xbd62e9f43db6cab0U, 0xbd3d184cbdb6cab0U, 0xbb49b384bd6f852dU,
  0x3db07d14bc49b384U, 0x3bc9b384bc7c2065U, 0xbb49b3843bc9b384U, 0x3cc9b3843cfc2065U,
  0xbcc9b384bb49b384U, 0xbb49b384bd0aab6bU, 0x3c7c2065bc9746a3U, 0x3c9746a3bc7c2065U,
  0x3cfc20653ce2e9f4U, 0x3c7c2065bd1746a3U, 0xbc9746a33cc9b384U, 0x3bc9b384bc9746a3U,
  0x3d49b384bd49b384U, 0x3c9746a3bbc9b384U, 0xbc1746a33c1746a3U, 0xbcc9b3843b49b384U,
  0x3cc9b3843b49b384U, 0x3d0aab6b3c1746a3U, 0xbc9746a3bb49b384U, 0x3d1746a3bcb07d14U,
  0xbc49b384bcb07d14U, 0xbc7c2065U, 0x3b49b3843cc9b384U, 0xbd0aab6bbc49b384U,
  0x3c49b3843b49b384U, 0xbb49b3843c7c2065U, 0xbc9746a33c9746a3U, 0x3cb07d14bc7c2065U,
  0x3bc9b384U, 0x3ce2e9f4bd0aab6bU, 0xbcc9b3843b49b384U, 0xbc1746a3U,
  0x3c7c20653bc9b384U, 0xbd0aab6b3b49b384U, 0xbb49b384U, 0x3c9746a33b49b384U,
  0xbc7c20653c7c2065U, 0xbb49b38400000000U, 0x3bc9b38400000000U, 0x3c49b384bc49b384U,
  0xbc9746a3bbc9b384U, 0x3c7c20653b49b384U, 0xbc1746a33c49b384U, 0x3cc9b384bcc9b384U,
  0xbc1746a3bcb07d14U, 0xbc9746a33c1746a3U, 0x3c1746a3bb49b384U, 0xbc7c206500000000U,
  0xbb49b3843b49b384U, 0xbc9746a33c49b384U, 0xbce2e9f43bc9b384U, 0xbc7c2065bb49b384U,
  0x3bc9b384bbc9b384U, 0x3b49b3843bc9b384U, 0x3cc9b3843c49b384U, 0xbbc9b3843bc9b384U,
  0xbbc9b384bc1746a3U, 0x3c1746a33c1746a3U, 0x3c49b3843b49b384U, 0x3c49b3843bc9b384U,
  0x3c1746a3bc49b384U, 0xbbc9b384bb49b384U, 0xbcb07d143d1746a3U, 0xbb49b384bb49b384U,
  0xbdb07d143d8aab6bU, 0x3cc9b384be6f852dU, 0x3df5d2c9bcb07d14U, 0xbe307d143d6f852dU,
  0x3dd64ebc3daa2f77U, 0xbd9746a3bd8aab6bU, 0xbdc9b384bcb07d14U, 0x3d6f852dbdd64ebcU,
  0xbc1746a33cb07d14U, 0xbd3d184cbc1746a3U, 0x3d23e1db3d9746a3U, 0x3cfc20653ce2e9f4U,
  0x3dd64ebcbd9d943fU, 0xbdbd184c3bc9b384U, 0xbd9d943f3d1746a3U, 0xbc49b3843c9746a3U,
  0x3c1746a3bcc9b384U, 0x3d9d943fbdd64ebcU, 0x3ddc9c583d8aab6bU, 0xbe39f17e3d564ebcU,
  0x3e0dd239bc7c2065U, 0x3def852d3cb07d14U, 0xbc9746a33bc9b384U, 0x3e9746a3be307d14U,
  0x3c1746a3bd564ebcU, 0x3def852dbcb07d14U, 0x3d23e1dbbce2e9f4U, 0x3c7c2065bbc9b384U,
  0xbe5fc326U, 0x3c49b3843e1d943fU, 0x3d7c2065bcc9b384U, 0xbc7c20653cb07d14U,
  0x3bc9b384bcb07d14U, 0xbcfc2065bcc9b384U, 0xbc1746a33cb07d14U, 0xbdd64ebc3cc9b384U,
  0x3bc9b3843c7c2065U, 0x3b49b384bbc9b384U, 0xbd49b384bce2e9f4U, 0x3c9746a33cb07d14U,
  0x3ce2e9f43c49b384U, 0x3b49b384bd1746a3U, 0xbcfc2065bc9746a3U, 0xbcfc20653c9746a3U,
  0x3d0aab6bbcc9b384U, 0x3c49b3843c7c2065U, 0xbbc9b3843c49b384U, 0xbcb07d14bd0aab6bU,
  0x3d0aab6b3c49b384U, 0x3c1746a3bb49b384U, 0xbb49b384bc49b384U, 0x3e564ebcbc1746a3U,
  0xbc49b384U, 0xbcfc2065bd49b384U, 0xbcb07d1400000000U, 0xbce2e9f4bb49b384U,
  0xbc49b3843b49b384U, 0xbdc365e83c49b384U, 0x3cc9b3843d0aab6bU, 0xbbc9b38400000000U,
  0x3d23e1dbbbc9b384U, 0xbd307d14bd564ebcU, 0xbb49b384be23e1dbU, 0x3c1746a3bd307d14U,
  0x3cfc20653b49b384U, 0xbc49b384bc1746a3U, 0xbc9746a3bbc9b384U, 0x3c7c2065bcc9b384U,
  0x3b49b3843ce2e9f4U, 0x3bc9b384bc9746a3U, 0xbd90f9073b49b384U, 0xbc49b3843c1746a3U,
  0x3cfc20653b49b384U, 0x3d9d943fU, 0x3b49b384bc9746a3U, 0x3cfc2065bce2e9f4U,
  0xbd845dcfbd0aab6bU, 0xbbc9b3843c7c2065U, 0xbc1746a33c7c2065U, 0x3cc9b384U,
  0xbce2e9f43c9746a3U, 0xbbc9b3843b49b384U, 0xbc1746a300000000U, 0xbc7c20653bc9b384U,
  0xbcc9b3843b49b384U, 0xbc1746a33b49b384U, 0xbb49b3843bc9b384U, 0xbd0aab6b3cc9b384U,
  0xbb49b384U, 0x3cfc20653d23e1dbU, 0xbc49b384bc1746a3U, 0x3c9746a3bb49b384U,
  0xbc49b384bce2e9f4U, 0x3bc9b384bc7c2065U, 0xbc7c20653d9746a3U, 0xbc7c2065bc49b384U,
  0xbe95b33cbdc365e8U, 0xbc7c20653e013701U, 0x3e403f1a3dfc2065U, 0x3d62e9f43d90f907U,
  0x3e6610c33b49b384U, 0x3db07d143b49b384U, 0xbd49b3843e2a2f77U, 0x3e75d2c93d8aab6bU,
  0x3df5d2c9be564ebcU, 0xbc9746a3U, 0x3e59758a3e013701U, 0xbc49b3843cfc2065U,
  0x3d90f9073da3e1dbU, 0xbe2a2f773c1746a3U, 0xbc1746a3bdb07d14U, 0x3d9d943fbe307d14U,
  0x3d23e1dbbde93791U, 0xbdf5d2c9bddc9c58U, 0xbe36cab03db07d14U, 0x3e98da0abd845dcfU,
  0x3b49b3843d0aab6bU, 0x3e141fd53d845dcfU, 0x3c49b384bde93791U, 0xbde937913e564ebcU,
  0x3d845dcfbdfc2065U, 0xbe1746a3bde2e9f4U, 0x3d845dcfbd564ebcU, 0xbc49b384bdd00120U,
  0x3dc9b3843ddc9c58U, 0xbd307d14bdfc2065U, 0xbd7c20653dbd184cU, 0x3def852d3c9746a3U,
  0x3e1a6d71bb49b384U, 0x3d23e1dbU, 0x3bc9b3843b49b384U, 0xbe307d14bc9746a3U,
  0x3cc9b384U, 0x3c9746a3U, 0xbdd64ebc3c7c2065U, 0x3cb07d143d845dcfU,
  0x3ce2e9f4bbc9b384U, 0xbb49b3843e20bb0dU, 0x3d7c20653d23e1dbU, 0xbc7c206500000000U,
  0xbdfc20653d0aab6bU, 0x3b49b384bc7c2065U, 0x3bc9b384U, 0xbc49b384bbc9b384U,
  0xbc9746a3bc7c2065U, 0xbcc9b3843bc9b384U, 0x3ce2e9f43ce2e9f4U, 0x3c49b384bd1746a3U,
  0x3d6f852d3ce2e9f4U, 0x3d564ebcbd9d943fU, 0xbbc9b384bc9746a3U, 0xbd1746a33ce2e9f4U,
  0x3ce2e9f4bd307d14U, 0xbcfc2065U, 0xbdd64ebcbce2e9f4U, 0x3c9746a3bc1746a3U,
  0x3c1746a33d9746a3U, 0x3cb07d143e045dcfU, 0xbcc9b384bd49b384U, 0xbc7c20653b49b384U,
  0x3d90f9073c1746a3U, 0x3d0aab6b3d3d184cU, 0x3b49b384bc49b384U, 0xbb49b3843c9746a3U,
  0x3c7c20653cc9b384U, 0x3bc9b384U, 0xbd8aab6b3d0aab6bU, 0xbd23e1db3cb07d14U,
  0xbdc9b384bd1746a3U, 0xbce2e9f4bde2e9f4U, 0x3d23e1db3c1746a3U, 0xbc49b384bc1746a3U,
  0xbde2e9f43cb07d14U, 0x3b49b384bd62e9f4U, 0xbcfc2065bc1746a3U, 0x3c1746a3bc7c2065U,
  0xbcc9b384bbc9b384U, 0x3c1746a3bd307d14U, 0xbc49b3843d1746a3U, 0xbe59758abbc9b384U,
  0xbcfc20653d307d14U, 0x3ce2e9f43d3d184cU, 0x3c1746a33d23e1dbU, 0xbcb07d143cb07d14U,
  0x3d6f852dbce2e9f4U, 0x3db6cab0bd49b384U, 0xbd0aab6bbcb07d14U, 0xbb49b38400000000U,
  0xbbc9b3843d3d184cU, 0xbdd64ebcbd307d14U, 0x3cc9b3843e2708a9U, 0x3cb07d1400000000U,
  0x3e5c9c58bce2e9f4U, 0x3e045dcfbe403f1aU, 0x3de937913ddc9c58U, 0xbdd001203c7c2065U,
  0x3d7c2065bd0aab6bU, 0xbbc9b384bd7c2065U, 0xbe4cda523d564ebcU, 0x3da3e1db3d845dcfU,
  0x3e0dd2393daa2f77U, 0xbce2e9f43db6cab0U, 0xbe23e1db3c9746a3U, 0x3cb07d143d3d184cU,
  0x3d62e9f43b49b384U, 0xbcb07d14bdef852dU, 0xbc9746a3bd49b384U, 0xbcc9b384bda3e1dbU,
  0x3def852d3d8aab6bU, 0x3e0dd239be141fd5U, 0xbda3e1db3d6f852dU, 0xbc49b384be07849dU,
  0xbe82ca68bdc9b384U, 0xbdb6cab03e141fd5U, 0x3d6f852d3cc9b384U, 0x3e0137013d49b384U,
  0xbc1746a33d564ebcU, 0x3e403f1a00000000U, 0x3dbd184c3dbd184cU, 0x3dd001203d3d184cU,
  0x3d307d14bd307d14U, 0xbc49b384bb49b384U, 0xbd9746a33e1746a3U, 0x3daa2f77bd62e9f4U,
  0xbddc9c58bdd00120U, 0xbe6f852d3d3d184cU, 0xbd9746a3bdef852dU, 0xbdfc20653d49b384U,
  0xbe10f907bdb07d14U, 0x3b49b384bc7c2065U, 0x3e307d14bd6f852dU, 0xbe2d5645be10f907U,
