
/**
  ******************************************************************************
  * @file    network_data.c
  * @author  AST Embedded Analytics Research Platform
  * @date    Thu Mar 17 15:48:21 2022
  * @brief   AI Tool Automatic Code Generator for Embedded NN computing
  ******************************************************************************
  * @attention
  *
  * Copyright (c) 2021 STMicroelectronics.
  * All rights reserved.
  *
  * This software is licensed under terms that can be found in the LICENSE file
  * in the root directory of this software component.
  * If no LICENSE file comes with this software, it is provided AS-IS.
  ******************************************************************************
  */
#include "network_data.h"
#include "ai_platform_interface.h"

AI_API_DECLARE_BEGIN

AI_ALIGNED(32)
const ai_u64 s_network_network_weights_array_u64[ 5098 ] = {
  0x0U, 0x0U, 0x0U, 0x0U,
  0x0U, 0x0U, 0x0U, 0x0U,
  0x0U, 0x0U, 0x0U, 0x0U,
  0x0U, 0x0U, 0x0U, 0x0U,
  0x0U, 0x0U, 0x0U, 0x0U,
  0x0U, 0x0U, 0x0U, 0x0U,
  0x0U, 0x0U, 0x0U, 0x0U,
  0x0U, 0x0U, 0x0U, 0x0U,
  0x0U, 0x0U, 0x0U, 0x0U,
  0x0U, 0x0U, 0x0U, 0x0U,
  0x0U, 0x0U, 0x0U, 0x0U,
  0x0U, 0x0U, 0x0U, 0x0U,
  0x0U, 0x0U, 0x0U, 0x0U,
  0x0U, 0x0U, 0x0U, 0x0U,
  0x0U, 0x0U, 0x0U, 0x0U,
  0x0U, 0x0U, 0x0U, 0x0U,
  0x0U, 0x0U, 0x0U, 0x0U,
  0x0U, 0x0U, 0x0U, 0x0U,
  0x0U, 0x0U, 0x0U, 0x0U,
  0x0U, 0x0U, 0x0U, 0x0U,
  0x0U, 0x0U, 0x0U, 0x0U,
  0x0U, 0x0U, 0x0U, 0x0U,
  0x0U, 0x0U, 0x0U, 0x0U,
  0x0U, 0x0U, 0x0U, 0x0U,
  0x0U, 0x0U, 0x0U, 0x0U,
  0x0U, 0x0U, 0x0U, 0x0U,
  0x0U, 0x0U, 0x0U, 0x0U,
  0x0U, 0x0U, 0x0U, 0x0U,
  0x0U, 0x0U, 0x0U, 0x0U,
  0x0U, 0x0U, 0x0U, 0x0U,
  0x0U, 0x0U, 0x0U, 0x0U,
  0x0U, 0x0U, 0x0U, 0x0U,
  0x0U, 0x0U, 0x0U, 0x0U,
  0x0U, 0x0U, 0x0U, 0x0U,
  0x0U, 0x0U, 0x0U, 0x0U,
  0x0U, 0x0U, 0x0U, 0x0U,
  0x0U, 0x0U, 0x0U, 0x0U,
  0x0U, 0x0U, 0x0U, 0x0U,
  0x0U, 0x0U, 0x0U, 0x0U,
  0x0U, 0x0U, 0x0U, 0x0U,
  0x0U, 0x0U, 0x0U, 0x0U,
  0x0U, 0x0U, 0x0U, 0x0U,
  0x0U, 0x0U, 0x0U, 0x0U,
  0x0U, 0x0U, 0x0U, 0x0U,
  0x0U, 0x0U, 0x0U, 0x0U,
  0x0U, 0x0U, 0x0U, 0x0U,
  0x0U, 0x0U, 0x0U, 0x0U,
  0x0U, 0x0U, 0x0U, 0x0U,
  0x3c2dd4473c4accfeU, 0x3c4accfe3c67c5b4U, 0x3c4accfe3c90db90U, 0x3c90db903c2dd447U,
  0x3c4accfe3cadd447U, 0x3c10db9000000000U, 0x3c90db903c10db90U, 0x3c10db903c67c5b4U,
  0x3cadd447U, 0x0U, 0x0U, 0x0U,
  0x0U, 0xbdd9495900000000U, 0xbae7c5b4bdbfefb9U, 0x0U,
  0x0U, 0xbae7c5b4bae7c5b4U, 0x0U, 0xbbadd447bbadd447U,
  0xbc10db90bb67c5b4U, 0xbbadd447bbadd447U, 0xbb67c5b4bae7c5b4U, 0xbae7c5b4bae7c5b4U,
  0xbae7c5b4bae7c5b4U, 0xbae7c5b4bae7c5b4U, 0xbae7c5b4bae7c5b4U, 0x0U,
  0x0U, 0x0U, 0x0U, 0x0U,
  0x3ae7c5b43b67c5b4U, 0x3b67c5b43ae7c5b4U, 0x3ae7c5b43ae7c5b4U, 0x3ae7c5b43b67c5b4U,
  0x3badd4473badd447U, 0x3b67c5b43b67c5b4U, 0x3badd4473be7c5b4U, 0x3be7c5b43badd447U,
  0x3badd4473c10db90U, 0x3be7c5b43c4accfeU, 0x3be7c5b43c67c5b4U, 0x3c10db903c4accfeU,
  0x3c4accfe3c825f35U, 0x3ae7c5b43c4accfeU, 0x3badd4473c2dd447U, 0x3c825f353c825f35U,
  0x3ccaccfe3c9f57ecU, 0x3be7c5b43be7c5b4U, 0x3c90db903be7c5b4U, 0x3c10db903badd447U,
  0x3badd4473c67c5b4U, 0x3c4accfe3c67c5b4U, 0x3c90db903c67c5b4U, 0x3c9f57ec3badd447U,
  0x3cbc50a23c67c5b4U, 0x3c67c5b43c67c5b4U, 0x3c2dd4473badd447U, 0x3c4accfe3c67c5b4U,
  0x3c4accfe3c825f35U, 0x3cf6420f3c2dd447U, 0x3c10db903c825f35U, 0x3c4accfe3c90db90U,
  0x0U, 0x0U, 0x0U, 0x0U,
  0x0U, 0x0U, 0x0U, 0x0U,
  0x0U, 0x0U, 0x0U, 0x0U,
  0x0U, 0x0U, 0x0U, 0x0U,
  0x0U, 0x0U, 0x0U, 0x0U,
  0x0U, 0x0U, 0x0U, 0x0U,
  0x0U, 0x0U, 0x0U, 0x0U,
  0x0U, 0x0U, 0x0U, 0x0U,
  0x0U, 0x0U, 0x0U, 0x0U,
  0x0U, 0x0U, 0x0U, 0x0U,
  0x0U, 0x0U, 0x0U, 0x0U,
  0x0U, 0x0U, 0x0U, 0x0U,
  0x0U, 0x0U, 0x0U, 0x0U,
  0x0U, 0x0U, 0x0U, 0x0U,
  0x0U, 0x0U, 0x0U, 0x0U,
  0x0U, 0x0U, 0x0U, 0x0U,
  0x0U, 0x0U, 0x0U, 0x0U,
  0x0U, 0x0U, 0x0U, 0x0U,
  0x0U, 0x0U, 0x0U, 0x0U,
  0x0U, 0x0U, 0x0U, 0x0U,
  0x0U, 0x0U, 0x0U, 0x0U,
  0x0U, 0x0U, 0x0U, 0x0U,
  0x0U, 0x0U, 0x0U, 0x0U,
  0x0U, 0x0U, 0x0U, 0x0U,
  0x0U, 0x0U, 0x0U, 0x0U,
  0x0U, 0x0U, 0x0U, 0x0U,
  0x0U, 0x0U, 0x0U, 0x0U,
  0x0U, 0x0U, 0x0U, 0x0U,
  0x0U, 0x0U, 0x0U, 0x0U,
  0x0U, 0x0U, 0x0U, 0x0U,
  0x0U, 0x0U, 0x0U, 0x0U,
  0x0U, 0x0U, 0x0U, 0x0U,
  0x0U, 0x0U, 0x0U, 0x0U,
  0x0U, 0x0U, 0x0U, 0x0U,
  0x0U, 0x0U, 0x0U, 0x0U,
  0x0U, 0x0U, 0x0U, 0x0U,
  0x0U, 0x0U, 0x0U, 0x0U,
  0x0U, 0x0U, 0x0U, 0x0U,
  0x0U, 0x0U, 0x0U, 0x0U,
  0x0U, 0x0U, 0x0U, 0x0U,
  0x0U, 0x0U, 0x0U, 0x0U,
  0x0U, 0x0U, 0x0U, 0x0U,
  0x0U, 0x0U, 0x0U, 0x0U,
  0x0U, 0x0U, 0x0U, 0x0U,
  0x0U, 0x0U, 0x0U, 0x0U,
  0x0U, 0x0U, 0x0U, 0x0U,
  0x0U, 0x0U, 0x0U, 0x0U,
  0x0U, 0x0U, 0x0U, 0x0U,
  0x0U, 0x0U, 0x0U, 0x0U,
  0x0U, 0x0U, 0x0U, 0x0U,
  0x0U, 0x0U, 0x0U, 0x0U,
  0x0U, 0x3dd5aa423ae7c5b4U, 0x3d1f57ec3e64269dU, 0x3ae7c5b4U,
  0x3ae7c5b400000000U, 0x3b67c5b43b67c5b4U, 0x0U, 0x3ae7c5b4U,
  0x0U, 0x0U, 0x0U, 0x0U,
  0x0U, 0x0U, 0x0U, 0x0U,
  0x0U, 0x0U, 0x0U, 0x0U,
  0x0U, 0x0U, 0x0U, 0x0U,
  0x0U, 0x0U, 0x0U, 0x0U,
  0x0U, 0x0U, 0x0U, 0x0U,
  0x0U, 0x0U, 0x0U, 0x0U,
  0x0U, 0x0U, 0x0U, 0x0U,
  0x0U, 0x0U, 0x0U, 0x0U,
  0x0U, 0x0U, 0x0U, 0x0U,
  0x0U, 0x0U, 0x0U, 0x0U,
  0x0U, 0x0U, 0x0U, 0x0U,
  0x0U, 0x0U, 0x0U, 0x0U,
  0x0U, 0x0U, 0x0U, 0x0U,
  0x0U, 0x0U, 0x0U, 0x0U,
  0x0U, 0x0U, 0x0U, 0x0U,
  0x0U, 0x0U, 0x0U, 0x0U,
  0x0U, 0x0U, 0x0U, 0x0U,
  0x0U, 0x0U, 0x0U, 0x0U,
  0x0U, 0x0U, 0x0U, 0x0U,
  0x0U, 0x0U, 0x0U, 0x0U,
  0x0U, 0x0U, 0x0U, 0x0U,
  0x0U, 0x0U, 0x0U, 0x0U,
  0x0U, 0x0U, 0x0U, 0x0U,
  0x0U, 0x0U, 0x0U, 0x0U,
  0x0U, 0x0U, 0x0U, 0x0U,
  0x0U, 0x0U, 0x0U, 0x0U,
  0x0U, 0x0U, 0x0U, 0x0U,
  0x0U, 0x0U, 0x0U, 0x0U,
  0x0U, 0x0U, 0x0U, 0x0U,
  0x0U, 0xbe1f57ec00000000U, 0xbcadd447bae7c5b4U, 0x0U,
  0x0U, 0x0U, 0x0U, 0x0U,
  0x3ae7c5b43ae7c5b4U, 0x3ccaccfe3c825f35U, 0x3be7c5b43c4accfeU, 0x3c67c5b43d1f57ecU,
  0x3c2dd4473ae7c5b4U, 0x3c825f353b67c5b4U, 0x3c4accfe3c67c5b4U, 0x3c2dd4473ae7c5b4U,
  0x3c67c5b43b67c5b4U, 0x3badd4473cadd447U, 0x3c825f353b67c5b4U, 0x3c2dd4473b67c5b4U,
  0x3be7c5b43c90db90U, 0x3cf6420f3c90db90U, 0x3b67c5b43badd447U, 0x3d10db903badd447U,
  0x3c90db903ce7c5b4U, 0x3c2dd4473badd447U, 0x3d1f57ec3d3c50a2U, 0x3d3c50a23c10db90U,
  0x3d025f353d099d63U, 0x3ae7c5b43badd447U, 0x3ae7c5b43ae7c5b4U, 0x3ae7c5b43ae7c5b4U,
  0x0U, 0x0U, 0x0U, 0x0U,
  0x0U, 0x0U, 0x0U, 0x0U,
  0x0U, 0x0U, 0x0U, 0x0U,
  0x0U, 0x0U, 0x0U, 0x0U,
  0x0U, 0x0U, 0x0U, 0x0U,
  0x0U, 0x0U, 0x0U, 0x0U,
  0x0U, 0x0U, 0x0U, 0x0U,
  0x0U, 0x0U, 0x0U, 0x0U,
  0x0U, 0x0U, 0x0U, 0x0U,
  0x0U, 0x0U, 0x0U, 0x0U,
  0x0U, 0x0U, 0x0U, 0x0U,
  0x0U, 0x0U, 0x0U, 0x0U,
  0x0U, 0x0U, 0x0U, 0x0U,
  0x0U, 0x0U, 0x0U, 0x0U,
  0x0U, 0x0U, 0x0U, 0x0U,
  0x0U, 0x0U, 0x0U, 0x0U,
  0x0U, 0x0U, 0x0U, 0x0U,
  0x0U, 0x0U, 0x0U, 0x0U,
  0x0U, 0x0U, 0x0U, 0x0U,
  0x0U, 0x0U, 0x0U, 0x0U,
  0x0U, 0x0U, 0x0U, 0x0U,
  0x0U, 0x0U, 0x0U, 0x0U,
  0x0U, 0x0U, 0x0U, 0x0U,
  0x0U, 0x0U, 0x0U, 0x0U,
  0x0U, 0x0U, 0x0U, 0x0U,
  0x0U, 0x0U, 0x0U, 0x0U,
  0x0U, 0x0U, 0x0U, 0x0U,
  0x0U, 0x0U, 0x0U, 0x0U,
  0x0U, 0x0U, 0x0U, 0x0U,
  0x0U, 0x0U, 0x0U, 0x0U,
  0x0U, 0x0U, 0x0U, 0x0U,
  0x0U, 0x0U, 0x0U, 0x0U,
  0x0U, 0x0U, 0x0U, 0x0U,
  0x0U, 0x0U, 0x0U, 0x0U,
  0x0U, 0x0U, 0x0U, 0x0U,
  0x0U, 0x0U, 0x0U, 0x0U,
  0x0U, 0x0U, 0x0U, 0x0U,
  0xbbe7c5b400000000U, 0xbae7c5b4bc2dd447U, 0xbc4accfebbadd447U, 0xbae7c5b400000000U,
  0xbae7c5b400000000U, 0xbcadd447U, 0xbae7c5b400000000U, 0xbc2dd44700000000U,
  0xbae7c5b4U, 0x3e3342e900000000U, 0x3d1f57ec3e025f35U, 0x3e3512753ae7c5b4U,
  0x3e24c68eU, 0xbe22f70300000000U, 0xbd9819bebdf6420fU, 0x0U,
  0x0U, 0x0U, 0x0U, 0x0U,
  0x0U, 0x0U, 0x0U, 0x0U,
  0x0U, 0x0U, 0x0U, 0x0U,
  0x0U, 0x0U, 0x0U, 0x0U,
  0x0U, 0x0U, 0x0U, 0x0U,
  0x0U, 0x0U, 0x3ae7c5b400000000U, 0x0U,
  0x0U, 0x0U, 0x3ae7c5b43ae7c5b4U, 0x3ae7c5b43ae7c5b4U,
  0x3ae7c5b43ae7c5b4U, 0x0U, 0x0U, 0x0U,
  0xbbadd447U, 0xbbadd447bae7c5b4U, 0xbae7c5b400000000U, 0xbae7c5b4bae7c5b4U,
  0xbc4accfebc67c5b4U, 0xbc67c5b4bbadd447U, 0x0U, 0xbae7c5b4bbe7c5b4U,
  0xbc10db9000000000U, 0xbc10db90U, 0xbbe7c5b4U, 0xbae7c5b4U,
  0xbae7c5b400000000U, 0xbbadd447U, 0xbae7c5b4U, 0x0U,
  0x0U, 0x0U, 0x0U, 0x0U,
  0x0U, 0x0U, 0x0U, 0x0U,
  0x0U, 0x0U, 0x0U, 0x0U,
  0x0U, 0x0U, 0x0U, 0x0U,
  0x0U, 0x0U, 0x0U, 0x0U,
  0x0U, 0x0U, 0x0U, 0x0U,
  0x0U, 0x0U, 0x0U, 0x0U,
  0x0U, 0x0U, 0x0U, 0x0U,
  0x0U, 0x0U, 0x0U, 0x0U,
  0x0U, 0x0U, 0x0U, 0x0U,
  0x0U, 0x0U, 0x0U, 0x0U,
  0x0U, 0x0U, 0x0U, 0x0U,
  0x0U, 0x0U, 0x0U, 0x0U,
  0x0U, 0x0U, 0x0U, 0x0U,
  0x0U, 0x0U, 0x0U, 0x0U,
  0x0U, 0x0U, 0x0U, 0x0U,
  0x0U, 0x0U, 0x0U, 0x0U,
  0x0U, 0x0U, 0x0U, 0x0U,
  0x0U, 0x0U, 0x0U, 0x0U,
  0x0U, 0x0U, 0x0U, 0x0U,
  0x0U, 0x0U, 0x0U, 0x0U,
  0x0U, 0x0U, 0x0U, 0x0U,
  0x0U, 0x0U, 0x0U, 0x0U,
  0x0U, 0x0U, 0x0U, 0x0U,
  0x0U, 0x0U, 0x0U, 0x0U,
  0x0U, 0x0U, 0x0U, 0x0U,
  0x0U, 0x0U, 0x0U, 0x0U,
  0x0U, 0x0U, 0x0U, 0x0U,
  0x0U, 0x0U, 0x0U, 0x0U,
  0x0U, 0x0U, 0x0U, 0x0U,
  0x0U, 0x0U, 0x0U, 0x0U,
  0x0U, 0x0U, 0x0U, 0x0U,
  0x0U, 0x0U, 0x0U, 0x0U,
  0x0U, 0x0U, 0x0U, 0x0U,
  0x0U, 0x0U, 0x0U, 0x0U,
  0x0U, 0x0U, 0x0U, 0x0U,
  0x0U, 0x0U, 0x0U, 0x0U,
  0x0U, 0x0U, 0x0U, 0x0U,
  0x0U, 0x0U, 0x0U, 0x0U,
  0x0U, 0x0U, 0x0U, 0x0U,
  0x0U, 0x0U, 0x0U, 0x0U,
  0x0U, 0x0U, 0x0U, 0x0U,
  0x0U, 0x0U, 0x0U, 0x0U,
  0x0U, 0x0U, 0x0U, 0x0U,
  0x0U, 0x0U, 0x0U, 0x0U,
  0x0U, 0x0U, 0x0U, 0x0U,
  0x0U, 0x0U, 0x0U, 0x0U,
  0x0U, 0x0U, 0x0U, 0x0U,
  0x0U, 0x0U, 0x0U, 0x0U,
  0x0U, 0x0U, 0x0U, 0x0U,
  0x0U, 0x0U, 0x0U, 0x0U,
  0x0U, 0x0U, 0x0U, 0x0U,
  0x0U, 0x0U, 0x0U, 0x0U,
  0x0U, 0x0U, 0x0U, 0x0U,
  0x0U, 0x0U, 0x0U, 0x0U,
  0x0U, 0x0U, 0x0U, 0x0U,
  0x0U, 0x0U, 0x0U, 0x0U,
  0x0U, 0x0U, 0x0U, 0x0U,
  0x0U, 0x0U, 0x0U, 0x0U,
  0x0U, 0x0U, 0x0U, 0x0U,
  0x0U, 0x0U, 0x0U, 0x0U,
  0x0U, 0x0U, 0x0U, 0x0U,
  0x0U, 0x0U, 0x0U, 0x0U,
  0x0U, 0x0U, 0x0U, 0x0U,
  0x0U, 0x0U, 0x0U, 0x0U,
  0x0U, 0x0U, 0x0U, 0x0U,
  0x0U, 0x0U, 0x0U, 0x0U,
  0x0U, 0xbde7c5b4bae7c5b4U, 0xbe07cdd7bda2f703U, 0xbd594959U,
  0xbae7c5b400000000U, 0xbae7c5b4bae7c5b4U, 0xbae7c5b4U, 0x0U,
  0x0U, 0x0U, 0x0U, 0x0U,
  0x0U, 0x0U, 0x0U, 0x0U,
  0x0U, 0x0U, 0x0U, 0x0U,
  0x0U, 0x0U, 0x0U, 0x0U,
  0x0U, 0x0U, 0x0U, 0x0U,
  0x0U, 0x0U, 0x0U, 0x0U,
  0x0U, 0x3ae7c5b4U, 0x0U, 0x0U,
  0x0U, 0x0U, 0x0U, 0x0U,
  0x0U, 0x0U, 0x0U, 0x0U,
  0x0U, 0x0U, 0x0U, 0x0U,
  0x0U, 0x0U, 0x0U, 0x0U,
  0x0U, 0x0U, 0x0U, 0x0U,
  0x0U, 0x0U, 0x0U, 0x0U,
  0x0U, 0x0U, 0x0U, 0x0U,
  0x0U, 0x3e48fd7200000000U, 0x3dce6c143d9819beU, 0x0U,
  0x0U, 0x3ae7c5b43ae7c5b4U, 0x0U, 0x0U,
  0x0U, 0x0U, 0x0U, 0x0U,
  0x0U, 0x0U, 0x0U, 0x0U,
  0x0U, 0x0U, 0x0U, 0x0U,
  0x0U, 0x0U, 0x0U, 0x0U,
  0x0U, 0x0U, 0x0U, 0x0U,
  0x0U, 0x0U, 0x0U, 0x0U,
  0x0U, 0x0U, 0x0U, 0x0U,
  0x0U, 0x0U, 0x0U, 0x0U,
  0x0U, 0x0U, 0x0U, 0x0U,
  0x0U, 0x0U, 0x0U, 0x0U,
  0x0U, 0x0U, 0x0U, 0x0U,
  0x0U, 0x0U, 0x0U, 0x0U,
  0x0U, 0x0U, 0x0U, 0x0U,
  0x0U, 0x0U, 0x0U, 0x0U,
  0x0U, 0x0U, 0x0U, 0x0U,
  0x0U, 0x0U, 0x0U, 0x0U,
  0x0U, 0x0U, 0x0U, 0x0U,
  0x0U, 0x0U, 0x0U, 0x0U,
  0x0U, 0x0U, 0x0U, 0x0U,
  0x0U, 0x0U, 0x0U, 0x0U,
  0x0U, 0x0U, 0x0U, 0x0U,
  0x0U, 0x0U, 0x0U, 0x0U,
  0x0U, 0x0U, 0x0U, 0x0U,
  0x0U, 0x0U, 0x0U, 0x0U,
  0x0U, 0x0U, 0x0U, 0x0U,
  0x0U, 0x0U, 0x0U, 0x0U,
  0x0U, 0x0U, 0x0U, 0x0U,
  0x0U, 0x0U, 0x0U, 0x0U,
  0x0U, 0x0U, 0x0U, 0x0U,
  0x0U, 0x0U, 0x0U, 0x0U,
  0x0U, 0x0U, 0x0U, 0x0U,
  0x0U, 0x0U, 0x0U, 0x0U,
  0x0U, 0x0U, 0x0U, 0x0U,
  0x0U, 0x0U, 0x0U, 0x0U,
  0x0U, 0x0U, 0x0U, 0x0U,
  0x0U, 0x0U, 0x0U, 0x0U,
  0x0U, 0x0U, 0x0U, 0x0U,
  0x0U, 0x0U, 0x0U, 0x0U,
  0x0U, 0x0U, 0x0U, 0x0U,
  0x0U, 0x0U, 0x0U, 0x0U,
  0x0U, 0x0U, 0x0U, 0x0U,
  0x0U, 0x0U, 0x0U, 0x0U,
  0x0U, 0x0U, 0x0U, 0x0U,
  0x0U, 0x0U, 0x0U, 0x0U,
  0x0U, 0x0U, 0x0U, 0x0U,
  0x0U, 0x0U, 0x0U, 0x0U,
  0x0U, 0x0U, 0x0U, 0x0U,
  0x0U, 0x0U, 0x0U, 0x0U,
  0x0U, 0x0U, 0x0U, 0x0U,
  0x0U, 0x0U, 0x0U, 0x0U,
  0x0U, 0x0U, 0x0U, 0x0U,
  0x0U, 0x0U, 0x0U, 0x0U,
  0x0U, 0x0U, 0x0U, 0x0U,
  0x0U, 0x0U, 0x0U, 0x0U,
  0x0U, 0x0U, 0x0U, 0x0U,
  0x0U, 0x0U, 0x0U, 0x0U,
  0x0U, 0x0U, 0x0U, 0x0U,
  0x0U, 0x0U, 0x0U, 0x0U,
  0x0U, 0x0U, 0x0U, 0x0U,
  0x0U, 0x0U, 0x0U, 0x0U,
  0x0U, 0x0U, 0x0U, 0x0U,
  0x0U, 0x0U, 0x0U, 0x0U,
  0x0U, 0x0U, 0x0U, 0x0U,
  0x0U, 0x0U, 0x0U, 0x0U,
  0x0U, 0x0U, 0x0U, 0x0U,
  0x0U, 0x0U, 0x0U, 0x0U,
  0x0U, 0x0U, 0x0U, 0x0U,
  0x0U, 0x0U, 0x0U, 0x0U,
  0x0U, 0x0U, 0x0U, 0x0U,
  0x0U, 0x0U, 0x0U, 0x0U,
  0x0U, 0x0U, 0x0U, 0x0U,
  0x0U, 0x0U, 0x0U, 0x0U,
  0x0U, 0x0U, 0x0U, 0x0U,
  0x0U, 0x0U, 0x0U, 0x0U,
  0x0U, 0x0U, 0x0U, 0x0U,
  0x0U, 0x0U, 0x0U, 0x0U,
  0x0U, 0x0U, 0x0U, 0x0U,
  0x0U, 0x0U, 0x0U, 0x0U,
  0x0U, 0x0U, 0x0U, 0x0U,
  0x0U, 0x0U, 0x0U, 0x0U,
  0x0U, 0x0U, 0x0U, 0x0U,
  0x0U, 0x0U, 0x0U, 0x0U,
  0x0U, 0x0U, 0x0U, 0x0U,
  0x0U, 0x0U, 0x0U, 0x0U,
  0x0U, 0x0U, 0x0U, 0x0U,
  0x0U, 0x0U, 0x0U, 0x0U,
  0x0U, 0x0U, 0x0U, 0x0U,
  0x0U, 0x0U, 0x0U, 0x0U,
  0x0U, 0x0U, 0x0U, 0x0U,
  0x0U, 0x0U, 0x0U, 0x0U,
  0x0U, 0x0U, 0x0U, 0x0U,
  0x0U, 0x0U, 0x0U, 0x0U,
  0x0U, 0x0U, 0x0U, 0x0U,
  0x0U, 0x0U, 0x0U, 0x0U,
  0x0U, 0x0U, 0x0U, 0x0U,
  0x0U, 0x0U, 0x0U, 0x0U,
  0x0U, 0x0U, 0x0U, 0x0U,
  0x0U, 0x0U, 0x0U, 0x0U,
  0x0U, 0x0U, 0x0U, 0x0U,
  0x0U, 0x0U, 0x0U, 0x0U,
  0x0U, 0x0U, 0x0U, 0x0U,
  0x0U, 0x0U, 0x0U, 0x0U,
  0x0U, 0x0U, 0x0U, 0x0U,
  0x0U, 0x0U, 0x0U, 0x0U,
  0x0U, 0x0U, 0x0U, 0x0U,
  0x0U, 0x0U, 0x0U, 0x0U,
  0x0U, 0x0U, 0x0U, 0x0U,
  0x0U, 0x0U, 0x0U, 0x0U,
  0x0U, 0x0U, 0x0U, 0x0U,
  0x0U, 0x0U, 0x0U, 0x0U,
  0x0U, 0xbe07cdd7bae7c5b4U, 0xbccaccfebe65f629U, 0xbae7c5b4U,
  0xbae7c5b400000000U, 0xbae7c5b4bae7c5b4U, 0xbae7c5b4U, 0xbae7c5b4bae7c5b4U,
  0xbae7c5b4U, 0x0U, 0x0U, 0x0U,
  0x0U, 0x0U, 0x0U, 0x0U,
  0x0U, 0x0U, 0x0U, 0x0U,
  0x0U, 0x0U, 0x0U, 0x0U,
  0x0U, 0x0U, 0x0U, 0x0U,
  0x0U, 0x0U, 0x0U, 0x0U,
  0x0U, 0x0U, 0x0U, 0x0U,
  0x0U, 0x0U, 0x0U, 0x0U,
  0x0U, 0x0U, 0x0U, 0x0U,
  0x0U, 0x0U, 0x0U, 0x0U,
  0x0U, 0x0U, 0x0U, 0x0U,
  0x0U, 0x0U, 0x0U, 0x0U,
  0x0U, 0x0U, 0x0U, 0x0U,
  0x0U, 0x0U, 0x0U, 0x0U,
  0x0U, 0x0U, 0x0U, 0x0U,
  0x0U, 0x0U, 0x0U, 0x0U,
  0x0U, 0x0U, 0x0U, 0x0U,
  0x0U, 0x0U, 0x0U, 0x0U,
  0x0U, 0x0U, 0x0U, 0x0U,
  0x0U, 0x0U, 0x0U, 0x0U,
  0x0U, 0x0U, 0x0U, 0x0U,
  0x0U, 0x0U, 0x0U, 0x0U,
  0x0U, 0x0U, 0x0U, 0x0U,
  0x0U, 0x0U, 0x0U, 0x0U,
  0x0U, 0x0U, 0x0U, 0x0U,
  0x0U, 0x0U, 0x0U, 0x0U,
  0x0U, 0x0U, 0x0U, 0x0U,
  0x0U, 0x0U, 0x0U, 0x0U,
  0x0U, 0x0U, 0x0U, 0x0U,
  0x0U, 0x0U, 0x0U, 0x0U,
  0x0U, 0xbdd5aa42bc10db90U, 0xbdbfefb9bde4269dU, 0x0U,
  0x0U, 0xbccaccfeU, 0xbce7c5b400000000U, 0x0U,
  0x0U, 0x0U, 0x0U, 0x0U,
  0x0U, 0x0U, 0x0U, 0x0U,
  0x0U, 0x0U, 0x0U, 0x0U,
  0x0U, 0x0U, 0x0U, 0x0U,
  0x0U, 0x0U, 0x0U, 0x0U,
  0x0U, 0x0U, 0x0U, 0x0U,
  0x0U, 0x0U, 0x0U, 0x0U,
  0x0U, 0x0U, 0x0U, 0x0U,
  0x0U, 0x0U, 0x0U, 0x0U,
  0x0U, 0x0U, 0x0U, 0x0U,
  0x0U, 0x0U, 0x0U, 0x0U,
  0x0U, 0x0U, 0x0U, 0x0U,
  0x0U, 0x0U, 0x0U, 0x0U,
  0x0U, 0x0U, 0x0U, 0x0U,
  0x0U, 0x0U, 0x0U, 0x0U,
  0x0U, 0x0U, 0x0U, 0x0U,
  0x0U, 0x0U, 0x0U, 0x0U,
  0x0U, 0x0U, 0x0U, 0x0U,
  0x0U, 0x0U, 0x0U, 0x0U,
  0x0U, 0x0U, 0x0U, 0x0U,
  0x0U, 0x0U, 0x0U, 0x0U,
  0x0U, 0x0U, 0x0U, 0x0U,
  0x0U, 0x0U, 0x0U, 0x0U,
  0x0U, 0x0U, 0x0U, 0x0U,
  0x0U, 0x0U, 0x0U, 0x0U,
  0x0U, 0x0U, 0x0U, 0x0U,
  0x0U, 0x0U, 0x0U, 0x0U,
  0x0U, 0x0U, 0x0U, 0x0U,
  0x0U, 0x0U, 0x0U, 0x0U,
  0x0U, 0x0U, 0x0U, 0x0U,
  0x0U, 0xbe48fd7200000000U, 0xbe3a8117U, 0x0U,
  0x0U, 0x0U, 0x0U, 0x0U,
  0x0U, 0x0U, 0x0U, 0x0U,
  0x0U, 0x0U, 0x0U, 0x0U,
  0x0U, 0x0U, 0x0U, 0x0U,
  0x0U, 0x0U, 0x0U, 0x0U,
  0x0U, 0x0U, 0x0U, 0x0U,
  0x0U, 0x0U, 0x0U, 0x0U,
  0x0U, 0x0U, 0x0U, 0x0U,
  0x0U, 0x0U, 0x0U, 0x0U,
  0x0U, 0x0U, 0x0U, 0x0U,
  0x0U, 0x0U, 0x0U, 0x0U,
  0x0U, 0x0U, 0x0U, 0x0U,
  0x0U, 0x0U, 0x0U, 0x0U,
  0x0U, 0x0U, 0x0U, 0x0U,
  0x0U, 0x0U, 0x0U, 0x0U,
  0x0U, 0x3e3e202e00000000U, 0x3badd4473ae7c5b4U, 0x0U,
  0x0U, 0x0U, 0x0U, 0x0U,
  0xbae7c5b400000000U, 0xbcbc50a2bccaccfeU, 0xbc67c5b4bcf6420fU, 0xbc825f3500000000U,
  0xbcadd447bcadd447U, 0xbc4accfebae7c5b4U, 0xbc10db9000000000U, 0xbbadd447bcd94959U,
  0xbbe7c5b4bc4accfeU, 0xbc4accfebc2dd447U, 0xbbadd447bbe7c5b4U, 0xbae7c5b4bce7c5b4U,
  0xbccaccfebb67c5b4U, 0xbbe7c5b4bc90db90U, 0xbc9f57ecbb67c5b4U, 0xbbe7c5b4bd269619U,
  0xbc10db90bbadd447U, 0xbd899d63bd099d63U, 0xbc10db90bc10db90U, 0xbd438ed0bd10db90U,
  0xbccaccfebd76420fU, 0xbbadd447bc825f35U, 0xbae7c5b4bae7c5b4U, 0x0U,
  0x0U, 0x0U, 0x0U, 0x0U,
  0x0U, 0x0U, 0x0U, 0x0U,
  0x0U, 0x0U, 0x0U, 0x0U,
  0x0U, 0x0U, 0x0U, 0x0U,
  0x0U, 0x0U, 0x0U, 0x0U,
  0x3cbc50a23c4accfeU, 0x3cadd4473be7c5b4U, 0x3c90db903c90db90U, 0x3c4accfe3cadd447U,
  0x3c4accfe3ae7c5b4U, 0x3c67c5b43c67c5b4U, 0x3c90db903c10db90U, 0x3c67c5b43d025f35U,
  0x3c67c5b4U, 0xbc825f3500000000U, 0xbbadd447U, 0xbc825f3500000000U,
  0xbae7c5b4U, 0x3d10db9000000000U, 0x3d947aa73e2c04bcU, 0x0U,
  0xbcbc50a2bccaccfeU, 0xbc67c5b4bc4accfeU, 0xbcbc50a2bc90db90U, 0xbccaccfebcbc50a2U,
  0xbcadd447bc825f35U, 0xbbadd447bbe7c5b4U, 0xbc10db90bb67c5b4U, 0xbb67c5b400000000U,
  0xbbadd447bb67c5b4U, 0xbae7c5b4bbadd447U, 0xbb67c5b400000000U, 0xbbadd44700000000U,
  0xbae7c5b4bb67c5b4U, 0xbbadd44700000000U, 0xbae7c5b4bbadd447U, 0xbb67c5b400000000U,
  0xbbadd447U, 0xbb67c5b4bae7c5b4U, 0xbae7c5b4bc2dd447U, 0xbbadd447bae7c5b4U,
  0xbc90db90bb67c5b4U, 0xbb67c5b4bb67c5b4U, 0xbc2dd447bc10db90U, 0xbbadd447bbadd447U,
  0xbc825f35bb67c5b4U, 0xbd4accfebd025f35U, 0xbd1f57ecbd3c50a2U, 0xbd3c50a2bd351275U,
  0xbd608786bd825f35U, 0xbc825f35U, 0x0U, 0x3cbc50a23be7c5b4U,
  0x3ccaccfe3cadd447U, 0x3c825f353c4accfeU, 0x3cadd4473c2dd447U, 0x3c90db903c9f57ecU,
  0x3c9f57ec3c90db90U, 0x3c2dd4473cf6420fU, 0x3cbc50a23c67c5b4U, 0x3cadd4473cbc50a2U,
  0x3ccaccfe3c90db90U, 0x3c9f57ec3d025f35U, 0x3cf6420f3c825f35U, 0x3c67c5b43c67c5b4U,
  0x3c9f57ec3c90db90U, 0x3c2dd4473c9f57ecU, 0x3c2dd4473ccaccfeU, 0x3c4accfe3cadd447U,
  0xb8273ab339961090U, 0x3ddd3a03b9d95c05U, 0xb9a09c683a22706dU, 0xbe56dbd13a016953U,
  0xbc9a117638df43b8U, 0x39e26d9b399b4851U, 0xba0b00f23b639086U, 0x3992cb5c38bc17eeU,
  0x3e5c2de2b9a86099U, 0xb7e0fd00be56f41eU, 0x3867af64b9bf5bbaU, 0x398928ddb9725f82U,
  0x3e5c914f398a8763U, 0x3e541cc539ddaa7dU, 0x3e5c4dca39ea29b2U, 0xbba210643ca6f59aU,
  0x0U, 0x0U, 0x0U, 0x0U,
  0x0U, 0x0U, 0x0U, 0x0U,
  0x0U, 0x0U, 0x0U, 0x0U,
  0x0U, 0x0U, 0x0U, 0x0U,
  0x0U, 0x0U, 0x0U, 0x0U,
  0x0U, 0x0U, 0xbf8c2ca8U, 0x0U,
  0x0U, 0x0U, 0x0U, 0x0U,
  0x0U, 0x0U, 0x0U, 0x0U,
  0x0U, 0x0U, 0x0U, 0x0U,
  0x0U, 0x0U, 0x0U, 0x0U,
  0x0U, 0x0U, 0x0U, 0x0U,
  0x0U, 0x0U, 0x0U, 0x0U,
  0x0U, 0x0U, 0x0U, 0x0U,
  0x0U, 0x0U, 0x0U, 0x0U,
  0x0U, 0x0U, 0x0U, 0x0U,
  0x0U, 0x0U, 0x0U, 0x0U,
  0x0U, 0x0U, 0x0U, 0x0U,
  0x0U, 0x0U, 0x0U, 0x0U,
  0x0U, 0x0U, 0x0U, 0x0U,
  0x0U, 0x0U, 0x0U, 0x0U,
  0x0U, 0x0U, 0x0U, 0x0U,
  0x0U, 0x0U, 0x0U, 0x0U,
  0x0U, 0x0U, 0x0U, 0x0U,
  0x0U, 0x0U, 0x0U, 0x0U,
  0x0U, 0x0U, 0x0U, 0x0U,
  0x0U, 0x0U, 0x0U, 0x0U,
  0x0U, 0x0U, 0x0U, 0x0U,
  0x0U, 0x0U, 0x0U, 0x0U,
  0x0U, 0x0U, 0x0U, 0x0U,
  0x0U, 0x0U, 0x0U, 0x0U,
  0x0U, 0x0U, 0x0U, 0x0U,
  0x0U, 0x0U, 0x0U, 0x0U,
  0x0U, 0x0U, 0x0U, 0x0U,
  0x0U, 0x0U, 0x0U, 0x0U,
  0x0U, 0x0U, 0x0U, 0x0U,
  0x0U, 0x0U, 0x0U, 0x0U,
  0x0U, 0x0U, 0x0U, 0x0U,
  0x0U, 0x0U, 0x0U, 0x0U,
  0x0U, 0x0U, 0x0U, 0x0U,
  0x0U, 0x0U, 0x0U, 0x0U,
  0x0U, 0x0U, 0x0U, 0x0U,
  0x0U, 0x0U, 0x0U, 0x0U,
  0x0U, 0x0U, 0x0U, 0x0U,
  0x0U, 0x0U, 0x0U, 0x0U,
  0x0U, 0x0U, 0x0U, 0x0U,
  0x0U, 0x0U, 0x0U, 0x0U,
  0x0U, 0x0U, 0x0U, 0x0U,
  0x0U, 0x0U, 0x0U, 0x0U,
  0x0U, 0x0U, 0x0U, 0x0U,
  0x0U, 0x0U, 0x0U, 0x0U,
  0x0U, 0x0U, 0x0U, 0x0U,
  0x0U, 0x0U, 0x0U, 0x0U,
  0x0U, 0x0U, 0x0U, 0x0U,
  0x0U, 0x0U, 0x0U, 0x0U,
  0x0U, 0x0U, 0x0U, 0x0U,
  0x0U, 0x0U, 0x0U, 0x0U,
  0x0U, 0xbe1ef01d00000000U, 0x0U, 0x3dc241ea00000000U,
  0x0U, 0x0U, 0x0U, 0x0U,
  0xbe27c49000000000U, 0x0U, 0x0U, 0x0U,
  0xbd8d473600000000U, 0xbd0d473600000000U, 0xbd53ead100000000U, 0x0U,
  0x0U, 0x0U, 0x0U, 0x0U,
  0x0U, 0x0U, 0x0U, 0x0U,
  0x0U, 0x0U, 0x0U, 0x0U,
  0x0U, 0x0U, 0x0U, 0x0U,
  0x0U, 0x0U, 0x0U, 0x0U,
  0x0U, 0x0U, 0x0U, 0x0U,
  0x0U, 0x0U, 0x0U, 0x0U,
  0x0U, 0x0U, 0x0U, 0x0U,
  0x0U, 0x0U, 0x0U, 0x0U,
  0xbdb0990400000000U, 0x0U, 0x0U, 0x0U,
  0x0U, 0x0U, 0x0U, 0x0U,
  0x0U, 0x0U, 0x0U, 0x3f32ce203d8d4736U,
  0x0U, 0x0U, 0x0U, 0x0U,
  0xbe0472c300000000U, 0x0U, 0x0U, 0x0U,
  0x0U, 0x0U, 0x0U, 0x0U,
  0x0U, 0x0U, 0x0U, 0x3eb96d77U,
  0x0U, 0x0U, 0x0U, 0x0U,
  0x0U, 0x0U, 0x0U, 0x0U,
  0x0U, 0x0U, 0x0U, 0x0U,
  0x0U, 0x0U, 0x0U, 0x0U,
  0x0U, 0x0U, 0x0U, 0x0U,
  0x0U, 0x0U, 0x0U, 0x0U,
  0x0U, 0x0U, 0x0U, 0x0U,
  0x0U, 0x0U, 0x0U, 0x0U,
  0x0U, 0x0U, 0x0U, 0x0U,
  0x0U, 0x0U, 0x0U, 0x0U,
  0x0U, 0x0U, 0x0U, 0x0U,
  0x0U, 0x0U, 0x0U, 0x0U,
  0x0U, 0xbe30990400000000U, 0x0U, 0x3df73c9e00000000U,
  0x0U, 0x0U, 0x0U, 0x0U,
  0xbd8d473600000000U, 0x3d309904U, 0x0U, 0x0U,
  0xbd773c9e00000000U, 0xbd8d473600000000U, 0xbd9ef01d00000000U, 0x0U,
  0x0U, 0x0U, 0x0U, 0x0U,
  0x0U, 0x0U, 0x0U, 0x0U,
  0x0U, 0x0U, 0x0U, 0x0U,
  0x0U, 0x0U, 0x0U, 0x0U,
  0x0U, 0x0U, 0x0U, 0x0U,
  0xbe8472c300000000U, 0x0U, 0x0U, 0x0U,
  0x0U, 0x0U, 0x0U, 0x0U,
  0x0U, 0x0U, 0x0U, 0x3e773c9eU,
  0x0U, 0x0U, 0x0U, 0x0U,
  0x3e0d473600000000U, 0x0U, 0x0U, 0x0U,
  0x0U, 0x0U, 0x0U, 0x0U,
  0x0U, 0x0U, 0x0U, 0xbf258f73bd0d4736U,
  0x0U, 0x3e80088900000000U, 0x0U, 0xbd773c9e00000000U,
  0x0U, 0x0U, 0x0U, 0x0U,
  0x3cd3ead100000000U, 0xbd8d4736U, 0x0U, 0x0U,
  0x3d0d473600000000U, 0x3e161ba900000000U, 0x3d773c9e00000000U, 0x0U,
  0x0U, 0x0U, 0x0U, 0x0U,
  0x0U, 0x0U, 0x0U, 0x0U,
  0x0U, 0x0U, 0x0U, 0x0U,
  0x0U, 0x0U, 0x0U, 0x0U,
  0x0U, 0x3e6e682b00000000U, 0x0U, 0xbc0d473600000000U,
  0x0U, 0x0U, 0x0U, 0x0U,
  0x3c8d473600000000U, 0xbe1ef01dU, 0x0U, 0x0U,
  0x3df73c9e00000000U, 0x3c8d473600000000U, 0x3d9ef01d00000000U, 0x0U,
  0x0U, 0x0U, 0x0U, 0x0U,
  0x0U, 0x0U, 0x0U, 0x0U,
  0x0U, 0x0U, 0x0U, 0x0U,
  0x0U, 0x0U, 0x0U, 0x0U,
  0x0U, 0x0U, 0x0U, 0x0U,
  0x0U, 0x0U, 0x0U, 0x0U,
  0x0U, 0x0U, 0x0U, 0x0U,
  0x0U, 0x0U, 0x0U, 0x0U,
  0x0U, 0x0U, 0x0U, 0x0U,
  0x0U, 0x0U, 0x0U, 0x0U,
  0x0U, 0x0U, 0x0U, 0x0U,
  0x0U, 0x0U, 0x0U, 0x0U,
  0x0U, 0x0U, 0x0U, 0x0U,
  0x0U, 0x0U, 0x0U, 0x0U,
  0x0U, 0x0U, 0x0U, 0x0U,
  0x0U, 0x0U, 0x0U, 0x0U,
  0x0U, 0x0U, 0x0U, 0x0U,
  0x0U, 0x0U, 0x0U, 0x0U,
  0x0U, 0x0U, 0x0U, 0x0U,
  0x0U, 0x0U, 0x0U, 0x0U,
  0x0U, 0x0U, 0x0U, 0x0U,
  0x0U, 0x0U, 0x0U, 0x0U,
  0x0U, 0x0U, 0x0U, 0x0U,
  0x0U, 0x0U, 0x0U, 0x0U,
  0x0U, 0x0U, 0x0U, 0x0U,
  0x0U, 0x0U, 0x0U, 0x0U,
  0x0U, 0x0U, 0x0U, 0x0U,
  0x0U, 0x0U, 0x0U, 0x0U,
  0xbf853df400000000U, 0x0U, 0x0U, 0x0U,
  0x0U, 0x0U, 0x0U, 0x0U,
  0x0U, 0x0U, 0x0U, 0x0U,
  0x0U, 0x0U, 0x0U, 0x0U,
  0x0U, 0x0U, 0x0U, 0x0U,
  0x0U, 0x0U, 0x0U, 0x0U,
  0x0U, 0x0U, 0x0U, 0x0U,
  0x0U, 0x0U, 0x0U, 0x0U,
  0x0U, 0x0U, 0x0U, 0x0U,
  0x0U, 0x0U, 0x0U, 0x0U,
  0x0U, 0x0U, 0x0U, 0x0U,
  0x0U, 0x0U, 0x0U, 0x0U,
  0x0U, 0x0U, 0x0U, 0x0U,
  0x0U, 0x0U, 0x0U, 0x0U,
  0x0U, 0x0U, 0x0U, 0x0U,
  0x0U, 0x0U, 0x0U, 0x0U,
  0x0U, 0x0U, 0x0U, 0x0U,
  0x0U, 0x0U, 0x0U, 0x0U,
  0x0U, 0x0U, 0x0U, 0x0U,
  0x0U, 0x0U, 0x0U, 0x0U,
  0x0U, 0x0U, 0x0U, 0x0U,
  0x0U, 0x0U, 0x0U, 0x0U,
  0x0U, 0x0U, 0x0U, 0x0U,
  0x0U, 0x0U, 0x0U, 0x0U,
  0x0U, 0x0U, 0x0U, 0x0U,
  0x0U, 0x0U, 0x0U, 0x0U,
  0x0U, 0x0U, 0x0U, 0x0U,
  0x0U, 0x0U, 0x0U, 0x0U,
  0x0U, 0x0U, 0x0U, 0x0U,
  0x0U, 0x0U, 0x0U, 0x0U,
  0x0U, 0x0U, 0x0U, 0x0U,
  0x0U, 0x0U, 0x0U, 0x0U,
  0x0U, 0x0U, 0x0U, 0x0U,
  0x0U, 0x0U, 0x0U, 0x0U,
  0x0U, 0x0U, 0x0U, 0x0U,
  0x0U, 0x0U, 0x0U, 0x0U,
  0x0U, 0x0U, 0x0U, 0x0U,
  0x0U, 0x0U, 0x0U, 0x0U,
  0x0U, 0x0U, 0x0U, 0x0U,
  0x0U, 0x0U, 0x0U, 0x0U,
  0x0U, 0x0U, 0x0U, 0x0U,
  0x0U, 0x0U, 0x0U, 0x0U,
  0x0U, 0x0U, 0x0U, 0x0U,
  0x0U, 0x0U, 0x0U, 0x0U,
  0x0U, 0x0U, 0x0U, 0x0U,
  0x0U, 0x0U, 0x0U, 0x0U,
  0x0U, 0x0U, 0x0U, 0x0U,
  0x0U, 0x0U, 0x0U, 0x0U,
  0x0U, 0x0U, 0x0U, 0x0U,
  0x0U, 0x0U, 0x0U, 0x0U,
  0x0U, 0x0U, 0x0U, 0x0U,
  0x0U, 0x0U, 0x0U, 0x0U,
  0x0U, 0x0U, 0x0U, 0x0U,
  0x0U, 0x0U, 0x0U, 0x0U,
  0x0U, 0x0U, 0x0U, 0x0U,
  0x0U, 0x0U, 0x0U, 0x0U,
  0x0U, 0x0U, 0x0U, 0x0U,
  0x0U, 0x0U, 0x0U, 0x0U,
  0x0U, 0x0U, 0x0U, 0x0U,
  0x0U, 0x0U, 0x0U, 0x0U,
  0x0U, 0x0U, 0x0U, 0x0U,
  0x0U, 0x0U, 0x0U, 0x0U,
  0x0U, 0x0U, 0x0U, 0x0U,
  0x0U, 0x0U, 0x0U, 0x0U,
  0x0U, 0x0U, 0x0U, 0x0U,
  0x0U, 0x0U, 0x0U, 0x0U,
  0x0U, 0x0U, 0x0U, 0x0U,
  0x0U, 0x0U, 0x0U, 0x0U,
  0x0U, 0x0U, 0x0U, 0x0U,
  0x0U, 0x0U, 0x0U, 0x0U,
  0x0U, 0x0U, 0x0U, 0x0U,
  0x0U, 0x0U, 0x0U, 0x0U,
  0x0U, 0x0U, 0x0U, 0x0U,
  0x0U, 0x0U, 0x0U, 0x0U,
  0x0U, 0x0U, 0x0U, 0x0U,
  0x0U, 0x0U, 0x0U, 0x0U,
  0x0U, 0x0U, 0x0U, 0x0U,
  0x0U, 0x0U, 0x0U, 0x0U,
  0x0U, 0x0U, 0x0U, 0x0U,
  0x0U, 0x0U, 0x0U, 0x0U,
  0xbd27dd2b00000000U, 0x0U, 0x0U, 0x0U,
  0x0U, 0x0U, 0x0U, 0x0U,
  0x3f496fce00000000U, 0x3eef34c4U, 0x0U, 0x0U,
  0xbf453d793ef36718U, 0x0U, 0x0U, 0x0U,
  0x0U, 0x0U, 0x0U, 0x0U,
  0x0U, 0x0U, 0x0U, 0x0U,
  0x0U, 0x0U, 0x0U, 0x0U,
  0x0U, 0x0U, 0x0U, 0x0U,
  0x0U, 0x0U, 0x0U, 0x0U,
  0x0U, 0x0U, 0x0U, 0x0U,
  0x0U, 0x0U, 0x0U, 0x0U,
  0x0U, 0x0U, 0x0U, 0x0U,
  0x0U, 0x0U, 0x0U, 0x0U,
  0x0U, 0x0U, 0x0U, 0x0U,
  0x0U, 0x0U, 0x0U, 0x0U,
  0x0U, 0x0U, 0x0U, 0x0U,
  0x0U, 0x0U, 0x0U, 0x0U,
  0x0U, 0x0U, 0x0U, 0x3f192d04U,
  0x0U, 0x0U, 0x0U, 0x3f1b462eU,
  0x0U, 0xbf2191adU, 0xbf1f7883U, 0x0U,
  0x0U, 0x0U, 0x0U, 0x0U,
  0x0U, 0x0U, 0x0U, 0x0U,
  0x0U, 0x0U, 0x0U, 0x0U,
  0x0U, 0x0U, 0x0U, 0x0U,
  0x0U, 0x0U, 0x0U, 0x0U,
  0x0U, 0x0U, 0x0U, 0x0U,
  0x0U, 0x0U, 0x0U, 0x0U,
  0x0U, 0x0U, 0x0U, 0x0U,
  0x0U, 0x0U, 0x0U, 0x0U,
  0x0U, 0x0U, 0x0U, 0x0U,
  0x0U, 0x0U, 0x0U, 0x0U,
  0x0U, 0x0U, 0x0U, 0x0U,
  0x3915b87537d3f413U, 0x39090c8137eae818U, 0xb993dd10bc83db24U, 0xb9a6c236399dea3eU,
  0xb92c243639aa4b78U, 0xb92bd203ba162297U, 0x3ac0adf9ba1d5228U, 0x3a76ca5339a108b2U,
  0x397a27a13a9c26ffU, 0xba7ab4373a010676U, 0xba74c9f3397c9eaeU, 0xba0c1672390f2dfbU,
  0x3a3ab96f3c966435U, 0x39e95be73af90ffbU, 0xba34f7b33deb7c29U, 0x3a62a484ba5c37dcU,
  0x0U, 0x0U, 0x0U, 0x0U,
  0x0U, 0x0U, 0x0U, 0x0U,
  0x0U, 0x0U, 0x0U, 0x0U,
  0x0U, 0x0U, 0x0U, 0x0U,
  0x0U, 0x0U, 0x0U, 0x0U,
  0x0U, 0x0U, 0x0U, 0x0U,
  0x0U, 0x0U, 0x0U, 0x0U,
  0x0U, 0x0U, 0x0U, 0x0U,
  0x0U, 0x0U, 0x0U, 0x0U,
  0x0U, 0x0U, 0x0U, 0x0U,
  0x0U, 0x0U, 0x0U, 0x0U,
  0x0U, 0x0U, 0x0U, 0x0U,
  0x0U, 0x0U, 0x0U, 0x0U,
  0x0U, 0x0U, 0x0U, 0x0U,
  0x0U, 0x0U, 0x0U, 0x0U,
  0x0U, 0x0U, 0x0U, 0x0U,
  0x0U, 0x0U, 0x0U, 0x0U,
  0x0U, 0x0U, 0x0U, 0x0U,
  0x0U, 0x0U, 0x0U, 0x0U,
  0xc01b52baU, 0x0U, 0x0U, 0x0U,
  0x0U, 0x0U, 0x0U, 0x0U,
  0x0U, 0x0U, 0x0U, 0x0U,
  0x0U, 0x0U, 0x0U, 0x0U,
  0x0U, 0x0U, 0x0U, 0x0U,
  0x0U, 0x0U, 0x0U, 0x0U,
  0x0U, 0x0U, 0x0U, 0x0U,
  0x0U, 0x0U, 0x0U, 0x0U,
  0x0U, 0x0U, 0x0U, 0x0U,
  0x0U, 0x0U, 0x0U, 0x0U,
  0x0U, 0x0U, 0x0U, 0x0U,
  0x0U, 0x0U, 0x0U, 0x0U,
  0x0U, 0x0U, 0x0U, 0x0U,
  0x0U, 0x0U, 0x0U, 0x0U,
  0x0U, 0x0U, 0x0U, 0x0U,
  0x0U, 0x0U, 0x0U, 0x0U,
  0x0U, 0x0U, 0x0U, 0x0U,
  0x0U, 0x0U, 0x0U, 0x0U,
  0x0U, 0x0U, 0x0U, 0x0U,
  0x0U, 0x0U, 0x0U, 0x0U,
  0x0U, 0x0U, 0x0U, 0x0U,
  0x0U, 0x0U, 0x0U, 0x0U,
  0x0U, 0x0U, 0x0U, 0x0U,
  0x0U, 0x0U, 0x0U, 0x0U,
  0x0U, 0x0U, 0x0U, 0x0U,
  0x0U, 0x0U, 0x0U, 0x0U,
  0x0U, 0x0U, 0x0U, 0x0U,
  0x0U, 0x0U, 0x0U, 0x0U,
  0x0U, 0x0U, 0x3fcfe9b3U, 0x0U,
  0x0U, 0x0U, 0x0U, 0x0U,
  0x0U, 0x0U, 0x0U, 0x0U,
  0x0U, 0x0U, 0x0U, 0x0U,
  0x0U, 0x0U, 0x0U, 0x0U,
  0x0U, 0x0U, 0x0U, 0x0U,
  0x0U, 0x0U, 0x0U, 0x0U,
  0x0U, 0x0U, 0x0U, 0x0U,
  0x0U, 0x0U, 0x0U, 0x0U,
  0x0U, 0x0U, 0x0U, 0x0U,
  0x0U, 0x0U, 0x0U, 0x0U,
  0x0U, 0x0U, 0x0U, 0x0U,
  0x0U, 0x0U, 0x0U, 0x0U,
  0x0U, 0x0U, 0x0U, 0x0U,
  0x0U, 0x0U, 0x0U, 0x0U,
  0x0U, 0x0U, 0x0U, 0x0U,
  0x0U, 0x0U, 0x0U, 0x0U,
  0x0U, 0x0U, 0x0U, 0x0U,
  0x0U, 0x0U, 0x0U, 0x0U,
  0x0U, 0x0U, 0x0U, 0x0U,
  0x0U, 0x0U, 0x0U, 0x0U,
  0x0U, 0x0U, 0x0U, 0x0U,
  0x0U, 0x0U, 0x0U, 0x0U,
  0x0U, 0x0U, 0x0U, 0x0U,
  0x0U, 0x0U, 0x0U, 0x0U,
  0x0U, 0x0U, 0x0U, 0x0U,
  0x0U, 0x0U, 0x0U, 0x0U,
  0x0U, 0x0U, 0x0U, 0x0U,
  0x0U, 0x0U, 0x0U, 0x0U,
  0x0U, 0x0U, 0x0U, 0x0U,
  0x0U, 0x0U, 0x0U, 0x0U,
  0x0U, 0x0U, 0x0U, 0x0U,
  0x0U, 0x0U, 0x0U, 0x0U,
  0x0U, 0x0U, 0x0U, 0x0U,
  0x0U, 0x0U, 0x0U, 0x0U,
  0x0U, 0x0U, 0x0U, 0x0U,
  0x0U, 0x0U, 0x0U, 0x0U,
  0x0U, 0x0U, 0x3f8415f9U, 0x0U,
  0x0U, 0x0U, 0x0U, 0x0U,
  0x0U, 0x0U, 0x0U, 0x0U,
  0x0U, 0x0U, 0x0U, 0x0U,
  0x0U, 0x0U, 0x0U, 0x0U,
  0x0U, 0x0U, 0x0U, 0x0U,
  0x0U, 0x0U, 0x0U, 0x0U,
  0x0U, 0x0U, 0x0U, 0x0U,
  0x0U, 0x0U, 0x0U, 0x0U,
  0x0U, 0x0U, 0x0U, 0x0U,
  0x0U, 0x0U, 0x0U, 0x0U,
  0x0U, 0x0U, 0x0U, 0x0U,
  0x0U, 0x0U, 0x0U, 0x0U,
  0x0U, 0x0U, 0x0U, 0x0U,
  0x0U, 0x0U, 0x0U, 0x0U,
  0x0U, 0x0U, 0x0U, 0x0U,
  0x0U, 0x0U, 0x0U, 0x0U,
  0x0U, 0x0U, 0x0U, 0x0U,
  0x0U, 0x0U, 0x0U, 0x0U,
  0x0U, 0x0U, 0x0U, 0x0U,
  0x0U, 0x0U, 0x0U, 0x0U,
  0x0U, 0x0U, 0x0U, 0x0U,
  0x0U, 0x0U, 0x0U, 0x0U,
  0x0U, 0x0U, 0x0U, 0x0U,
  0x0U, 0x0U, 0x0U, 0x0U,
  0x0U, 0x0U, 0x0U, 0x0U,
  0x0U, 0x0U, 0x0U, 0x0U,
  0x0U, 0x0U, 0x0U, 0x0U,
  0x0U, 0x0U, 0x0U, 0x0U,
  0x0U, 0x0U, 0x0U, 0x0U,
  0x0U, 0x0U, 0x0U, 0x0U,
  0x0U, 0x0U, 0x0U, 0x0U,
  0x0U, 0x0U, 0x0U, 0x0U,
  0x0U, 0x0U, 0x0U, 0x0U,
  0x0U, 0x0U, 0x0U, 0x0U,
  0x0U, 0x0U, 0x0U, 0x0U,
  0x0U, 0x0U, 0x0U, 0x0U,
  0x0U, 0x0U, 0x0U, 0x0U,
  0x0U, 0x0U, 0x0U, 0x0U,
  0x0U, 0x0U, 0x0U, 0x0U,
  0x0U, 0x0U, 0x0U, 0x0U,
  0x0U, 0x0U, 0x0U, 0x0U,
  0x0U, 0x0U, 0x0U, 0x0U,
  0x0U, 0x0U, 0x0U, 0x0U,
  0x0U, 0x0U, 0x0U, 0x0U,
  0x0U, 0x0U, 0x0U, 0x0U,
  0x0U, 0x0U, 0x0U, 0x0U,
  0x0U, 0x0U, 0x0U, 0x0U,
  0x0U, 0x0U, 0x0U, 0x0U,
  0x0U, 0x0U, 0x0U, 0x0U,
  0x0U, 0x0U, 0x0U, 0x0U,
  0x0U, 0x0U, 0x0U, 0x0U,
  0x0U, 0x0U, 0x0U, 0x0U,
  0x0U, 0x0U, 0x0U, 0x0U,
  0x0U, 0x0U, 0x0U, 0x0U,
  0x0U, 0x0U, 0x0U, 0x0U,
  0x0U, 0x0U, 0x0U, 0x0U,
  0x0U, 0x0U, 0x0U, 0x0U,
  0x0U, 0x0U, 0x0U, 0x0U,
  0x0U, 0x0U, 0x0U, 0x0U,
  0x0U, 0x0U, 0x0U, 0x0U,
  0x0U, 0x0U, 0x0U, 0x0U,
  0x0U, 0x0U, 0x0U, 0x0U,
  0x0U, 0x0U, 0x0U, 0x0U,
  0x0U, 0x0U, 0x0U, 0x0U,
  0x0U, 0x0U, 0x0U, 0x0U,
  0x0U, 0x0U, 0x0U, 0x0U,
  0x0U, 0x0U, 0x0U, 0x0U,
  0x0U, 0x0U, 0xbfa06d63U, 0x0U,
  0x0U, 0x0U, 0x0U, 0x0U,
  0x0U, 0x0U, 0x0U, 0x0U,
  0x0U, 0x0U, 0x0U, 0x0U,
  0x0U, 0x0U, 0x0U, 0x0U,
  0x0U, 0x0U, 0x0U, 0x0U,
  0x0U, 0x0U, 0x0U, 0x0U,
  0x0U, 0x0U, 0x0U, 0x0U,
  0x0U, 0x0U, 0x3f26be4bU, 0x0U,
  0x0U, 0x0U, 0x0U, 0x0U,
  0x0U, 0x0U, 0x0U, 0x0U,
  0x0U, 0x0U, 0x0U, 0x0U,
  0x0U, 0x0U, 0x0U, 0x0U,
  0x0U, 0x0U, 0x0U, 0x0U,
  0x0U, 0x0U, 0x0U, 0x0U,
  0x0U, 0x0U, 0x0U, 0x0U,
  0x0U, 0xbd21b0c500000000U, 0x0U, 0x0U,
  0x3e035fa000000000U, 0x3f9a1c7c00000000U, 0x0U, 0x0U,
  0x0U, 0x0U, 0x0U, 0x0U,
  0x0U, 0x0U, 0x0U, 0x0U,
  0x0U, 0x0U, 0x0U, 0x0U,
  0x0U, 0x0U, 0x0U, 0x0U,
  0x0U, 0x0U, 0x0U, 0x0U,
  0x0U, 0x0U, 0x0U, 0x0U,
  0x0U, 0x0U, 0x0U, 0x0U,
  0x0U, 0x0U, 0x0U, 0x0U,
  0x0U, 0x0U, 0x0U, 0x0U,
  0x0U, 0x0U, 0x0U, 0x0U,
  0x0U, 0x0U, 0xbf1795b9U, 0x0U,
  0x0U, 0x0U, 0x0U, 0x0U,
  0x0U, 0x0U, 0x0U, 0x0U,
  0x0U, 0x0U, 0x0U, 0x0U,
  0x0U, 0x0U, 0x0U, 0x0U,
  0x0U, 0x0U, 0x0U, 0x0U,
  0x0U, 0x0U, 0x0U, 0x0U,
  0x0U, 0x0U, 0x0U, 0x0U,
  0x0U, 0x0U, 0x0U, 0x0U,
  0x0U, 0x0U, 0x0U, 0x0U,
  0x0U, 0x0U, 0xbf821c3f00000000U, 0x0U,
  0x0U, 0x0U, 0x0U, 0x0U,
  0x0U, 0x0U, 0x0U, 0x0U,
  0x0U, 0x0U, 0x0U, 0x0U,
  0x0U, 0x0U, 0x0U, 0x0U,
  0x0U, 0x0U, 0x0U, 0x0U,
  0x0U, 0x0U, 0x0U, 0x0U,
  0x0U, 0x0U, 0x0U, 0x0U,
  0x0U, 0x0U, 0x0U, 0x0U,
  0x0U, 0x0U, 0x0U, 0x0U,
  0x0U, 0x0U, 0x0U, 0x0U,
  0x0U, 0x0U, 0x0U, 0x0U,
  0x0U, 0x0U, 0x0U, 0x0U,
  0x0U, 0x0U, 0x0U, 0x0U,
  0x0U, 0x0U, 0x0U, 0x0U,
  0x0U, 0x0U, 0x0U, 0x0U,
  0x0U, 0x0U, 0x0U, 0x0U,
  0x0U, 0x0U, 0x0U, 0x0U,
  0x0U, 0x0U, 0x0U, 0x0U,
  0x0U, 0x0U, 0x0U, 0x0U,
  0x0U, 0x0U, 0x0U, 0x0U,
  0x0U, 0x0U, 0x0U, 0x0U,
  0x0U, 0x0U, 0x0U, 0x0U,
  0x0U, 0x0U, 0x0U, 0x0U,
  0x0U, 0x0U, 0x0U, 0x0U,
  0x0U, 0x0U, 0x0U, 0x0U,
  0x0U, 0x0U, 0x0U, 0x0U,
  0x0U, 0x0U, 0x0U, 0x0U,
  0x0U, 0x0U, 0x0U, 0x0U,
  0x0U, 0x0U, 0x0U, 0x0U,
  0x0U, 0x0U, 0x0U, 0x0U,
  0x0U, 0x0U, 0x0U, 0x0U,
  0x0U, 0x0U, 0x0U, 0x0U,
  0x0U, 0x0U, 0x0U, 0x0U,
  0x0U, 0x0U, 0x0U, 0x0U,
  0x0U, 0x0U, 0x0U, 0x0U,
  0x0U, 0x0U, 0x0U, 0x0U,
  0x0U, 0x0U, 0x0U, 0x0U,
  0x0U, 0x0U, 0x0U, 0x0U,
  0x0U, 0x0U, 0x0U, 0x0U,
  0x0U, 0x0U, 0x0U, 0x0U,
  0x0U, 0x0U, 0x0U, 0x0U,
  0x0U, 0x0U, 0x0U, 0x0U,
  0x0U, 0x0U, 0x0U, 0x0U,
  0x0U, 0x0U, 0x0U, 0x0U,
  0x0U, 0x0U, 0x0U, 0x0U,
  0x0U, 0x0U, 0x0U, 0x0U,
  0x0U, 0x0U, 0x0U, 0x0U,
  0x0U, 0x0U, 0x0U, 0x0U,
  0x0U, 0x0U, 0x0U, 0x0U,
  0x0U, 0x0U, 0x0U, 0x0U,
  0x0U, 0x0U, 0x0U, 0x0U,
  0x0U, 0x0U, 0x0U, 0x0U,
  0x0U, 0x0U, 0x0U, 0x0U,
  0x0U, 0x0U, 0x0U, 0x0U,
  0x0U, 0x0U, 0x0U, 0x0U,
  0x0U, 0x0U, 0x0U, 0x0U,
  0x0U, 0x0U, 0x0U, 0x0U,
  0x0U, 0x0U, 0x0U, 0x0U,
  0x0U, 0x0U, 0x0U, 0x0U,
  0x0U, 0x0U, 0x0U, 0x0U,
  0x0U, 0x0U, 0x0U, 0x0U,
  0x0U, 0x0U, 0x0U, 0x0U,
  0x0U, 0x0U, 0x0U, 0x0U,
  0x0U, 0x0U, 0x0U, 0x0U,
  0x0U, 0x0U, 0x0U, 0x0U,
  0xbd820062bcb6d6b1U, 0xba10b61abcdfac0aU, 0xbd136ed1ba146c49U, 0xbd091b383dc98431U,
  0xba810ae93e61057eU, 0xbcd35d043e4b4411U, 0x3e4d7bcabc2d5895U, 0x3e8d0a46bb57497aU,
  0xbc2b79c5bc95b125U, 0xba236da0bcda3147U, 0x3d516ea6bc4a24f0U, 0xbce15d4dbba413bcU,
  0xbdbc459bbc4d503cU, 0xbabaca37bbcef8bcU, 0xbd1fa31cba3fb693U, 0xbcc6b4a2bac0bcd9U,
  0x0U, 0x0U, 0x0U, 0x0U,
  0x0U, 0x0U, 0x0U, 0x0U,
  0x0U, 0x0U, 0x0U, 0x0U,
  0x0U, 0x0U, 0x0U, 0x0U,
  0x0U, 0x0U, 0x0U, 0x0U,
  0x0U, 0x0U, 0x0U, 0x0U,
  0x0U, 0x0U, 0x0U, 0x0U,
  0x0U, 0x0U, 0x0U, 0x0U,
  0x0U, 0x0U, 0x0U, 0x3cd9966eU,
  0x0U, 0x3f57e341U, 0x0U, 0x0U,
  0x0U, 0x0U, 0x0U, 0x0U,
  0x0U, 0x0U, 0x0U, 0x0U,
  0x0U, 0x0U, 0x0U, 0x0U,
  0x0U, 0x0U, 0x0U, 0x0U,
  0x0U, 0x0U, 0x0U, 0x0U,
  0x0U, 0x0U, 0x0U, 0x0U,
  0x0U, 0x0U, 0x0U, 0x0U,
  0x0U, 0x0U, 0x0U, 0x0U,
  0x0U, 0x0U, 0x0U, 0x0U,
  0x0U, 0x0U, 0x0U, 0x0U,
  0x0U, 0x0U, 0x0U, 0x0U,
  0x0U, 0x0U, 0x0U, 0x0U,
  0x0U, 0x0U, 0x0U, 0x0U,
  0x0U, 0x0U, 0x0U, 0x0U,
  0x0U, 0x0U, 0x0U, 0x0U,
  0x0U, 0x0U, 0x0U, 0x0U,
  0x0U, 0x0U, 0x0U, 0x0U,
  0x0U, 0x0U, 0x0U, 0x0U,
  0x0U, 0x0U, 0x0U, 0xbe52c9bbU,
  0x0U, 0x3e9c641fU, 0x0U, 0xbc59966e00000000U,
  0x0U, 0x0U, 0x0U, 0x0U,
  0x0U, 0x0U, 0x0U, 0x0U,
  0x0U, 0x0U, 0x0U, 0x0U,
  0x0U, 0x0U, 0x0U, 0x0U,
  0x0U, 0x0U, 0x0U, 0x0U,
  0x0U, 0x0U, 0x0U, 0x0U,
  0x0U, 0x0U, 0x0U, 0x0U,
  0x0U, 0x0U, 0x0U, 0x0U,
  0x0U, 0x0U, 0x0U, 0x0U,
  0x0U, 0x0U, 0x0U, 0x0U,
  0x0U, 0x0U, 0x0U, 0x0U,
  0xbe9fca79U, 0xbbd9966eU, 0x0U, 0x0U,
  0x0U, 0x0U, 0x0U, 0x0U,
  0x0U, 0x0U, 0x0U, 0x0U,
  0x0U, 0x0U, 0x0U, 0x0U,
  0x0U, 0x0U, 0x0U, 0x0U,
  0x0U, 0x0U, 0x0U, 0x0U,
  0x0U, 0x0U, 0x0U, 0x0U,
  0x0U, 0x0U, 0x0U, 0x0U,
  0x0U, 0x0U, 0x0U, 0x0U,
  0x0U, 0x0U, 0x0U, 0x0U,
  0x0U, 0x0U, 0x0U, 0x0U,
  0x0U, 0x0U, 0x0U, 0x0U,
  0x0U, 0x0U, 0x0U, 0x0U,
  0x0U, 0x0U, 0x0U, 0x0U,
  0x0U, 0x0U, 0x0U, 0x0U,
  0x0U, 0x0U, 0x0U, 0x0U,
  0x0U, 0x0U, 0x0U, 0x0U,
  0x0U, 0x0U, 0x0U, 0x0U,
  0x0U, 0x0U, 0x0U, 0x0U,
  0x0U, 0x0U, 0x0U, 0x0U,
  0x0U, 0x0U, 0x0U, 0x0U,
  0x0U, 0x0U, 0x0U, 0x0U,
  0x0U, 0x0U, 0x0U, 0x0U,
  0x0U, 0x0U, 0x0U, 0x0U,
  0x0U, 0x0U, 0x0U, 0x0U,
  0x0U, 0x0U, 0x0U, 0x0U,
  0x0U, 0x0U, 0x0U, 0x0U,
  0x0U, 0x0U, 0x0U, 0x0U,
  0xbc59966eU, 0xbe07fe05U, 0x0U, 0x3eea962f00000000U,
  0x0U, 0x0U, 0x0U, 0x0U,
  0x0U, 0x0U, 0x0U, 0x0U,
  0x0U, 0x0U, 0x0U, 0x0U,
  0x0U, 0x0U, 0x0U, 0x0U,
  0x0U, 0x0U, 0x0U, 0x0U,
  0x0U, 0x0U, 0x0U, 0x0U,
  0x0U, 0x0U, 0x0U, 0xbbd9966eU,
  0xbbd9966eU, 0xbcd9966eU, 0x0U, 0xbefb95ef00000000U,
  0x0U, 0x0U, 0x0U, 0x0U,
  0x0U, 0x0U, 0x0U, 0x0U,
  0x0U, 0x0U, 0x0U, 0x0U,
  0x3e813151U, 0x3ef4c93cU, 0x0U, 0x0U,
  0x0U, 0x0U, 0x0U, 0x0U,
  0x0U, 0x0U, 0x0U, 0x0U,
  0x0U, 0x0U, 0x0U, 0x3f1fca79U,
  0xbbd9966eU, 0x3da330d2U, 0x3e95976c00000000U, 0x3bd9966e00000000U,
  0x0U, 0x0U, 0x0U, 0x0U,
  0x0U, 0x0U, 0x0U, 0x0U,
  0x0U, 0x0U, 0x0U, 0x0U,
  0x0U, 0x0U, 0x0U, 0x0U,
  0x0U, 0x0U, 0x0U, 0x0U,
  0x0U, 0x0U, 0x0U, 0x0U,
  0x0U, 0x0U, 0x0U, 0x0U,
  0x0U, 0x0U, 0x0U, 0x0U,
  0x0U, 0x0U, 0x0U, 0x0U,
  0x0U, 0x0U, 0x0U, 0x0U,
  0x0U, 0x0U, 0x0U, 0x0U,
  0x0U, 0x0U, 0x0U, 0x0U,
  0x0U, 0x0U, 0x0U, 0x0U,
  0x0U, 0x0U, 0x0U, 0x0U,
  0x0U, 0x0U, 0x0U, 0xbedcfcc8U,
  0x3dcbfd07U, 0xbd2330d2U, 0xbe9c641f00000000U, 0x0U,
  0x0U, 0x0U, 0x0U, 0x0U,
  0x0U, 0x0U, 0x0U, 0x0U,
  0x0U, 0x0U, 0x0U, 0x0U,
  0x0U, 0x0U, 0x0U, 0x0U,
  0x0U, 0x0U, 0x0U, 0x0U,
  0x0U, 0x0U, 0x0U, 0x0U,
  0x0U, 0x0U, 0x0U, 0x0U,
  0x0U, 0x0U, 0x0U, 0x0U,
  0x0U, 0x0U, 0x0U, 0x0U,
  0x0U, 0x0U, 0x0U, 0x0U,
  0x0U, 0x0U, 0x0U, 0x0U,
  0x0U, 0x0U, 0x0U, 0x0U,
  0x0U, 0x0U, 0x0U, 0x0U,
  0x0U, 0x0U, 0x0U, 0x0U,
  0x0U, 0x0U, 0x0U, 0x0U,
  0x0U, 0x0U, 0x0U, 0x0U,
  0x0U, 0x0U, 0x0U, 0x0U,
  0x0U, 0x0U, 0x0U, 0x0U,
  0x0U, 0x0U, 0x0U, 0x0U,
  0x0U, 0x0U, 0x0U, 0x0U,
  0x0U, 0x0U, 0x0U, 0x0U,
  0x0U, 0x0U, 0x0U, 0x0U,
  0x0U, 0x0U, 0x0U, 0x0U,
  0x0U, 0x0U, 0x0U, 0x0U,
  0x0U, 0x0U, 0x0U, 0x0U,
  0x0U, 0x0U, 0x0U, 0x0U,
  0xbcd67ed8ba8365e7U, 0xba222d563d58717eU, 0xba3b5105baadd85fU, 0x3baa37eebca4fcd9U,
  0xba99fb12ba3bde1bU, 0xbc32bd0a3e786f42U, 0xbcc58834bc383607U, 0xbc7b4c2ab9e8f9f6U,
  0xbdcc4c78bc2212beU, 0x3e6627d7bbd478e9U, 0xbcce86623db24913U, 0xbc5e20adbd2874a8U,
  0x3e6c1244bd2478d2U, 0xbc8fd575bc44f180U, 0xbcb3ab40bce94ea9U, 0xbb716a61bc6ed537U,
  0x39455cadb986584bU, 0x388ce332b88c8411U, 0xb7ec10d0b98f5511U, 0xb899c17639392de1U,
  0xb8a6ef22b816959aU, 0x376c1f28b98fce90U, 0xb902c754385ea8beU, 0x38da1acbb7245608U,
  0x39010df0b9ce96b0U, 0x39034cb038b8c29aU, 0x392a3e6e3847555dU, 0xb97f95543811d872U,
  0x3748c1e8b80bd5c5U, 0x386556cb398aaf10U, 0xb7cf68b239153a4eU, 0x3938f3dfb81b5b1aU,
  0xb98eded4b68a3ff0U, 0xb6c2f1003daa344eU, 0xb8acb24eb8a75461U, 0x390ae6ffb91f5b6cU,
  0xb87bb588b90eeafcU, 0xb93a254cb88636eeU, 0xb8e6a7d8390e3291U, 0x3872171d39756274U,
  0xb9823094b922bbf6U, 0xb950ea9cb84bf160U, 0x3e4d54f9b8f95b58U, 0xb8203d77b9598d63U,
  0xb95329e2b900f05aU, 0x37734e40b88580d8U, 0x38e4247eb8248eaeU, 0xb8dbfd8b38bf1354U,
  0x38a1d58c38e47e6fU, 0xb8c146aebcae72a3U, 0xb728b7e8b8655afcU, 0x386d6e66b932c166U,
  0x38e758f638da5f2dU, 0x39612b803a0f91cfU, 0xb8857c1f3816d99eU, 0x3921791538724d36U,
  0x3574c500388bdee0U, 0x38c56e4eb8894c04U, 0x3e887acebe79693cU, 0x38ab9c50b93978d6U,
  0xbe819a56b7331038U, 0x39226c22389239dcU, 0xb992b14cb90dd40eU, 0x38e356b9b94ee384U,
  0x36406fc837b40ef0U, 0xb904ace33e3ac2fbU, 0xb81a0f5bb9206c84U, 0xb6ba9398b9c7ff95U,
  0xb6b23244393c8505U, 0x380eee3b367d2900U, 0xb968b38db88f5328U, 0x38da1e833946270aU,
  0x3996bc5cb89122eaU, 0x394ddae4391091b0U, 0xb98b6cd83e7c22e0U, 0x37a992a038bd8e1aU,
  0xb8acdad5b914d927U, 0xb7c961bab88f0132U, 0xb8a0aef8b98423aeU, 0x38438755b973e39dU,
  0x3965cf2a391f0910U, 0x3a236eae39023b32U, 0xb82f0705b72bf810U, 0xb92ed330b980756aU,
  0xb8d6926038fda25cU, 0x3908af9039d3b41dU, 0xb8208170392174f6U, 0x37fd009039280ee6U,
  0xb79a273239762e05U, 0xb755722838db9c52U, 0xb7ae1f14398f77e0U, 0x39595d00b7ee1f7cU,
  0xb8bf35bcb8f87c60U, 0xb5639780b88321c5U, 0xb8d0df4bb8c393acU, 0xb9139bf2b8347cd7U,
  0x36f3e953b9e4259cU, 0x38e4e16f37885bc0U, 0x39fe37fcb719f0c2U, 0x3990799437058428U,
  0x398009c3b9cd7cbaU, 0x38406d32b96fce84U, 0xb8bd103037a574d2U, 0xb807bc12b63a8eb0U,
  0x379d0ff0b8ab83ecU, 0xb85ea91038f13235U, 0x389664ac3858a4b5U, 0xb8f3bdbdb8651f50U,
  0x390247f539e51164U, 0xb82eab3eb94ffe7eU, 0xb901d8b238c1c24dU, 0xb781cf0e38aa3570U,
  0x3820f2c135fb3040U, 0xb896d60eb89534f7U, 0xb9099d0439261d4dU, 0xbf166dee3861ec2cU,
  0xb916ec3438c0bad9U, 0x38c2d99fbeaa5490U, 0xb74700e8b85225deU, 0x3884e745b8d726f3U,
  0x39416f7a37858534U, 0xb8aac3d73870d740U, 0xbe4241ae3e157029U, 0xb8439910383e95b2U,
  0x3eb694373796b39cU, 0x36fa51a0379af9caU, 0xb7d9a2cc39328fe3U, 0xb962b9a5b8cdba0cU,
  0xb897cc1cb8987fe8U, 0x37d083ce3843288aU, 0xb8ea6434b7e4c3f6U, 0xb89d36ecb8146814U,
  0x388b6081b98807ebU, 0x388cb251b901699dU, 0xb70ecf143847ed6aU, 0x37121fdc38d75d8eU,
  0x397eb7a8389d92b3U, 0xb9a7e5e0b864a0feU, 0xb935553438962443U, 0x39a32110b9010442U,
  0x3930c28738b7e658U, 0xb96f1bf439266142U, 0x3803e826397b94e7U, 0x385d20e6395b0494U,
  0xb93a557537d58b4cU, 0xb87c0e9038675caeU, 0xb7c4633c389bb5abU, 0xb84d8e4a38027a64U,
  0xb84623463983055cU, 0x397a7cb239644e7cU, 0x3990e96438897f6aU, 0xb94801ee38ee1b1aU,
  0x38b570cf359c4340U, 0xb8f2e3c0b982c01eU, 0xb7cd8058387db110U, 0xb9a1242eb72c8e6eU,
  0xb84f8dd6b9778166U, 0x38dfce31b897f283U, 0xb8a6fb0a38819f7eU, 0xb962da1ab9108e22U,
  0xb8a258513821bce4U, 0xb942805abe12c966U, 0x383aa645b8d77207U, 0xb88d87c4b905a1dcU,
  0xb8a8a903381766a2U, 0xb93a83993858af07U, 0xb861b0ba353e01c0U, 0x37806f98b91b4ccbU,
  0x3976301d389d7a2aU, 0x3afa3cfc38aea1a1U, 0xbeb38963389dfca2U, 0xb89dbeeeb93ec1b2U,
  0x3e39f8263914d73dU, 0xb84db358b77d6d50U, 0x385a925438a4ef3dU, 0x396657a9b871456aU,
  0xb88c1811b914b0b6U, 0xb910e13eb879ec17U, 0x39071f2db913b450U, 0xb7bf98ac370e0ac8U,
  0xb89bd1ee38c86713U, 0x380fd482b7f98b57U, 0xb8fc988937fc8ed0U, 0xb8293a08b8acb029U,
  0xb8662f34390aa275U, 0xb842cda4b901fad0U, 0x38932a103855033cU, 0xb69e4d1837ac97f6U,
  0x36c2a0f237a61137U, 0xb7c85d16b897802aU, 0xb8e01d2ab89513d8U, 0xb788a6ccb9d1b4a0U,
  0xb98d6e66b8c9d579U, 0xb885f53f3f267691U, 0xb8b7f80db9218da1U, 0x38aed5e639015949U,
  0x38720d85b82ec29cU, 0x38c22d77b93725e0U, 0x387b7364393011adU, 0xb8bb54b43652aa20U,
  0xb8affdf9395db321U, 0x3929da563921a2f8U, 0x39323c103ee03082U, 0xb8c431afb889bc5aU,
  0x3bd18cb0b650f540U, 0x3939899ab7911c6cU, 0xb92bf2d6b8298870U, 0x3880c0ceb91a4088U,
  0x3795261bb7171b6eU, 0x3906e229b6f1242cU, 0x3751a2b0b928cf50U, 0x37bac998391a222fU,
  0xb9f96497b89b1ea6U, 0x38858452397bdd0aU, 0x39301686b768af3cU, 0x37320af8b804ec5aU,
  0x38123c52b90d9871U, 0x38bc5a2537a8adfcU, 0xb8dcc9ff367e86b0U, 0x387c3a30b6b75e8cU,
  0xb917e284b766c470U, 0x37717c28b93af1faU, 0x38d66d72b82b71a6U, 0xb87e831239236636U,
  0x381aac30b91d6873U, 0xb82e69523d16a416U, 0xb8a733b337a7492dU, 0x39cc778db81f234eU,
  0xb8a5ee4539a87178U, 0xb91a91d3b860ed9cU, 0xb8bb749f37e11124U, 0xb93fe7e63854c0e2U,
  0x3f1577cfb895b1a9U, 0xbf09816cb890540bU, 0x3b30373c3c46a037U, 0x380c8cfc38a60628U,
  0x38f9b8fc379bae8cU, 0x38b4f3a13967ff01U, 0x39873886b8076218U, 0x3921818eb89557fdU,
  0x38b6077e367c92e0U, 0x39bbd66039022cfcU, 0xb899b60e35526600U, 0xb8cf35e1397d7468U,
  0x396857b0b94975d8U, 0x38ec0df538a03625U, 0xb94ba158b961490bU, 0x3890f054b899a68aU,
  0x390a028cb8547300U, 0x3866b19c3995a007U, 0x39e0f37839381f11U, 0xb9119d8fb9600974U,
  0x393fb545b8c1530dU, 0x38bb94d8b8d6c988U, 0x384e387038f36f10U, 0xb9a10cec37285da0U,
  0xb858d1dc39627beaU, 0xb913517c39101154U, 0x38c4044b39437e07U, 0xb89cf5feb92a86e7U,
  0x38952ae7391f1350U, 0xb8f0e8b5b8b1dc6dU, 0x38ff3d1238303fecU, 0xb74306f83984a613U,
  0x3983576837e5c100U, 0xb9476630b8114dfbU, 0x396c2385376423b0U, 0x3917714539012be2U,
  0xb8bfcd06b8d460abU, 0x3919299c37088570U, 0xb7e90648358dbf00U, 0xb90f0d48ba081f0aU,
  0xbd5e9d59ba0f1239U, 0x3e4ed40c3d5e7ae5U, 0xbca7dcc2bc18a8e2U, 0xbc2049253e46709eU,
  0x3dc2e3bbbcdbe5baU, 0x3dc20358bcaf8291U, 0x3d95e004bc3d3fcfU, 0xbc8cffe8bc62fd19U,
  0x388f2997b902e97cU, 0xb884510a37ec148eU, 0x35441240378f0344U, 0xb9a8dc2b389b18d6U,
  0xb7b4822039b04de3U, 0xb8eb896e39ac7a1aU, 0x38bed005b8fb2f40U, 0x38f3c656b8b29358U,
  0xba39a3f0b8bdb918U, 0x3d43d2fcba272aa7U, 0x38e45f51b92b787eU, 0x389a56833e2d5a7fU,
  0x38873122b9367b27U, 0x3d618025b9097ff6U, 0x3d76e41fb941ac19U, 0xb92618c83970f25aU,
  0xb985291338ffd6d1U, 0x3e178786ba373219U, 0xb905804435e607c0U, 0x37c2fe08b8827733U,
  0xb924d074b8ef1630U, 0x3dced953b8f57881U, 0xb8bab0de398a7a3dU, 0x3905fae6b93e64deU,
  0x3945ae82389f63f6U, 0x388fb42838b23808U, 0x38cc55c33928e457U, 0xb8b7f5ca38231695U,
  0x388c4d4738a904adU, 0x38e1d733398bd3fbU, 0xb8f35b16b8eb1e8aU, 0xb8e63626b980cc9aU,
  0x39d33083394d88b8U, 0x3bd73d8d3a16eeaeU, 0xb81d4ff4b97f82d8U, 0xb92373263e85a509U,
  0x3d1582a0395ecf30U, 0xb7b8a3ee3838acd8U, 0xbf0768bf38fb6866U, 0xb9a16914b806d6ccU,
  0xb82c20ccb8e1c12cU, 0xb907a81cbe29ac09U, 0x38b222a4384a0494U, 0x39310bd23dbfc86aU,
  0x3c5b3c8236d0a8b0U, 0xbdb10417b8f37408U, 0xbc895f9337537970U, 0xb7ca539cb8852d2cU,
  0xbda84b5c38bb0dd5U, 0x3d2dff0c3f0f269eU, 0x38f07cfbb7af9460U, 0xb7a6e7d8beb74aa0U,
  0xbebd863ab86daadcU, 0x3d83073e38e15cc3U, 0xb89029a2b8b7e91eU, 0x3944d98eb8b982daU,
  0x3e23238839820684U, 0x3de051aaba2148faU, 0xb8bc6c803989b0ecU, 0xb9055c8a3d34c9d2U,
  0x3e6ce4edb881ec2eU, 0x3ecbd591b9050378U, 0xb7a04544b8e52983U, 0xb83ba004b6a808b0U,
  0xba659c7eb9768fceU, 0x380fd42a3a18d7d9U, 0x38920f0ab9128594U, 0x39070bacbea73662U,
  0xb9809afe38f40bb9U, 0x37e2f174398bc74cU, 0xbd7e2b32b9dba588U, 0x389a7783392642a4U,
  0xb86e5afab8753a1aU, 0xb88d9564bc5dc36bU, 0xb7a9ec1438fc1823U, 0x38eae53839376eb0U,
  0x3a903b7c394cd806U, 0xbd3159e33963fa1eU, 0xbe8f56cf3908251eU, 0x379f6f703931bfa8U,
  0xb84bd484b88afbe1U, 0x38c64aa5388c9c6cU, 0x39348a24376e5d68U, 0x37339760388fc0b2U,
  0xb824639e385cc128U, 0xb95035b6b85bb9bdU, 0xb8168423b720d958U, 0xb8c92e9ab7ebb830U,
  0xba86ddfbb9369026U, 0x3969c87cba9a031eU, 0x393cdb73b88e6a80U, 0xb8e4bd9d39ff6456U,
  0xb9ab5043384d360aU, 0x39cd461939765c3eU, 0x391856943887fe86U, 0x383c6283b9ca2929U,
  0xb8529a91388aa5d0U, 0xb93ce47cb8c2ebe5U, 0x38a1f16d3907ed5eU, 0x398caf8339e26ca1U,
  0xb819e266b89ed9f9U, 0x39a3e138b953ae16U, 0xb909dc813737b870U, 0xb766796039093e20U,
  0x39528220384184deU, 0xb7e306793897abfaU, 0xb6c25b38b8255e2eU, 0x390a14983783db6fU,
  0xb92578c2b8185a49U, 0x3e3900903713ae90U, 0xbdc015db38a66824U, 0x39a496a9b89f1916U,
  0x399b1f24381d9e90U, 0xb995f8943c14987cU, 0x394c8b44b92ec61eU, 0x38a7a344b914e745U,
  0xb70fdf8439061a6dU, 0xbe00dfcab82e2f18U, 0x3a0ac650b953b976U, 0xb9175f4d394f47fdU,
  0xb9a72e48388a51acU, 0x3e58d048ba91c3eeU, 0x390e1eceb64458c0U, 0x38893918b86c20bfU,
  0xb9368022b95373c1U, 0x3e6245f4b89059d8U, 0xb804034d38809a78U, 0xb804d53a3880cc38U,
  0x3e9f5ec5bd255c0fU, 0xbca28e2dbd64e8beU, 0x3c81da1e3d9d9eb2U, 0x3c17dc7c3df5824fU,
  0x3d016d5b3de4a83eU, 0x3e8b09d1bb9edc96U, 0xbceed17dbc5cbd7eU, 0xbdd0d1f43d757f55U,
  0x3f279b5f3eedd63cU, 0xbe86943e3ee49899U, 0x40de34d63fc0f6b4U, 0x3f9ca26dc01a4cd4U,
  0x401616e5bfd51dbbU, 0x3e08245abeb773d3U, 0x3ed2cdb2bf03bf47U, 0xbf45778dbfb89285U,
  0x3f72a370bf031790U, 0xbe4bc9103e4b189bU, 0x3e229b2fc0101da9U, 0x3e67d810be1cd594U,
  0xc0d4d0fabf963c84U, 0x3f3f3ed8bf84d085U, 0xbfb0b9d2bd2984c3U, 0xbd71ad783f9ab611U,
  0x3e82ab9abdbc97e8U, 0xbde570343f95d1c0U, 0x3f1a8a3fbe670de6U, 0x3f935a3b3ed0e46aU,
  0x3de216ea3e27ba16U, 0x3d94c415be8e4ca9U, 0x3f8365653e6b0d2eU, 0x3f8f3afebedc9961U,
  0x3eae5ac73e409fa2U, 0xbe268b8eU,
};


ai_buffer g_network_data_map_activations[AI_NETWORK_DATA_ACTIVATIONS_COUNT] = {
  AI_BUFFER_INIT(AI_FLAG_NONE,  AI_BUFFER_FORMAT_U8,
    AI_BUFFER_SHAPE_INIT(AI_SHAPE_BCWH, 4, 1, 256, 1, 1),
    256, NULL, NULL),    /* heap_overlay_pool */
  };
ai_buffer g_network_data_map_weights[AI_NETWORK_DATA_WEIGHTS_COUNT] = {
  AI_BUFFER_INIT(AI_FLAG_NONE,  AI_BUFFER_FORMAT_U8,
    AI_BUFFER_SHAPE_INIT(AI_SHAPE_BCWH, 4, 1, 40780, 1, 1),
    40780, NULL, s_network_network_weights_array_u64),   /* network_weights_array */
  };


/*!
 * @brief Get network activations buffer initialized struct.
 * @ingroup network_data
 * @param[in] ptr a pointer to the activations array storage area
 * @return an ai_buffer initialized struct
 */
AI_DEPRECATED
AI_API_ENTRY
ai_buffer ai_network_data_activations_buffer_get(const ai_handle ptr)
{
  ai_buffer buf = AI_BUFFER_INIT(
    AI_FLAG_NONE, AI_BUFFER_FORMAT_U8,
    AI_BUFFER_SHAPE_INIT(AI_SHAPE_BCWH, 4, 1, AI_NETWORK_DATA_ACTIVATIONS_SIZE, 1, AI_NETWORK_DATA_ACTIVATIONS_COUNT),
    AI_NETWORK_DATA_ACTIVATIONS_SIZE,
    NULL, ptr);
  return buf;
}

/*!
 * @brief Get network weights buffer initialized struct.
 * @ingroup network_data
 * @param[in] ptr a pointer to the weights array storage area
 * @return an ai_buffer initialized struct
 */
AI_DEPRECATED
AI_API_ENTRY
ai_buffer ai_network_data_weights_buffer_get(const ai_handle ptr)
{
  ai_buffer buf = AI_BUFFER_INIT(
    AI_FLAG_NONE, AI_BUFFER_FORMAT_U8|AI_BUFFER_FMT_FLAG_CONST,
    AI_BUFFER_SHAPE_INIT(AI_SHAPE_BCWH, 4, 1, AI_NETWORK_DATA_WEIGHTS_SIZE, 1, AI_NETWORK_DATA_WEIGHTS_COUNT),
    AI_NETWORK_DATA_WEIGHTS_SIZE,
    NULL, ptr);
  return buf;
}


/*!
 * @brief Get network weights array pointer as a handle ptr.
 * @ingroup network_data
 * @return a ai_handle pointer to the weights array
 */
AI_DEPRECATED
AI_API_ENTRY
ai_handle ai_network_data_weights_get(void)
{
  static const ai_u8* const s_network_weights_table[1 + 2] = {
    AI_PTR(AI_MAGIC_MARKER),
    AI_PTR(s_network_network_weights_array_u64),
    AI_PTR(AI_MAGIC_MARKER)
  };

  return AI_HANDLE_PTR(s_network_weights_table);

}


/*!
 * @brief Get network params configuration data structure.
 * @ingroup network_data
 * @return true if a valid configuration is present, false otherwise
 */
AI_API_ENTRY
ai_bool ai_network_data_params_get(ai_network_params* params)
{
  if (!params) return false;
  
  const ai_buffer_array map_activations = 
    AI_BUFFER_ARRAY_OBJ_INIT(AI_FLAG_NONE, AI_NETWORK_DATA_ACTIVATIONS_COUNT, g_network_data_map_activations);
  
  const ai_buffer_array map_weights = 
    AI_BUFFER_ARRAY_OBJ_INIT(AI_FLAG_NONE, AI_NETWORK_DATA_WEIGHTS_COUNT, g_network_data_map_weights);

  return ai_platform_bind_network_params(params, &map_weights, &map_activations);
}


AI_API_DECLARE_END
