
/**
  ******************************************************************************
  * @file    network_data.c
  * @author  AST Embedded Analytics Research Platform
  * @date    Wed Mar 16 10:34:57 2022
  * @brief   AI Tool Automatic Code Generator for Embedded NN computing
  ******************************************************************************
  * @attention
  *
  * Copyright (c) 2021 STMicroelectronics.
  * All rights reserved.
  *
  * This software is licensed under terms that can be found in the LICENSE file
  * in the root directory of this software component.
  * If no LICENSE file comes with this software, it is provided AS-IS.
  ******************************************************************************
  */
#include "network_data.h"
#include "ai_platform_interface.h"

AI_API_DECLARE_BEGIN

AI_ALIGNED(32)
const ai_u64 s_network_network_weights_array_u64[ 5698 ] = {
  0x3d9619243c1c9fcdU, 0x3c9c9fcd3dd0d511U, 0xbc82852b3c50d511U, 0xbdb6ba6f3c50d511U,
  0xbd6aefb33d9c9fcdU, 0xbc50d511be2669caU, 0xbd77fd043c82852bU, 0xbd29ad1ebe0c4f27U,
  0x3c50d5113dc3c7c0U, 0xbceaefb33d5de262U, 0xbb50d511U, 0x3c9c9fcd3c82852bU,
  0x3d02852bbcb6ba6fU, 0x3dca4e68bd1c9fcdU, 0x3d9c9fcdbda9ad1eU, 0xbbd0d5113d02852bU,
  0xbe0c4f273c82852bU, 0x3cb6ba6fbd961924U, 0xbc82852b3d0f927cU, 0x3dd0d511bd1c9fcdU,
  0x3c82852bbdb6ba6fU, 0xbdbd41173da9ad1eU, 0x3ceaefb33d1c9fcdU, 0xbbd0d511bd1c9fcdU,
  0x3d1c9fcd3ceaefb3U, 0xbceaefb3bd29ad1eU, 0xbd5de2623d50d511U, 0xbe0f927c3df1765cU,
  0xbdf1765c3e0c4f27U, 0xbdca4e683df1765cU, 0xbcb6ba6f3c50d511U, 0xbdfe83ad3d8f927cU,
  0xbceaefb33d5de262U, 0x3e4d91bdbc1c9fcdU, 0xbdd75bba3d02852bU, 0x3d82852bbc1c9fcdU,
  0xbd1c9fcdbd50d511U, 0xbcb6ba6f3d961924U, 0x3d50d5113d5de262U, 0x3d43c7c03c9c9fcdU,
  0x3c50d5113e090bd3U, 0x3d8f927cbd9c9fcdU, 0x3c1c9fcd3c9c9fcdU, 0xbd0f927c3d82852bU,
  0x3d29ad1ebc50d511U, 0x3cb6ba6f3c9c9fcdU, 0xbd5de262bd5de262U, 0xbc1c9fcd3e2669caU,
  0xbd29ad1ebd82852bU, 0xbcb6ba6fbe161924U, 0x3d1c9fcd3c82852bU, 0x3df1765cbbd0d511U,
  0xbe1619243df7fd04U, 0xbd36ba6f3bd0d511U, 0x3d6aefb3bd8f927cU, 0xbdfe83adbdbd4117U,
  0xbd5de262bd36ba6fU, 0x3bd0d511bd890bd3U, 0x3d02852b3d9c9fcdU, 0x3d77fd0400000000U,
  0xbb50d5113ceaefb3U, 0x3de4690bbb50d511U, 0x3e6e33073d1c9fcdU, 0x3d82852bbd82852bU,
  0xbbd0d511bb50d511U, 0x3c50d5113d8f927cU, 0xbddde2623e02852bU, 0xbc9c9fcd3d43c7c0U,
  0x3cd0d511bdc3c7c0U, 0x3da9ad1e3d1c9fcdU, 0xbd5de262bd02852bU, 0x3cd0d5113bd0d511U,
  0xbdca4e683e0c4f27U, 0xbd82852b3db033c6U, 0xbdeaefb33d82852bU, 0xbc1c9fcd3dca4e68U,
  0x3d36ba6fbd36ba6fU, 0x3da32675bd77fd04U, 0xbe4d91bdbe12d5d0U, 0xbdbd41173dca4e68U,
  0x3e2326753c9c9fcdU, 0x3d8f927c3e12d5d0U, 0xbdb6ba6fbd29ad1eU, 0x3d961924bc1c9fcdU,
  0x3ddde262bd5de262U, 0x3dbd4117be40846cU, 0x3d36ba6f00000000U, 0xbdb033c6bd02852bU,
  0xbc50d5113dd75bbaU, 0xbe090bd33d36ba6fU, 0x3e05c87f3d43c7c0U, 0xbd1c9fcdbdfe83adU,
  0x3d77fd043d36ba6fU, 0xbd82852bbd890bd3U, 0x3c9c9fcd3dc3c7c0U, 0x3d0f927c3ceaefb3U,
  0xbe5a9f0ebcd0d511U, 0x3df1765c3c1c9fcdU, 0x3d50d511bbd0d511U, 0x3c9c9fcd3c82852bU,
  0xbc50d511bd43c7c0U, 0xbe12d5d0bceaefb3U, 0xbe4d91bdbd43c7c0U, 0xbcd0d511bdb6ba6fU,
  0x3d0f927c3c82852bU, 0xbda9ad1ebddde262U, 0x3d50d511bdbd4117U, 0x3d890bd3bceaefb3U,
  0x3c82852bbceaefb3U, 0x3d43c7c03deaefb3U, 0x3db033c6be1c9fcdU, 0xbda9ad1ebe05c87fU,
  0xbceaefb33d36ba6fU, 0xbe05c87fbdc3c7c0U, 0xbdb6ba6f00000000U, 0xbc9c9fcd3e161924U,
  0x3d0f927c3d6aefb3U, 0xbdc3c7c0bdeaefb3U, 0x3bd0d511bb50d511U, 0xbddde2623bd0d511U,
  0x3d02852bbdd0d511U, 0x3d36ba6f3d6aefb3U, 0x3dfe83ad3bd0d511U, 0x3deaefb33ceaefb3U,
  0x3d1c9fcd3db6ba6fU, 0x3d5de2623c50d511U, 0x3d77fd043d50d511U, 0x3d8f927cbcb6ba6fU,
  0xbb50d5113d961924U, 0x3d1c9fcdbdca4e68U, 0xbdeaefb33deaefb3U, 0x3d1c9fcdbceaefb3U,
  0xbe8426d5bd890bd3U, 0x3d02852b3d50d511U, 0xbd5de262bd29ad1eU, 0xbd6aefb3bd02852bU,
  0x3e0f927cbddde262U, 0xbceaefb3bdca4e68U, 0x3d0f927c3cd0d511U, 0x3d1c9fcdbd5de262U,
  0x3d36ba6fbd961924U, 0x3d43c7c03c9c9fcdU, 0x3d77fd04bdeaefb3U, 0xbe2326753d77fd04U,
  0x3e05c87f3da9ad1eU, 0xbe39fdc3bddde262U, 0x3d6aefb33e12d5d0U, 0x3c50d511bd43c7c0U,
  0xbdb033c600000000U, 0x3d77fd043d50d511U, 0x3df1765cbdfe83adU, 0x3e0c4f27be090bd3U,
  0xbdd75bbabbd0d511U, 0xbc9c9fcd3dd75bbaU, 0xbdbd41173bd0d511U, 0x3d29ad1e3dc3c7c0U,
  0x3da32675bdd0d511U, 0x3d5de262bdb033c6U, 0x3d6aefb3U, 0xbc1c9fcdbe33771bU,
  0xbc9c9fcd3dd75bbaU, 0xbc50d511be0c4f27U, 0x3d43c7c0be64690bU, 0xbd02852b3db6ba6fU,
  0x3d0f927cbe232675U, 0xbd9619243e02852bU, 0x3d29ad1e3bd0d511U, 0xbd02852bbd29ad1eU,
  0xbd36ba6fbc9c9fcdU, 0x3d02852b3c82852bU, 0x3da9ad1e3d9c9fcdU, 0x3dfe83ad3cb6ba6fU,
  0x3d43c7c03cb6ba6fU, 0x3d890bd3bd0f927cU, 0x3d02852bbe2cf072U, 0xbdeaefb33c1c9fcdU,
  0x3d36ba6fbc1c9fcdU, 0xbcb6ba6fbe195c78U, 0x3d0f927c3ceaefb3U, 0x3d0f927c3c50d511U,
  0x3d36ba6fbcb6ba6fU, 0x3d6aefb33de4690bU, 0x3dbd4117be161924U, 0x3df7fd04bdeaefb3U,
  0xbda9ad1ebe575bbaU, 0x3e67ac5f3bd0d511U, 0xbd0f927c3c50d511U, 0xbc82852bbd890bd3U,
  0xbdf7fd043da32675U, 0x3e05c87f3d50d511U, 0x3d02852b00000000U, 0xbe29ad1ebc9c9fcdU,
  0xbd02852b3dca4e68U, 0xbe2326753cd0d511U, 0xbd961924bcb6ba6fU, 0xbd8f927cbd5de262U,
  0x3c9c9fcd3dbd4117U, 0xbd8f927c3ddde262U, 0xbdb033c6bd50d511U, 0xbda326753c82852bU,
  0x3d50d511bd29ad1eU, 0x3deaefb33ceaefb3U, 0x3d36ba6fbe33771bU, 0x3d0f927c3cd0d511U,
  0xbda326753bd0d511U, 0x3df1765cbd1c9fcdU, 0xbe0c4f273e12d5d0U, 0xbdf7fd043e0f927cU,
  0x3dbd4117be2669caU, 0xbd890bd3be470b14U, 0x3d6aefb33e02852bU, 0x3d43c7c03e02852bU,
  0xbd77fd04bd8f927cU, 0x3ceaefb33d1c9fcdU, 0x3d29ad1ebd29ad1eU, 0xbdfe83ad3b50d511U,
  0xbd9c9fcd3e36ba6fU, 0xbbd0d511bd29ad1eU, 0x3dbd411700000000U, 0xbddde262bd8f927cU,
  0x3d77fd043dca4e68U, 0xbe195c78bd36ba6fU, 0x3d77fd043d9c9fcdU, 0x3db033c6bd961924U,
  0xbd82852bbd890bd3U, 0xbd02852b3e1fe321U, 0xbd890bd3bc1c9fcdU, 0x3d02852bbd1c9fcdU,
  0x3d02852bbc82852bU, 0x3d6aefb33c82852bU, 0xbddde2623d43c7c0U, 0x3d0f927cbe470b14U,
  0xbd02852b3d890bd3U, 0x3c9c9fcd3cb6ba6fU, 0xbdb033c63b50d511U, 0xbd43c7c03dd75bbaU,
  0x3d29ad1ebdbd4117U, 0xbd5de262bc50d511U, 0x3cd0d511bc1c9fcdU, 0x3bd0d5113d890bd3U,
  0xbe02852bbd82852bU, 0x3e0f927c3de4690bU, 0x3cb6ba6fbcb6ba6fU, 0x3c9c9fcd3d36ba6fU,
  0x3cb6ba6fbd77fd04U, 0x3c82852b3c82852bU, 0xbdb033c63bd0d511U, 0x3ceaefb3bd0f927cU,
  0x3e1619243c9c9fcdU, 0x3d5de262bd890bd3U, 0xbe50d5113dbd4117U, 0xbd9c9fcdbc50d511U,
  0xbdc3c7c03d02852bU, 0xbd890bd33d8f927cU, 0x3bd0d5113dca4e68U, 0x3e470b143ceaefb3U,
  0x3d1c9fcd3e05c87fU, 0x3e33771bbdf7fd04U, 0xbda32675U, 0xbe1fe321be195c78U,
  0xbd890bd300000000U, 0x3d9c9fcdbd77fd04U, 0x3ceaefb3bdbd4117U, 0x3d50d511bde4690bU,
  0x3d29ad1ebcd0d511U, 0xbda32675bd36ba6fU, 0x3da9ad1e3da32675U, 0x3dca4e68be195c78U,
  0xbb50d511bceaefb3U, 0xbe2669ca3d82852bU, 0x3d5de262bd02852bU, 0xbceaefb3bd77fd04U,
  0x3e161924bc9c9fcdU, 0xbd02852b3d43c7c0U, 0xbd5de2623ddde262U, 0x3d36ba6fbcd0d511U,
  0x3d82852bbd0f927cU, 0xbd6aefb3bd02852bU, 0x3dca4e683d50d511U, 0xbd36ba6fbda32675U,
  0x3dc3c7c0bd82852bU, 0xbe470b143db6ba6fU, 0xbd02852b3da32675U, 0xbc50d5113d29ad1eU,
  0xbceaefb3U, 0xbc82852b3db6ba6fU, 0xbda9ad1e3cb6ba6fU, 0x3e3033c6bddde262U,
  0xbc82852b3db033c6U, 0x3c9c9fcdbdbd4117U, 0xbd9c9fcd3e50d511U, 0xbcb6ba6f3c50d511U,
  0x3d6aefb33e1c9fcdU, 0xbe1fe321bceaefb3U, 0x3d0f927cbd1c9fcdU, 0x3ddde262be1c9fcdU,
  0x3d77fd04bcd0d511U, 0x3d50d5113dc3c7c0U, 0xbe161924be090bd3U, 0x3e2cf072be6aefb3U,
  0x3d8f927cbd0f927cU, 0x3d6aefb33bd0d511U, 0x3c50d5113d1c9fcdU, 0x3d02852bbd0f927cU,
  0xbd77fd04bdfe83adU, 0x3df1765cbd77fd04U, 0x3c50d5113d29ad1eU, 0xbd77fd04bdd75bbaU,
  0xbda9ad1ebc50d511U, 0x3dca4e683c82852bU, 0x3dd75bbabd8f927cU, 0x3de4690bbe2cf072U,
  0x3c50d5113de4690bU, 0x3dd0d511bd43c7c0U, 0xbd6aefb33e7e83adU, 0x3da9ad1e3d5de262U,
  0x3cb6ba6fbcd0d511U, 0xbdb6ba6f3d36ba6fU, 0x3dd0d5113db6ba6fU, 0xbe090bd33e876a29U,
  0x3dca4e68bcd0d511U, 0x3d02852b3e5de262U, 0xbe12d5d0bd77fd04U, 0xbd82852bbe0c4f27U,
  0xbd6aefb3bd77fd04U, 0x3e0f927c3e7e83adU, 0xbda32675bd82852bU, 0xbd890bd33e33771bU,
  0xbc50d5113e0c4f27U, 0xbd961924bcb6ba6fU, 0xbd82852b3dd75bbaU, 0xbda9ad1ebb50d511U,
  0xbdca4e683deaefb3U, 0x3e0c4f273c9c9fcdU, 0xbdc3c7c0bd6aefb3U, 0x3c50d511bc82852bU,
  0x3d82852bbd29ad1eU, 0xbd8f927c3e0c4f27U, 0xbc1c9fcdbd1c9fcdU, 0x3d1c9fcd3d43c7c0U,
  0xbe1fe3213e090bd3U, 0xbd50d511bd0f927cU, 0x3da326753de4690bU, 0xbc1c9fcdbe1fe321U,
  0x3dc3c7c03bd0d511U, 0xbcd0d511bd50d511U, 0xbb50d511bc82852bU, 0xbcb6ba6f3c1c9fcdU,
  0x3b50d5113c9c9fcdU, 0x3d02852bbc50d511U, 0x0U, 0x0U,
  0xbdd0d5113db033c6U, 0x3d961924bd02852bU, 0xbceaefb33d36ba6fU, 0x3cb6ba6fbdbd4117U,
  0xbd8f927cbe090bd3U, 0x3d1c9fcdbd43c7c0U, 0x3ceaefb33d6aefb3U, 0x3c1c9fcdbdbd4117U,
  0xbd1c9fcdbd890bd3U, 0xbd36ba6f3dfe83adU, 0x3ddde262bdd75bbaU, 0x3d29ad1ebb50d511U,
  0xbd29ad1ebd43c7c0U, 0x3db033c63d890bd3U, 0x3d6aefb33e2cf072U, 0xbe1fe321bc9c9fcdU,
  0x3bd0d5113c9c9fcdU, 0x3b50d511bd36ba6fU, 0x3d43c7c03dbd4117U, 0x3d0f927c3cd0d511U,
  0x3ddde262bd961924U, 0xbe1fe321bc1c9fcdU, 0x3dd75bba3cd0d511U, 0xbd50d511be5a9f0eU,
  0x3e12d5d0bbd0d511U, 0x3d29ad1ebe02852bU, 0xbdeaefb33dca4e68U, 0xbe195c783d36ba6fU,
  0xbe02852b3e82852bU, 0xbc9c9fcdbdb6ba6fU, 0x3df1765cbd77fd04U, 0x3e090bd3bc82852bU,
  0x3d890bd3bc9c9fcdU, 0x3c1c9fcd3db033c6U, 0xbcb6ba6fbddde262U, 0x3ceaefb3bc9c9fcdU,
  0xbb50d511bd43c7c0U, 0x3da9ad1e3c82852bU, 0x3d02852bU, 0x3d5de2623ceaefb3U,
  0x3dd75bba3da9ad1eU, 0x3c9c9fcdbd0f927cU, 0x3e1c9fcdbde4690bU, 0xbc9c9fcdbd0f927cU,
  0x3d77fd04bd1c9fcdU, 0x3cb6ba6f3cd0d511U, 0xbdb033c6be575bbaU, 0x3d6aefb33dd75bbaU,
  0x3dc3c7c03e05c87fU, 0x3dca4e68bde4690bU, 0xbe1c9fcdbda32675U, 0x3e090bd3bbd0d511U,
  0xbd890bd3bcb6ba6fU, 0x3d961924bc82852bU, 0x3c82852bbd02852bU, 0x3d6aefb3bd77fd04U,
  0xbd50d5113ceaefb3U, 0x3da9ad1ebd5de262U, 0x3d0f927c00000000U, 0x3d29ad1ebdf1765cU,
  0xbd1c9fcd3dd75bbaU, 0x3d77fd04bcd0d511U, 0x3d43c7c0bd29ad1eU, 0xbe12d5d03e195c78U,
  0x3e195c78bd36ba6fU, 0x3c1c9fcdbd0f927cU, 0x3cb6ba6f3d29ad1eU, 0xbb50d5113bd0d511U,
  0xbd29ad1e3d8f927cU, 0x3d50d511be2cf072U, 0xbdfe83ad3d961924U, 0x3b50d5113d1c9fcdU,
  0xbd43c7c0bd36ba6fU, 0xbd77fd04bd02852bU, 0x3d29ad1e3d1c9fcdU, 0x3dbd41173df1765cU,
  0xbd1c9fcd3cd0d511U, 0x3da9ad1e3d5de262U, 0xbe02852b3bd0d511U, 0xbcb6ba6f3b50d511U,
  0x3db6ba6f3d1c9fcdU, 0xbdf1765c3d1c9fcdU, 0xbc1c9fcdbceaefb3U, 0x3dd75bbabd0f927cU,
  0x3deaefb3bdf1765cU, 0xbddde262bdfe83adU, 0xbd82852bbd36ba6fU, 0x3dc3c7c03ceaefb3U,
  0xbe02852b3d5de262U, 0xbe6aefb33d02852bU, 0xbd8f927c3e090bd3U, 0xbcb6ba6f3e195c78U,
  0x3bd0d511U, 0xbc9c9fcdbc9c9fcdU, 0xbc9c9fcd3c9c9fcdU, 0x3df7fd043b50d511U,
  0x3d43c7c03d0f927cU, 0xbc50d5113dd75bbaU, 0x3d02852b3cd0d511U, 0x3d9619243ddde262U,
  0xbdd75bba3d29ad1eU, 0x3ceaefb33c1c9fcdU, 0x3d961924bda32675U, 0x3d8f927c3d02852bU,
  0xbd29ad1ebd82852bU, 0xbc50d5113e0f927cU, 0xbda9ad1ebd0f927cU, 0x3d890bd33da9ad1eU,
  0x3c50d511bdb033c6U, 0xbe195c78bdb033c6U, 0xbdc3c7c0bdbd4117U, 0xbd5de2623dca4e68U,
  0xbceaefb33df7fd04U, 0x3d9c9fcd3e36ba6fU, 0xbc50d5113df1765cU, 0xbdd0d511bd02852bU,
  0xbe1fe3213e195c78U, 0x3c50d5113d77fd04U, 0xbdb6ba6f3db033c6U, 0x3d77fd04bda32675U,
  0x3d50d5113d43c7c0U, 0xbcb6ba6fbdd75bbaU, 0xbddde2623df7fd04U, 0x3cb6ba6f3d6aefb3U,
  0x3c50d511bd50d511U, 0xbd50d5113ceaefb3U, 0x3dd0d511bd50d511U, 0xbc50d511bc1c9fcdU,
  0xbe0f927cbd36ba6fU, 0x3e4d91bdbd890bd3U, 0xbbd0d5113bd0d511U, 0x3e1619243e02852bU,
  0xbd50d5113c50d511U, 0x3c82852b3de4690bU, 0x3de4690b3d82852bU, 0xbd9c9fcd3e02852bU,
  0xbdbd41173d1c9fcdU, 0xbcb6ba6f3d5de262U, 0x3d890bd3be43c7c0U, 0x3d82852b3cb6ba6fU,
  0x3da326753d9c9fcdU, 0xbe3d41173e1fe321U, 0x3d9619243ceaefb3U, 0x3dd0d5113d0f927cU,
  0xbddde262be161924U, 0x3dc3c7c0be64690bU, 0xbc1c9fcd3d5de262U, 0x3b50d5113e33771bU,
  0xbdb6ba6fbdfe83adU, 0x3ceaefb33cd0d511U, 0xbe12d5d03db6ba6fU, 0xbd36ba6f3d29ad1eU,
  0xbe195c78bd43c7c0U, 0xbdb033c63df1765cU, 0xbceaefb3bc82852bU, 0xbd9619243ceaefb3U,
  0xbd9c9fcd3d9c9fcdU, 0x3dbd41173d1c9fcdU, 0xbda9ad1e3c9c9fcdU, 0xbdd75bba3c1c9fcdU,
  0x3d1c9fcd3dbd4117U, 0x3c1c9fcdbddde262U, 0x3d82852bbdc3c7c0U, 0x3d77fd043da32675U,
  0xbd890bd33cb6ba6fU, 0x3c82852b3b50d511U, 0xbd77fd04bc50d511U, 0x3d02852b3d9c9fcdU,
  0x3d36ba6f3da32675U, 0x3c50d511bc50d511U, 0x3d82852bbd1c9fcdU, 0x3d29ad1ebd50d511U,
  0xbdb6ba6f3c1c9fcdU, 0x3da326753dd75bbaU, 0xbdd0d5113db6ba6fU, 0xbd82852bbcb6ba6fU,
  0xbddde2623e1fe321U, 0xbe1619243dd0d511U, 0x3ceaefb3bd43c7c0U, 0xbdbd41173dca4e68U,
  0x3db6ba6fbcd0d511U, 0x3d50d511bd890bd3U, 0x3d1c9fcdbd82852bU, 0xbdc3c7c03d29ad1eU,
  0xbdb033c63dc3c7c0U, 0x3dca4e6800000000U, 0xbdbd4117bd5de262U, 0xbcd0d5113dc3c7c0U,
  0xbcd0d5113c82852bU, 0x3c50d5113d02852bU, 0x3d36ba6f3cd0d511U, 0x3db033c6bc9c9fcdU,
  0xbd9c9fcd3d82852bU, 0x3d82852bbd82852bU, 0xbdb6ba6fbd8f927cU, 0x3df1765c3d6aefb3U,
  0x3ceaefb3bd0f927cU, 0xbe2669cabd9c9fcdU, 0x3dbd4117bcd0d511U, 0xbcd0d511bbd0d511U,
  0xbdbd4117bdfe83adU, 0xbd29ad1e3d1c9fcdU, 0x3d02852b00000000U, 0xbd890bd33cd0d511U,
  0x3dd0d511bb50d511U, 0xbd890bd33d9c9fcdU, 0x3e1fe3213e195c78U, 0x3d82852bU,
  0xbd6aefb33dd75bbaU, 0x3d8f927cbdd75bbaU, 0xbe12d5d0bdd0d511U, 0x3d36ba6fbd82852bU,
  0x3d9c9fcdbd1c9fcdU, 0x3c9c9fcdU, 0x3df1765c3df1765cU, 0xbd9619243d0f927cU,
  0xbd77fd043d82852bU, 0x3e0c4f273d36ba6fU, 0xbda9ad1e3bd0d511U, 0xbe1fe321bda32675U,
  0x3d43c7c0bd02852bU, 0x3d0f927c3d961924U, 0xbd43c7c03c1c9fcdU, 0xbcb6ba6fbd77fd04U,
  0x3c82852bbcd0d511U, 0xbdfe83ad3e9fe321U, 0x3e5de2623eb3771bU, 0x3dca4e683e29ad1eU,
  0x3dc3c7c03e195c78U, 0x3e71765cbbd0d511U, 0x3d1c9fcdbd5de262U, 0xbe3d4117bc9c9fcdU,
  0xbe4a4e68bd77fd04U, 0xbe02852bbc1c9fcdU, 0xbd43c7c0bc50d511U, 0xbcb6ba6fbe36ba6fU,
  0xbe0f927cbd50d511U, 0x3cb6ba6f3d9c9fcdU, 0x3cb6ba6fbd9c9fcdU, 0x3cb6ba6f3d5de262U,
  0xbd890bd33e1fe321U, 0x3db033c6bd02852bU, 0x3c50d5113d5de262U, 0xbdf1765c3d29ad1eU,
  0x3c50d511bcd0d511U, 0xbc50d511be470b14U, 0xbe2669ca3e02852bU, 0xbd8f927c3dc3c7c0U,
  0xbd0f927cbe090bd3U, 0x3db6ba6fbda9ad1eU, 0x3d961924bda9ad1eU, 0xbdf7fd04be0f927cU,
  0x3dd75bba3cd0d511U, 0xbc1c9fcdbe090bd3U, 0xbd36ba6fbdd0d511U, 0xbe02852bU,
  0x3d9c9fcdbdca4e68U, 0xbdeaefb3bd961924U, 0x3e50d5113ceaefb3U, 0xbecf3367be05c87fU,
  0xbe50d511bc1c9fcdU, 0xbbd0d511be7b4058U, 0xbd02852b3d0f927cU, 0xbe36ba6fbd43c7c0U,
  0x3dd75bbabda9ad1eU, 0x3e2cf07200000000U, 0x3ddde2623e0c4f27U, 0xbdc3c7c0be2cf072U,
  0xbd77fd0400000000U, 0xbd77fd043e2cf072U, 0xbe9e41773e541865U, 0xbdf7fd04bd961924U,
  0xbdf1765cbd82852bU, 0x3cd0d5113d77fd04U, 0x3db6ba6fbd1c9fcdU, 0xbe195c783ddde262U,
  0x3e64690bbe4d91bdU, 0x3e232675be5de262U, 0x3d77fd043e71765cU, 0x3d77fd043db033c6U,
  0x3ceaefb3bceaefb3U, 0xbd9619243e4d91bdU, 0xbdd75bbabcd0d511U, 0xbceaefb33cb6ba6fU,
  0xbd5de262bd36ba6fU, 0x3bd0d511be2cf072U, 0xbceaefb33da32675U, 0x3d8f927c3e2669caU,
  0x3d5de262U, 0x3d50d511be40846cU, 0xbda32675be913426U, 0xbdf1765cbd29ad1eU,
  0x3e43c7c0bb50d511U, 0xbe890bd33dd0d511U, 0xbe64690b3da32675U, 0x3ceaefb33d02852bU,
  0x3bd0d5113c50d511U, 0x3d5de262bcb6ba6fU, 0x3dd75bbaU, 0x3dd75bbabcb6ba6fU,
  0x3dbd4117bc9c9fcdU, 0xbd5de262bb50d511U, 0xbe36ba6fbda32675U, 0xbcd0d511bdb6ba6fU,
  0xbddde262bdf1765cU, 0xbdf7fd04be2669caU, 0x3d5de262be33771bU, 0xbc50d511bdca4e68U,
  0xbd36ba6f3e195c78U, 0x3de4690bbd82852bU, 0x3db6ba6f3d77fd04U, 0x3da9ad1e3cd0d511U,
  0x3d02852b3c9c9fcdU, 0x3dd0d5113d50d511U, 0x3d02852bbc1c9fcdU, 0x3d02852b3d77fd04U,
  0x3d77fd043d890bd3U, 0x3d1c9fcd3cb6ba6fU, 0xbd36ba6f3da9ad1eU, 0x3dd0d5113d8f927cU,
  0xbe2cf0723d5de262U, 0xbd43c7c0bd43c7c0U, 0xbc9c9fcd3dc3c7c0U, 0x3e77fd043e05c87fU,
  0x3d82852b3d82852bU, 0xbdc3c7c03e4a4e68U, 0x3c50d511bd02852bU, 0x3ceaefb33da9ad1eU,
  0xbe161924be0c4f27U, 0x3c82852bbdb6ba6fU, 0xbb50d5113dd0d511U, 0x3e090bd33da32675U,
  0xbd1c9fcdbd961924U, 0x3dfe83adbceaefb3U, 0x3d9c9fcdbd50d511U, 0x3e090bd33d77fd04U,
  0x3d0f927c3e090bd3U, 0xbd77fd043d02852bU, 0xbd1c9fcdbdd0d511U, 0x3ddde262bdeaefb3U,
  0xbd9c9fcd3cd0d511U, 0xbdd0d511bd1c9fcdU, 0xbe0c4f27bdd75bbaU, 0x3cd0d5113c9c9fcdU,
  0xbe090bd33cd0d511U, 0xbe090bd3be0c4f27U, 0x3e1fe321bbd0d511U, 0x3d9619243d890bd3U,
  0xbd29ad1ebcd0d511U, 0xbdbd4117bda9ad1eU, 0x3d50d5113c9c9fcdU, 0x3db033c6bda9ad1eU,
  0x3d9c9fcd3e195c78U, 0x3e090bd33d1c9fcdU, 0x3df7fd04be090bd3U, 0xbc9c9fcdbdbd4117U,
  0x3e2669ca3ceaefb3U, 0x3d9c9fcdbe71765cU, 0xbd890bd33e161924U, 0xbb50d511bd1c9fcdU,
  0x3da32675bbd0d511U, 0xbd29ad1ebcd0d511U, 0x3e0f927cbdd0d511U, 0xbd961924bdf7fd04U,
  0x3e0f927cbd0f927cU, 0xbdc3c7c0bd77fd04U, 0x3e12d5d03d6aefb3U, 0xbc9c9fcd3d02852bU,
  0xbe05c87fbd5de262U, 0x3d0f927cbd1c9fcdU, 0x3d0f927c3d29ad1eU, 0x3df1765c3c50d511U,
  0xbe7b40583da32675U, 0x3dbd4117bd50d511U, 0xbd82852b3da32675U, 0x3e541865bd82852bU,
  0x3d02852bbe0c4f27U, 0xbdca4e683e195c78U, 0x3da32675bdc3c7c0U, 0x3e090bd3bd02852bU,
  0x3df1765cbe1fe321U, 0xbd6aefb3bdb6ba6fU, 0x3d82852b3dd75bbaU, 0xbd890bd3bdca4e68U,
  0x3e195c78bd50d511U, 0xbd77fd043ceaefb3U, 0xbd36ba6fbb50d511U, 0xbd890bd3bdb033c6U,
  0xbd0f927cbea669caU, 0x3c50d5113db033c6U, 0xbde4690bbda32675U, 0xbd02852b3db6ba6fU,
  0x3d9c9fcd3d0f927cU, 0x3d961924bd82852bU, 0xbdeaefb33d8f927cU, 0x3c82852bbd0f927cU,
  0xbdd75bbabdf1765cU, 0xbdbd41173c1c9fcdU, 0x3d43c7c03c50d511U, 0x3d6aefb3be1c9fcdU,
  0x3b50d5113d36ba6fU, 0x3d82852bbe161924U, 0x3d50d511bb50d511U, 0x3d43c7c0bd50d511U,
  0xbd36ba6fbdd75bbaU, 0xbdbd4117bd50d511U, 0x3d0f927c3c50d511U, 0x3ceaefb3bdb6ba6fU,
  0xbe29ad1ebe39fdc3U, 0xbbd0d5113d82852bU, 0xbdeaefb3bd29ad1eU, 0xbc50d511bdb6ba6fU,
  0x3ceaefb3bd77fd04U, 0x3dd75bba00000000U, 0x3dd0d511bd36ba6fU, 0x3df7fd043cd0d511U,
  0xbd0f927cbd50d511U, 0xbe195c78bd1c9fcdU, 0x3df1765c3e05c87fU, 0x3c82852bbc1c9fcdU,
  0xbe090bd33d50d511U, 0x3e3d41173d9c9fcdU, 0xbd02852bbdbd4117U, 0xbd29ad1ebd02852bU,
  0xbda32675bdb6ba6fU, 0xbdeaefb33d36ba6fU, 0xbd82852b3e29ad1eU, 0x3db033c6bdbd4117U,
  0x3c82852bbd29ad1eU, 0xbe090bd3bc50d511U, 0xbe161924be12d5d0U, 0x3db6ba6f3e3033c6U,
  0x3d36ba6f3d1c9fcdU, 0x3e12d5d0be05c87fU, 0x3ddde2623e05c87fU, 0xbc82852bbe29ad1eU,
  0x3d5de2623da9ad1eU, 0x3deaefb3be36ba6fU, 0xbd36ba6fbd36ba6fU, 0xbd36ba6f3dfe83adU,
  0x3dd0d511bda9ad1eU, 0xbda32675bc82852bU, 0x3d6aefb33d29ad1eU, 0xbd36ba6fbd36ba6fU,
  0xbd0f927c3d43c7c0U, 0xbdca4e683d77fd04U, 0xbd82852b3d82852bU, 0x3d0f927cbceaefb3U,
  0xbda9ad1e3d0f927cU, 0x3e02852bbda32675U, 0x3d82852b3d961924U, 0x3cd0d5113d8f927cU,
  0x3df1765cbceaefb3U, 0x3db033c6bdc3c7c0U, 0x3e1619243d29ad1eU, 0xbd50d5113d961924U,
  0x3cd0d511be0f927cU, 0xbc9c9fcd3dca4e68U, 0x3da9ad1ebdc3c7c0U, 0xbbd0d511be6125b6U,
  0xbd5de2623c1c9fcdU, 0xbe3d4117bceaefb3U, 0x3c50d5113df7fd04U, 0xbc50d511bdbd4117U,
  0x3d02852bbd6aefb3U, 0x3de4690b3d6aefb3U, 0x3c82852bbc9c9fcdU, 0xbddde2623d9c9fcdU,
  0x3da9ad1ebcd0d511U, 0xbe3033c6bc9c9fcdU, 0x3c1c9fcd3d77fd04U, 0xbd43c7c03cb6ba6fU,
  0xbd0f927cbda32675U, 0xbda326753cd0d511U, 0x3d82852bbc9c9fcdU, 0x3de4690bbe3d4117U,
  0xbd29ad1e3b50d511U, 0xbc82852b3c82852bU, 0xbdf1765cbb50d511U, 0xbdca4e68bd1c9fcdU,
  0x3cd0d511bc9c9fcdU, 0x3e3d4117bdf1765cU, 0xbc9c9fcdbe05c87fU, 0x3bd0d5113de4690bU,
  0x3b50d511bdf1765cU, 0xbb50d511bd0f927cU, 0x3d5de2623da9ad1eU, 0xbd36ba6f3cd0d511U,
  0xbdb033c63de4690bU, 0x3d0f927c3d36ba6fU, 0xbdbd4117bbd0d511U, 0x3cb6ba6f3d43c7c0U,
  0xbe39fdc33da32675U, 0xbe02852b3dd75bbaU, 0xbc50d5113dbd4117U, 0x3df7fd04bdd75bbaU,
  0x3e0f927cbe090bd3U, 0xbe1fe3213d5de262U, 0xbd82852bbc1c9fcdU, 0x3e0c4f273e1fe321U,
  0xbddde262bda32675U, 0x3db6ba6f3c82852bU, 0xbd50d5113bd0d511U, 0xbd890bd33c1c9fcdU,
  0x3d6aefb33db033c6U, 0xbceaefb3bdb6ba6fU, 0x3db6ba6fbb50d511U, 0xbb50d511bceaefb3U,
  0x3dca4e68bd8f927cU, 0xbbd0d51100000000U, 0x3d5de262bcd0d511U, 0xbdb6ba6f3bd0d511U,
  0xbd0f927c3c9c9fcdU, 0x3d29ad1e3da32675U, 0xbe8c4f27bdb033c6U, 0x3d6aefb33d82852bU,
  0xbdf7fd04be0c4f27U, 0xbd1c9fcd3d5de262U, 0xbe1c9fcd3d5de262U, 0xbd1c9fcdbddde262U,
  0x3d29ad1e3d29ad1eU, 0x3c50d511bde4690bU, 0x3e43c7c03e02852bU, 0x3d50d511be05c87fU,
  0x3e0c4f273d50d511U, 0x3d43c7c000000000U, 0x3db033c63bd0d511U, 0x3e2669ca3d29ad1eU,
  0x3b50d5113c1c9fcdU, 0xbdd0d511bbd0d511U, 0xbda32675bd961924U, 0xbda9ad1e3d0f927cU,
  0x3dd0d5113e1c9fcdU, 0xbdb6ba6fbc50d511U, 0x3bd0d5113da32675U, 0x3d1c9fcd3d890bd3U,
  0xbd29ad1ebdbd4117U, 0x3d0f927c3ceaefb3U, 0x3cd0d5113de4690bU, 0x3d82852b3d43c7c0U,
  0xbc9c9fcd3c50d511U, 0x3dfe83adbdb033c6U, 0x3bd0d5113c50d511U, 0xbd5de2623e161924U,
  0xbd02852bbd5de262U, 0xbd5de262bd02852bU, 0x3c9c9fcd3d1c9fcdU, 0x3d0f927cbd82852bU,
  0x3e5de2623e3033c6U, 0x3e0f927c3dca4e68U, 0x3d50d5113ddde262U, 0x3e3033c63dfe83adU,
  0xbb50d5113d0f927cU, 0x3ceaefb33d0f927cU, 0xbc9c9fcdbceaefb3U, 0xbc9c9fcd3d6aefb3U,
  0x3cd0d511bd1c9fcdU, 0xbc1c9fcd3cd0d511U, 0xbdca4e683d77fd04U, 0x3b50d511bdf7fd04U,
  0x3df1765c3b50d511U, 0x3d0f927cbdfe83adU, 0x3cd0d5113d6aefb3U, 0xbe1619243e2cf072U,
  0x3dd0d511bda32675U, 0xbd9619243d8f927cU, 0x3ceaefb3bceaefb3U, 0xbdfe83ad3d50d511U,
  0xbd29ad1e3e05c87fU, 0x3d02852bbd82852bU, 0xbd8f927c3da32675U, 0x3d77fd04bd50d511U,
  0xbdd75bba3d77fd04U, 0x3da9ad1ebd0f927cU, 0xbcd0d511bd1c9fcdU, 0x3e36ba6f3cb6ba6fU,
  0x3d82852b3cd0d511U, 0x3d36ba6f3dc3c7c0U, 0x3d1c9fcdbd29ad1eU, 0x3db033c600000000U,
  0x3df1765c3ceaefb3U, 0x3deaefb33e5a9f0eU, 0xbd5de2623bd0d511U, 0xbda9ad1e3e470b14U,
  0xbd82852b3db6ba6fU, 0xbdb6ba6f3da9ad1eU, 0x3b50d511bd29ad1eU, 0x3d50d5113d36ba6fU,
  0x3d29ad1ebd36ba6fU, 0xbd36ba6fU, 0xbc9c9fcd3d36ba6fU, 0x3dfe83ad3e161924U,
  0xbceaefb33e541865U, 0xbc82852b3df1765cU, 0xbd5de2623e36ba6fU, 0x3d6aefb33d43c7c0U,
  0xbdf1765c3da9ad1eU, 0x3df1765cU, 0xbdbd4117bc50d511U, 0x3c50d5113ddde262U,
  0xbd9c9fcd3df7fd04U, 0xbcd0d5113dca4e68U, 0x3ceaefb33d43c7c0U, 0xbdeaefb3U,
  0x3da9ad1e3dbd4117U, 0xbd890bd3bd0f927cU, 0xbde4690bbd43c7c0U, 0x3dd0d5113bd0d511U,
  0xbd8f927c3df1765cU, 0xbc1c9fcdbdd75bbaU, 0xbdc3c7c0bddde262U, 0x3dc3c7c03d82852bU,
  0xbd9619243c82852bU, 0xbdbd4117bd82852bU, 0x3c82852b3d6aefb3U, 0x3d0f927cbda32675U,
  0xbda9ad1e3e0f927cU, 0x3c9c9fcdbd02852bU, 0xbdb033c63da9ad1eU, 0x3e02852bbd9c9fcdU,
  0xbe1fe3213b50d511U, 0x3cb6ba6f3da9ad1eU, 0x3d0f927c3c82852bU, 0x3d9c9fcdbcb6ba6fU,
  0x3c82852b3d36ba6fU, 0xbb50d511be161924U, 0x3d890bd3bb50d511U, 0xbbd0d511be0c4f27U,
  0x3d29ad1e3ceaefb3U, 0xbda32675bb50d511U, 0x3c50d5113d43c7c0U, 0xbd9c9fcd3ceaefb3U,
  0x3da326753c1c9fcdU, 0xbc1c9fcdbcd0d511U, 0xbd36ba6f00000000U, 0x3c1c9fcd3da9ad1eU,
  0xbc82852bbd02852bU, 0x3d82852b3d0f927cU, 0xbd5de262bd77fd04U, 0x3e12d5d03da9ad1eU,
  0x3d36ba6f3d1c9fcdU, 0xbd6aefb3bd890bd3U, 0x3d77fd04bcb6ba6fU, 0x3cb6ba6f3cb6ba6fU,
  0xbc50d5113c9c9fcdU, 0x3d43c7c0be232675U, 0x3d6aefb3bd1c9fcdU, 0xbdbd4117be195c78U,
  0xbd8f927c3d1c9fcdU, 0xbdd75bbabe4a4e68U, 0x3deaefb3bd1c9fcdU, 0x3deaefb3bddde262U,
  0x3bd0d51100000000U, 0x3d5de2623d5de262U, 0xbe1619243d82852bU, 0x3cd0d511bd82852bU,
  0x3d890bd3bd5de262U, 0xbda326753dd75bbaU, 0xbcd0d5113c1c9fcdU, 0xbc1c9fcdbda32675U,
  0x3dca4e683d961924U, 0x3d82852b00000000U, 0x3d02852b3d890bd3U, 0x3dfe83adbd8f927cU,
  0xbdb6ba6fbd02852bU, 0xbd77fd04bdca4e68U, 0x3e3d4117bdeaefb3U, 0x3d5de2623d82852bU,
  0xbb50d5113d890bd3U, 0xbd43c7c03cd0d511U, 0xbe0c4f27be12d5d0U, 0xbcb6ba6fbcb6ba6fU,
  0x3d29ad1e3d9c9fcdU, 0xbdfe83ad3d5de262U, 0x3e0f927c3d961924U, 0x3d9c9fcdbd6aefb3U,
  0xbceaefb300000000U, 0x3bd0d511bd77fd04U, 0xbdbd41173cd0d511U, 0x3c82852bbd50d511U,
  0xbddde262bc50d511U, 0x3d1c9fcdbd0f927cU, 0x3d43c7c03bd0d511U, 0xbd0f927cbd8f927cU,
  0xbc82852b3d77fd04U, 0x3d43c7c03d961924U, 0xbdfe83adbd6aefb3U, 0x3da326753e0c4f27U,
  0x3df1765cbd9c9fcdU, 0xbd1c9fcd3d8f927cU, 0xbd6aefb3bdfe83adU, 0xbc50d511bdb033c6U,
  0x3d5de2623db033c6U, 0xbceaefb3be195c78U, 0x3bd0d5113dbd4117U, 0xbd50d5113cd0d511U,
  0xbd9c9fcdbc1c9fcdU, 0xbd5de2623e29ad1eU, 0x3cb6ba6fbdb6ba6fU, 0xbd1c9fcd3d890bd3U,
  0x3d77fd04bd6aefb3U, 0xbc9c9fcdbc50d511U, 0xbceaefb33c9c9fcdU, 0x3c1c9fcdbd1c9fcdU,
  0xbc9c9fcdbdf7fd04U, 0xbceaefb3bbd0d511U, 0xbc82852bbd82852bU, 0xbd8f927c3dca4e68U,
  0xbd82852bbd29ad1eU, 0x3cb6ba6fbd8f927cU, 0x3c82852bbc9c9fcdU, 0xbd9619243c82852bU,
  0x3d9c9fcdbdd75bbaU, 0x3d77fd043deaefb3U, 0xbd77fd04bdfe83adU, 0xbdca4e68bd77fd04U,
  0xbd890bd3bd0f927cU, 0xbdb033c63c82852bU, 0xbda326753dd75bbaU, 0x3c82852bbd50d511U,
  0x3d50d511bc9c9fcdU, 0xbd5de2623c9c9fcdU, 0xbdeaefb33d0f927cU, 0x3ddde262bd43c7c0U,
  0xbd43c7c03d50d511U, 0x3d5de2623d0f927cU, 0x3cd0d5113e161924U, 0x3db033c6bde4690bU,
  0x3d1c9fcd3ceaefb3U, 0xbe3033c63bd0d511U, 0xbd9c9fcd3b50d511U, 0x3d5de2623d50d511U,
  0x3dfe83adbe575bbaU, 0xbd77fd04bc1c9fcdU, 0x3d36ba6f3da9ad1eU, 0x3e36ba6fbe43c7c0U,
  0x3d0f927cbcd0d511U, 0xbd77fd043cb6ba6fU, 0xbe1fe3213d82852bU, 0xbc1c9fcdbdd0d511U,
  0xbc9c9fcdbd9c9fcdU, 0xbdc3c7c0bc82852bU, 0x3c1c9fcdbcb6ba6fU, 0x3de4690bbdfe83adU,
  0x3d43c7c0bd9c9fcdU, 0xbcd0d511bd36ba6fU, 0x3c50d5113d5de262U, 0xbda32675bcb6ba6fU,
  0x3cb6ba6f3d6aefb3U, 0xbd77fd043dc3c7c0U, 0xbc50d5113dfe83adU, 0x3d5de2623d29ad1eU,
  0xbe05c87fbd0f927cU, 0xbdb033c6be1c9fcdU, 0x3d961924bbd0d511U, 0x3d9c9fcd3cd0d511U,
  0x3e02852bbd8f927cU, 0xbd9c9fcdbdd75bbaU, 0x3cd0d5113dd0d511U, 0xbe195c78bd1c9fcdU,
  0x3d43c7c03e36ba6fU, 0xbdb6ba6fbdd0d511U, 0xbd02852b3e05c87fU, 0xbe0f927c3d0f927cU,
  0x3c1c9fcd3dd75bbaU, 0xbda9ad1ebbd0d511U, 0x3dd0d5113ceaefb3U, 0x3d82852b3d77fd04U,
  0xbe3d41173ceaefb3U, 0x3d77fd04bdeaefb3U, 0x3c9c9fcdbc82852bU, 0xbd43c7c03cb6ba6fU,
  0x3c1c9fcdbd02852bU, 0xbc1c9fcd3da9ad1eU, 0xbcb6ba6f3c1c9fcdU, 0x3d890bd33e05c87fU,
  0x3da9ad1e3d0f927cU, 0x3ddde262bd29ad1eU, 0xbc50d511bd43c7c0U, 0x3d6aefb33c50d511U,
  0x3e05c87f3d02852bU, 0x3ceaefb3bddde262U, 0x3d77fd04bd890bd3U, 0x3d43c7c0bd5de262U,
  0x3d82852b3d50d511U, 0x3d02852bbdf7fd04U, 0xbbd0d511bd1c9fcdU, 0xbd0f927c3dbd4117U,
  0xbe2669cabceaefb3U, 0xbc82852b3db033c6U, 0xbceaefb33da32675U, 0x3dd75bbabdfe83adU,
  0xbd1c9fcd3d5de262U, 0xbd0f927cbc9c9fcdU, 0x3de4690b3d8f927cU, 0x3d5de262bd9c9fcdU,
  0x3da32675bddde262U, 0x3cb6ba6f3ceaefb3U, 0x3d890bd3bb50d511U, 0x3d6aefb3bdbd4117U,
  0xbdf1765cbd9c9fcdU, 0xbc9c9fcd3d1c9fcdU, 0xbd82852b3dd75bbaU, 0x3e0c4f273db6ba6fU,
  0x3d9c9fcdbda32675U, 0xbe090bd33df7fd04U, 0x3d43c7c03e3033c6U, 0xbdc3c7c0bd43c7c0U,
  0xbd29ad1ebc9c9fcdU, 0xbe05c87f3ceaefb3U, 0xbd890bd33e05c87fU, 0xbd6aefb33d02852bU,
  0x3dd0d511bd1c9fcdU, 0xbdca4e68bd29ad1eU, 0x3d890bd3bdd75bbaU, 0xbd9c9fcdbd5de262U,
  0x3d1c9fcdbcb6ba6fU, 0x3c1c9fcd3e02852bU, 0xbdfe83ad3e1c9fcdU, 0xbdb6ba6f3e0f927cU,
  0xbc9c9fcd3c1c9fcdU, 0x3b50d511U, 0xbbd0d511bceaefb3U, 0xbdb033c63deaefb3U,
  0x3e02852bbd82852bU, 0x3da32675bdb6ba6fU, 0x3d02852bbd6aefb3U, 0x3b50d5113cb6ba6fU,
  0x3d82852bbd8f927cU, 0xbc1c9fcd3c1c9fcdU, 0xbd890bd3bbd0d511U, 0xbd50d5113deaefb3U,
  0x3dbd41173da32675U, 0x3c82852bbd0f927cU, 0x3c82852bbd82852bU, 0xbc1c9fcdbb50d511U,
  0x3c9c9fcd3d36ba6fU, 0x3ceaefb3bd9c9fcdU, 0xbda9ad1e3e232675U, 0x3cb6ba6fU,
  0x3d77fd043ceaefb3U, 0xbdf7fd04bdca4e68U, 0x3d36ba6f3d02852bU, 0x3ceaefb33d5de262U,
  0xbdb6ba6f3d36ba6fU, 0x3e29ad1ebb50d511U, 0xbdb6ba6f3d0f927cU, 0xbd50d511bddde262U,
  0x3d50d511bd9c9fcdU, 0xbd6aefb33e3d4117U, 0xbb50d511bd8f927cU, 0x3de4690b3d6aefb3U,
  0x3e4a4e68bd6aefb3U, 0x3b50d511bcb6ba6fU, 0xbd82852b3df7fd04U, 0x3e3d41173dd0d511U,
  0xbd1c9fcdbbd0d511U, 0xbd36ba6f3d6aefb3U, 0x3d43c7c0bceaefb3U, 0x3d8f927cbd43c7c0U,
  0x3cb6ba6fU, 0xbd77fd04bdb6ba6fU, 0x3d8f927c3bd0d511U, 0x3d43c7c03bd0d511U,
  0x3e5418653d961924U, 0xbdb033c63cd0d511U, 0x3ceaefb3be5a9f0eU, 0xbe4d91bd3e2cf072U,
  0x3e80e3803e7e83adU, 0xbd5de2623de4690bU, 0x3e3d41173dd75bbaU, 0xbd5de262bdeaefb3U,
  0xbda9ad1e3e913426U, 0xbceaefb3bdb6ba6fU, 0xbe2cf072be195c78U, 0xbd36ba6f3c1c9fcdU,
  0xbd9c9fcdbe5de262U, 0xbceaefb3bddde262U, 0xbc9c9fcd3d9c9fcdU, 0x3ddde2623e02852bU,
  0x3d8f927c3b50d511U, 0x3d50d511be1fe321U, 0x3dc3c7c0bd43c7c0U, 0x3d43c7c0be02852bU,
  0x3dd75bbabd29ad1eU, 0xbd43c7c03ceaefb3U, 0x3df7fd04bd5de262U, 0xbbd0d511bcd0d511U,
  0x3d961924bc1c9fcdU, 0xbcd0d511bb50d511U, 0x3d6aefb3bb50d511U, 0x3d02852bbc50d511U,
  0x3d29ad1ebbd0d511U, 0xbbd0d511bd36ba6fU, 0xbbd0d5113d890bd3U, 0x3d890bd3bd82852bU,
  0xbd1c9fcd3d43c7c0U, 0xbdf7fd043d6aefb3U, 0xbd02852bbd77fd04U, 0xbceaefb3U,
  0xbe9c9fcdbd9c9fcdU, 0x3e39fdc3be090bd3U, 0x3c1c9fcdbe40846cU, 0x3dd0d511bd0f927cU,
  0xbdb033c6bd8f927cU, 0x3e8f927c3e12d5d0U, 0xbdeaefb33ceaefb3U, 0x3d8f927c3e470b14U,
  0xbd5de262be6125b6U, 0x3e9e41773d29ad1eU, 0xbeb3771bbd9c9fcdU, 0xbd82852bbe12d5d0U,
  0xbe6aefb33e2669caU, 0xbd02852bbbd0d511U, 0x3dc3c7c03deaefb3U, 0xbe090bd33e2669caU,
  0xbd29ad1e3cb6ba6fU, 0x3c1c9fcd3d1c9fcdU, 0x3e05c87fbe12d5d0U, 0x3d9619243c50d511U,
  0xbd43c7c0bdfe83adU, 0xbd36ba6f3c9c9fcdU, 0x3d0f927cbb50d511U, 0xbd1c9fcd3c50d511U,
  0x3e05c87fbdb6ba6fU, 0x3d9619243de4690bU, 0x3e3d41173d29ad1eU, 0x3eb033c63e9e4177U,
  0x3c9c9fcd3d6aefb3U, 0x3c82852bbe1c9fcdU, 0xbd5de262be8aad7dU, 0xbe05c87f3c9c9fcdU,
  0x3e6aefb33d6aefb3U, 0xbe64690b3e0f927cU, 0xbe3033c63d890bd3U, 0x3cb6ba6f3c9c9fcdU,
  0xbd0f927c3d50d511U, 0x3c82852bbbd0d511U, 0xbceaefb33d961924U, 0x3d961924bc82852bU,
  0x3d1c9fcdbd50d511U, 0x3e05c87f3d29ad1eU, 0xbd6aefb33de4690bU, 0x3e1619243dfe83adU,
  0x3dc3c7c03d77fd04U, 0x3dd0d511bcb6ba6fU, 0x3e195c783bd0d511U, 0xbc9c9fcdbdd0d511U,
  0x3cb6ba6f3dfe83adU, 0x3db6ba6fbdbd4117U, 0x3da9ad1e3d890bd3U, 0x3d77fd043d1c9fcdU,
  0x3d5de262bb50d511U, 0x3dca4e683ceaefb3U, 0x3d890bd3bc82852bU, 0x3cd0d5113cb6ba6fU,
  0x3dca4e683d50d511U, 0x3d0f927cbbd0d511U, 0xbd02852b3d29ad1eU, 0x3e02852b3d82852bU,
  0xbe1c9fcd3d50d511U, 0xbdc3c7c0bd02852bU, 0xbc9c9fcd3da9ad1eU, 0x3e39fdc33df7fd04U,
  0xbcb6ba6f3d1c9fcdU, 0xbda326753e0c4f27U, 0x3d0f927cbd8f927cU, 0x3d02852b3d82852bU,
  0xbe232675be0c4f27U, 0x3d9c9fcdbd961924U, 0x3d6aefb3U, 0x3df1765c3ddde262U,
  0xbcb6ba6fbdd75bbaU, 0x3e40846cbb50d511U, 0xbc1c9fcdbc9c9fcdU, 0x3db6ba6f3cd0d511U,
  0xbcd0d5113e12d5d0U, 0xbceaefb33d8f927cU, 0xbb50d511bd77fd04U, 0x3d6aefb3bd77fd04U,
  0xbd77fd04bb50d511U, 0xbd29ad1ebceaefb3U, 0xbe02852bbda32675U, 0x3d890bd33d50d511U,
  0xbdf1765c00000000U, 0xbe195c78bdeaefb3U, 0x3e12d5d03b50d511U, 0x3da326753d77fd04U,
  0xbceaefb3bd82852bU, 0xbd50d511bda32675U, 0x3da9ad1e3cb6ba6fU, 0x3e161924bc50d511U,
  0xbd9c9fcdbd6aefb3U, 0xbdd0d511bdf7fd04U, 0xbceaefb33d8f927cU, 0x3d9619243d9c9fcdU,
  0xbe7e83adbdc3c7c0U, 0xbe33771b3c82852bU, 0xbdd0d511bda9ad1eU, 0xbd43c7c0be5a9f0eU,
  0x3dd75bbabceaefb3U, 0xbd82852b3c9c9fcdU, 0x3da9ad1ebd5de262U, 0xbdd75bba3d6aefb3U,
  0x3c1c9fcdbbd0d511U, 0x3df1765c3e05c87fU, 0xbe02852b3c1c9fcdU, 0x3c9c9fcdbd9c9fcdU,
  0xbe1619243da32675U, 0xbe33771b3e0f927cU, 0xbdb033c63d890bd3U, 0xbdeaefb33dbd4117U,
  0xbc1c9fcd3dbd4117U, 0xbd0f927c3bd0d511U, 0x3dc3c7c0bd43c7c0U, 0xbd8f927cbc9c9fcdU,
  0x3dc3c7c03d36ba6fU, 0x3d1c9fcdbe195c78U, 0xbd36ba6f3dd0d511U, 0x3e0c4f27bddde262U,
  0xbd50d5113c50d511U, 0x3d9c9fcdbcb6ba6fU, 0x3d5de2623d43c7c0U, 0xbcd0d511be05c87fU,
  0x3e0f927c3d29ad1eU, 0xbd02852bbdeaefb3U, 0x3e64690bbdbd4117U, 0xbdb6ba6f3d1c9fcdU,
  0xbc82852bbe232675U, 0xbd0f927cbda9ad1eU, 0xbc1c9fcd3e090bd3U, 0x3e0c4f27be40846cU,
  0x3da326753d77fd04U, 0x3d9c9fcd00000000U, 0x3d77fd043d29ad1eU, 0xbdca4e683e1c9fcdU,
  0xbd9619243db033c6U, 0xbc9c9fcd3d50d511U, 0xbd02852bbcd0d511U, 0x3c82852bbd43c7c0U,
  0x3e43c7c03bd0d511U, 0xbceaefb3be36ba6fU, 0x3d9c9fcdbddde262U, 0xbe0c4f273d890bd3U,
  0xbc9c9fcdbd1c9fcdU, 0xbd5de262bb50d511U, 0x3c50d511bdb6ba6fU, 0xbd1c9fcd3d77fd04U,
  0x3da9ad1ebdf1765cU, 0xbd43c7c0bd82852bU, 0x3b50d5113deaefb3U, 0xbbd0d51100000000U,
  0x3d29ad1e3d6aefb3U, 0x3deaefb33e090bd3U, 0xbd8f927c3d1c9fcdU, 0x3da9ad1ebdd75bbaU,
  0x3da9ad1ebd5de262U, 0x3b50d511be12d5d0U, 0xbc82852b3e195c78U, 0xbc9c9fcdbdd0d511U,
  0xbcd0d5113d77fd04U, 0x3d50d511be12d5d0U, 0x3c1c9fcd3dc3c7c0U, 0xbe36ba6f3d890bd3U,
  0xbcd0d5113e0f927cU, 0xbd6aefb33dd0d511U, 0xbc9c9fcdbcb6ba6fU, 0xbcd0d5113db6ba6fU,
  0xbd77fd04bceaefb3U, 0xbda326753dbd4117U, 0x3e195c78bdd75bbaU, 0x3da9ad1e3df1765cU,
  0xbbd0d511bceaefb3U, 0x3d0f927cbbd0d511U, 0xbdca4e68bd29ad1eU, 0x3d50d511bde4690bU,
  0x3e090bd3bd9c9fcdU, 0xbb50d511bc50d511U, 0x3d5de262bda32675U, 0xbc50d5113c82852bU,
  0xbdb6ba6f3c82852bU, 0x3d36ba6f3db033c6U, 0xbe3033c6bc1c9fcdU, 0x3df7fd043df7fd04U,
  0xbd29ad1ebe090bd3U, 0x3df7fd043d9c9fcdU, 0x3d02852bbdc3c7c0U, 0xbb50d511be12d5d0U,
  0x3e6125b63db033c6U, 0x3d29ad1e3d8f927cU, 0xbd82852bbdd75bbaU, 0xbc1c9fcdbcd0d511U,
  0x3d9c9fcdbd1c9fcdU, 0x3d0f927c3db6ba6fU, 0xbb50d511be05c87fU, 0xbcd0d511bd6aefb3U,
  0xbdd0d5113d77fd04U, 0xbdeaefb3bc9c9fcdU, 0x3bd0d5113cb6ba6fU, 0x3db033c63d5de262U,
  0x3cd0d511bc50d511U, 0x3e74b9b0bc1c9fcdU, 0x3bd0d511bc50d511U, 0xbdca4e683e40846cU,
  0x3bd0d5113c9c9fcdU, 0x3d9c9fcdbd29ad1eU, 0xbd8f927cbd1c9fcdU, 0xbd02852bbe1fe321U,
  0xbdd75bba3e7b4058U, 0x3dfe83ad3d77fd04U, 0x3df1765cbdfe83adU, 0x3e43c7c0bda32675U,
  0x3dd0d511bd50d511U, 0xbd02852b3d0f927cU, 0xbb50d511bd0f927cU, 0x3c9c9fcdbd1c9fcdU,
  0x3ceaefb33d8f927cU, 0x3e64690b3e3033c6U, 0xbdbd41173d6aefb3U, 0xbe0f927cbd961924U,
  0x3deaefb33dd0d511U, 0xbcd0d5113d36ba6fU, 0x3c82852bbd36ba6fU, 0x3d0f927cbd29ad1eU,
  0xbcb6ba6f3e05c87fU, 0xbd50d5113d43c7c0U, 0x3da32675bd5de262U, 0x3e39fdc3bdc3c7c0U,
  0x3db6ba6fbd50d511U, 0xbdfe83ad3db6ba6fU, 0x3dbd4117bd5de262U, 0xbe1c9fcd3dbd4117U,
  0x3de4690bbc9c9fcdU, 0x3d8f927c3ceaefb3U, 0x3da32675be2cf072U, 0xbe232675be3033c6U,
  0xbe3033c63e1fe321U, 0x3d890bd33dca4e68U, 0xbd890bd33d890bd3U, 0x3d8f927c3df7fd04U,
  0xbe39fdc33c1c9fcdU, 0x3d36ba6f3d961924U, 0x3d50d511bc82852bU, 0xbd961924bda9ad1eU,
  0x3c82852b3e1fe321U, 0xbdb6ba6fbd961924U, 0xbd43c7c03e0c4f27U, 0xbe195c783d8f927cU,
  0xbc9c9fcd3dbd4117U, 0x3c9c9fcd3d36ba6fU, 0x3d890bd3bda32675U, 0xbd29ad1ebcd0d511U,
  0xbdf7fd04be29ad1eU, 0x3da326753d02852bU, 0xbdd0d5113c9c9fcdU, 0xbdbd411700000000U,
  0xbd890bd3bdb6ba6fU, 0xbd5de262bcd0d511U, 0x3db033c63dd75bbaU, 0x3b50d5113dbd4117U,
  0x3d77fd043d50d511U, 0xbe1fe3213e05c87fU, 0xbe3d4117bc1c9fcdU, 0xbd1c9fcd3d82852bU,
  0xbd50d5113df1765cU, 0xbd82852b3d961924U, 0xbc50d5113b50d511U, 0x3d8f927cbcb6ba6fU,
  0xbd50d5113e0c4f27U, 0x3dc3c7c03c82852bU, 0xbe2cf0723db6ba6fU, 0xbb50d511bd82852bU,
  0xbdc3c7c0bb50d511U, 0x3dca4e683d43c7c0U, 0xbdf1765c3dc3c7c0U, 0x3b50d511be02852bU,
  0xbd5de2623dfe83adU, 0x3e575bbabd43c7c0U, 0x3da9ad1e3d6aefb3U, 0xbdd0d511U,
  0xbd0f927cU, 0x3d36ba6f3d50d511U, 0x3d5de2623e1c9fcdU, 0xbdc3c7c03b50d511U,
  0xbd82852bbdca4e68U, 0xbdbd41173c50d511U, 0x3e0f927c3d29ad1eU, 0x3db033c63cd0d511U,
  0xbd5de2623c82852bU, 0xbdb6ba6fbe2669caU, 0x3dca4e683d8f927cU, 0xbcb6ba6f3d6aefb3U,
  0x3df7fd043c50d511U, 0xbdeaefb33d961924U, 0x3e090bd3bda32675U, 0x3b50d511bc50d511U,
  0xbcb6ba6fbda9ad1eU, 0x3d8f927c3e0c4f27U, 0x3c50d511bdd75bbaU, 0x3dbd41173da32675U,
  0xbdeaefb33c82852bU, 0x3da9ad1e3dca4e68U, 0x3d1c9fcdbe0c4f27U, 0xbdfe83adbe05c87fU,
  0x3cb6ba6f3d1c9fcdU, 0xbd77fd043d6aefb3U, 0xbd29ad1e3c50d511U, 0xbd29ad1e3dd75bbaU,
  0x3d6aefb3bda9ad1eU, 0x3c9c9fcdbd50d511U, 0xbdb033c63d890bd3U, 0xbd5de2623da32675U,
  0x3d36ba6f3cb6ba6fU, 0x3c50d511be090bd3U, 0xbd43c7c03bd0d511U, 0xbe470b143d9c9fcdU,
  0xbd29ad1ebc1c9fcdU, 0xbceaefb3be6125b6U, 0x3e50d5113d50d511U, 0xbdd0d5113c9c9fcdU,
  0xbc50d5113d8f927cU, 0xbd8f927cbe05c87fU, 0x3d1c9fcdbd50d511U, 0x3dfe83adbb50d511U,
  0x3d1c9fcdbd43c7c0U, 0x3d890bd3bd1c9fcdU, 0x3d6aefb33e39fdc3U, 0xbd961924be2cf072U,
  0x3d9c9fcd3e161924U, 0xbdd75bba3d50d511U, 0xbcb6ba6f3e0c4f27U, 0x3e05c87f3e090bd3U,
  0xbda32675be5a9f0eU, 0x3da326753e0f927cU, 0x3df1765c3bd0d511U, 0xbcb6ba6fbbd0d511U,
  0x3d961924bdca4e68U, 0xbc50d5113d890bd3U, 0xbdf1765c3e2cf072U, 0xbd29ad1e3d5de262U,
  0xbc82852bbc82852bU, 0x3c82852bbceaefb3U, 0xbd02852b3d1c9fcdU, 0xbd961924bdc3c7c0U,
  0xbda32675bdbd4117U, 0x3ddde262bd82852bU, 0xbc1c9fcd3d77fd04U, 0x3c1c9fcd3e3033c6U,
  0x3ddde2623c82852bU, 0x3d8f927c3d50d511U, 0xbd961924bd9c9fcdU, 0xbe12d5d0bd890bd3U,
  0xbbd0d511bd02852bU, 0xbbd0d5113d77fd04U, 0xbceaefb3bc82852bU, 0x3e1619243e4a4e68U,
  0xbe29ad1e3e3d4117U, 0x3c82852b3dd75bbaU, 0xbe3d41173d36ba6fU, 0x3ceaefb33dd0d511U,
  0xbdfe83ad3d43c7c0U, 0x3da32675bd02852bU, 0x3d0f927cbdf1765cU, 0x3d36ba6fbd6aefb3U,
  0xbc9c9fcd3d29ad1eU, 0x3d9c9fcd3df1765cU, 0xbcd0d511bdd75bbaU, 0x3df1765cbd29ad1eU,
  0xbe05c87f3b50d511U, 0x3ddde2623d77fd04U, 0xbd5de262bdd75bbaU, 0xbd77fd043d8f927cU,
  0xbdca4e683d9c9fcdU, 0xbd29ad1e3db6ba6fU, 0xbb50d511bc82852bU, 0x3b50d5113d77fd04U,
  0xbc50d511bd50d511U, 0xbd0f927c3db033c6U, 0x3dd0d511bdd75bbaU, 0xbd02852bbd5de262U,
  0xbdb6ba6f3d1c9fcdU, 0x3db033c600000000U, 0xbdf1765cbcd0d511U, 0x3bd0d511bd961924U,
  0xbe090bd3bdf1765cU, 0x3e8aad7dbc1c9fcdU, 0x3e090bd3bd1c9fcdU, 0x3d50d511bd890bd3U,
  0xbe0f927c3e1fe321U, 0x3d8f927cbd961924U, 0x3db6ba6f3da9ad1eU, 0xbc82852bbbd0d511U,
  0x3dbd4117bd5de262U, 0xbbd0d5113c82852bU, 0xbcd0d5113d5de262U, 0x3c50d5113d1c9fcdU,
  0x3ceaefb3bdeaefb3U, 0x3d02852bbc50d511U, 0xbdfe83adbc9c9fcdU, 0xbceaefb33dd75bbaU,
  0xbdc3c7c0bd890bd3U, 0x3d43c7c0bd50d511U, 0xbd36ba6f3c9c9fcdU, 0xbdca4e683df7fd04U,
  0x3bd0d511be541865U, 0x3da9ad1ebdc3c7c0U, 0xbd29ad1e3e195c78U, 0xbdc3c7c03e0c4f27U,
  0x3b50d511bd8f927cU, 0x3d02852bbd82852bU, 0x3d02852bbd1c9fcdU, 0x3e40846cbdb6ba6fU,
  0x3dc3c7c0bbd0d511U, 0x3c82852bbd43c7c0U, 0xbe3033c6U, 0xbd43c7c03c82852bU,
  0x3e7e83ad3d8f927cU, 0xbe1c9fcd3db033c6U, 0xbdbd4117bd6aefb3U, 0x3d1c9fcdbc50d511U,
  0xbdd75bba3c1c9fcdU, 0x3dd75bba3d8f927cU, 0xbc50d511bd77fd04U, 0xbb50d51100000000U,
  0x3d890bd33d77fd04U, 0xbd0f927cbdd75bbaU, 0x3d8f927c3b50d511U, 0x3da32675bd02852bU,
  0xbe36ba6fbdf7fd04U, 0x3c1c9fcd3d5de262U, 0xbe1c9fcdbb50d511U, 0x3e1619243e3d4117U,
  0xbd77fd04bceaefb3U, 0xbdc3c7c03c1c9fcdU, 0x3c82852b3df1765cU, 0xbe1619243cd0d511U,
  0xbbd0d5113e05c87fU, 0xbdfe83ad3d9c9fcdU, 0x3d890bd33d0f927cU, 0x3c1c9fcdbdbd4117U,
  0x3d50d5113d77fd04U, 0x3d9c9fcdbdca4e68U, 0x3e43c7c03c82852bU, 0xbd29ad1e3cd0d511U,
  0x3dbd4117bcd0d511U, 0xbe12d5d03d36ba6fU, 0xbc50d5113dd75bbaU, 0x3bd0d5113dd75bbaU,
  0xbde4690b3c82852bU, 0x3ceaefb33d43c7c0U, 0xbd1c9fcd3de4690bU, 0x3c9c9fcdbd29ad1eU,
  0xbceaefb3bdb6ba6fU, 0x3e2326753dd75bbaU, 0xbe1c9fcdbda32675U, 0xbda326753eacf072U,
  0xbd82852bbde4690bU, 0x3e0f927c3c50d511U, 0xbc1c9fcdbd36ba6fU, 0xbd50d5113d8f927cU,
  0xbdb6ba6f3dd0d511U, 0xbdeaefb33cb6ba6fU, 0xbe85c87f3d6aefb3U, 0xbc82852b3e3033c6U,
  0x3d50d511U, 0xbc82852b3c82852bU, 0xbb50d511bc1c9fcdU, 0x3d1c9fcdbd890bd3U,
  0xbe090bd33d890bd3U, 0xbd8f927cbd50d511U, 0xbc82852b3df1765cU, 0xbbd0d511bc50d511U,
  0x3e232675be090bd3U, 0xbc50d511U, 0x3e3033c63d0f927cU, 0x3d6aefb33df7fd04U,
  0xbe5418653cb6ba6fU, 0x3d5de2623df1765cU, 0x3c50d5113c50d511U, 0x3cb6ba6fbdd75bbaU,
  0xbd29ad1eU, 0xbe2669ca3d961924U, 0x3d43c7c03e2cf072U, 0x3d9619243dca4e68U,
  0x3de4690bbe74b9b0U, 0xbd29ad1e3d1c9fcdU, 0x3dfe83adbdf1765cU, 0xbdb033c63d890bd3U,
  0x3d43c7c0bd5de262U, 0xbdfe83ad3e05c87fU, 0xbe29ad1ebde4690bU, 0xbd77fd04bdbd4117U,
  0x3e36ba6f3d890bd3U, 0x3c50d511bd961924U, 0x3e195c783ddde262U, 0xbd890bd33c1c9fcdU,
  0x3dc3c7c0bc9c9fcdU, 0xbd43c7c0bcd0d511U, 0x3d36ba6fbbd0d511U, 0x3d0f927c3c1c9fcdU,
  0x3d6aefb3bde4690bU, 0x3c82852b3cd0d511U, 0x3dbd4117bdb033c6U, 0x3c82852bbd29ad1eU,
  0x3d29ad1ebc50d511U, 0x3d5de262bd82852bU, 0x3d36ba6f3d50d511U, 0xbcd0d511bc82852bU,
  0x3deaefb33c9c9fcdU, 0xbd29ad1e3da9ad1eU, 0xbe090bd33de4690bU, 0xbc9c9fcdbdca4e68U,
  0x3dbd4117bd8f927cU, 0x3b50d5113d43c7c0U, 0xbd1c9fcd3d1c9fcdU, 0x3e090bd3bcb6ba6fU,
  0x3e195c783e05c87fU, 0xbde4690bbd29ad1eU, 0xbd02852b3d6aefb3U, 0x3da9ad1ebd5de262U,
  0xbda326753da32675U, 0x3c9c9fcdbbd0d511U, 0xbd43c7c0be195c78U, 0x3dd0d5113d43c7c0U,
  0x3d43c7c0bda32675U, 0x3d02852b3e2669caU, 0xbd50d5113d5de262U, 0xbd77fd04be12d5d0U,
  0x3d50d5113d82852bU, 0xbc9c9fcdbd961924U, 0xbd29ad1ebdb033c6U, 0xbd9619243d82852bU,
  0x3e090bd3bd6aefb3U, 0xbd02852b3d1c9fcdU, 0xbd77fd04bdc3c7c0U, 0x3d961924bb50d511U,
  0xbd36ba6fbe6aefb3U, 0xbc82852b3d02852bU, 0x3e33771bbd1c9fcdU, 0xbd36ba6f3e1fe321U,
  0x3dc3c7c03dfe83adU, 0x3d50d511bd1c9fcdU, 0x3d9c9fcdbc9c9fcdU, 0x3e39fdc3bda32675U,
  0x3e36ba6f3c1c9fcdU, 0x3ceaefb33db033c6U, 0x3d6aefb33d9c9fcdU, 0xbc50d511be1fe321U,
  0xbcb6ba6f3df7fd04U, 0xbc50d511bc82852bU, 0xbc1c9fcd3ceaefb3U, 0x3e195c78bd43c7c0U,
  0x3dbd4117be232675U, 0x3b50d511bcb6ba6fU, 0x3bd0d5113db6ba6fU, 0xbe090bd3bdc3c7c0U,
  0x3d50d511bdeaefb3U, 0x3d890bd33cd0d511U, 0xbd5de2623dfe83adU, 0xbd29ad1e3d36ba6fU,
  0xbd1c9fcd3d6aefb3U, 0xbb50d511bbd0d511U, 0xbb50d511bbd0d511U, 0xbe1fe3213df7fd04U,
  0x3dca4e683cb6ba6fU, 0x3ceaefb3bd8f927cU, 0x3dca4e68bd5de262U, 0xbd77fd04bd77fd04U,
  0x3c82852b3dbd4117U, 0xbbd0d511bd36ba6fU, 0x3d0f927c3e232675U, 0x3e2669cabda9ad1eU,
  0xbd5de262bd890bd3U, 0xbe0f927c3d02852bU, 0xbc1c9fcd3db6ba6fU, 0xbde4690b3d02852bU,
  0x3d82852bbc1c9fcdU, 0x3d29ad1e3dfe83adU, 0x3de4690bU, 0xbd8f927cbd0f927cU,
  0x3d0f927c3c82852bU, 0xbeacf0723c9c9fcdU, 0xbdd0d511be33771bU, 0xbd77fd0400000000U,
  0xbd50d5113d6aefb3U, 0x3d50d511bda9ad1eU, 0xbdd75bbabe2669caU, 0xbceaefb3bde4690bU,
  0x3da9ad1e3d9c9fcdU, 0xbdd0d511bbd0d511U, 0xbd9619243d43c7c0U, 0xbe575bbabdf7fd04U,
  0x3da32675bd961924U, 0x3d890bd3bd36ba6fU, 0x3e161924be3033c6U, 0x3e36ba6f3d29ad1eU,
  0x3cd0d511bd43c7c0U, 0x3c9c9fcdbd961924U, 0x3d961924bd02852bU, 0x3e29ad1ebdfe83adU,
  0xbd1c9fcdbc1c9fcdU, 0xbd43c7c03de4690bU, 0x3dd75bbabceaefb3U, 0xbd9c9fcdbb50d511U,
  0xbb50d511bd5de262U, 0xbd77fd043d9c9fcdU, 0xbd5de262bb50d511U, 0xbda32675bc1c9fcdU,
  0xbe43c7c0be161924U, 0xbbd0d511bd9c9fcdU, 0x3d6aefb33db6ba6fU, 0xbd961924bc1c9fcdU,
  0xbc9c9fcdbd77fd04U, 0x3e02852bbceaefb3U, 0xbd29ad1ebdbd4117U, 0x3e36ba6fbcb6ba6fU,
  0xbd9c9fcdbe12d5d0U, 0x3e2cf0723d43c7c0U, 0xbc50d5113e29ad1eU, 0xbdd75bba3d43c7c0U,
  0xbd8f927cbe0f927cU, 0x3cb6ba6f3d6aefb3U, 0xbdd75bba3dd75bbaU, 0xbcb6ba6fbdeaefb3U,
  0xbdf7fd043e2cf072U, 0x3e232675bddde262U, 0xbdb033c6bcd0d511U, 0x3d8f927c3d50d511U,
  0xbd6aefb3bdb033c6U, 0xbceaefb33deaefb3U, 0xbe29ad1e3d36ba6fU, 0x3d9c9fcd3df7fd04U,
  0x3deaefb3be3033c6U, 0x3deaefb3bd77fd04U, 0x3d36ba6fbdf1765cU, 0x3d5de262bd9c9fcdU,
  0x3d02852b3d5de262U, 0xbc50d51100000000U, 0x3d02852b3dd0d511U, 0x3dfe83adbd9c9fcdU,
  0xbd29ad1e3d0f927cU, 0x3bd0d511bd82852bU, 0x3d29ad1ebd02852bU, 0xbd1c9fcd3c1c9fcdU,
  0x3e2326753d50d511U, 0x3dd0d511bd50d511U, 0x3e0f927cbdeaefb3U, 0xbceaefb3bd02852bU,
  0x3dbd4117bcb6ba6fU, 0x3c9c9fcdbda9ad1eU, 0xbd890bd33d77fd04U, 0xbd9c9fcdbd36ba6fU,
  0xbd6aefb3bd9c9fcdU, 0x3b50d5113bd0d511U, 0x3ceaefb3bd82852bU, 0xbc9c9fcdbd5de262U,
  0x3d36ba6fbd890bd3U, 0xbdd0d511bcd0d511U, 0x3dfe83ad3db033c6U, 0x3d8f927cbe1c9fcdU,
  0x3ceaefb33d5de262U, 0xbdf7fd043d1c9fcdU, 0x3d6aefb3bdb033c6U, 0x3d36ba6f3dbd4117U,
  0xbd890bd33c50d511U, 0x3d02852b3d961924U, 0xbd36ba6fbdc3c7c0U, 0xbd82852bbbd0d511U,
  0x3cb6ba6f3d961924U, 0x3d36ba6fbdbd4117U, 0x3d5de2623dd0d511U, 0xbb50d5113d961924U,
  0xbd43c7c03ceaefb3U, 0x3d82852b3cd0d511U, 0xbda32675bc50d511U, 0xbdb6ba6f3d6aefb3U,
  0x3c50d511bd29ad1eU, 0xbdbd41173c50d511U, 0x3c1c9fcd3da9ad1eU, 0xbdca4e68bcb6ba6fU,
  0x3d890bd33db033c6U, 0xbda9ad1eU, 0x3d02852b3e090bd3U, 0xbcb6ba6f3c82852bU,
  0xbd29ad1e3da32675U, 0xbcd0d511bda9ad1eU, 0xbe1fe321bc1c9fcdU, 0x3cb6ba6f3db6ba6fU,
  0xbd0f927c3d50d511U, 0xbda32675bb50d511U, 0x3d02852b3d36ba6fU, 0xbd8f927c3bd0d511U,
  0x3e33771bbd43c7c0U, 0xbd77fd04bd82852bU, 0xbbd0d5113d43c7c0U, 0xbd82852b3d0f927cU,
  0x3d0f927cU, 0xbd02852b00000000U, 0x3c9c9fcd3ceaefb3U, 0x3e1fe321bcd0d511U,
  0x3b50d511U, 0xbe12d5d0bd02852bU, 0x3e02852b3d6aefb3U, 0xbb50d5113db6ba6fU,
  0x3bd0d5113d8f927cU, 0xbe2cf072bcb6ba6fU, 0x3e3033c63da9ad1eU, 0x3d43c7c0bddde262U,
  0x3db6ba6fbdf7fd04U, 0xbbd0d511bd1c9fcdU, 0x3d890bd33c9c9fcdU, 0x3d1c9fcd3e36ba6fU,
  0xbdbd41173dd0d511U, 0x3d5de262be1c9fcdU, 0x3cd0d511bda32675U, 0xbdca4e68bbd0d511U,
  0xbd43c7c0bd50d511U, 0x3d0f927cbe232675U, 0x3e1619243dca4e68U, 0x3c82852b3e0f927cU,
  0x3e0c4f273e1fe321U, 0x3e0f927c3dbd4117U, 0x3de4690bbe29ad1eU, 0x3d9c9fcdbde4690bU,
  0x3c1c9fcdbe3033c6U, 0x3dca4e68bd961924U, 0x3cb6ba6f3e3d4117U, 0xbe02852b3dc3c7c0U,
  0xbceaefb3bd8f927cU, 0x3dfe83ad3df1765cU, 0x3d77fd04be12d5d0U, 0xbc1c9fcd3d36ba6fU,
  0xbd0f927cbc1c9fcdU, 0x3bd0d5113bd0d511U, 0xbe12d5d0bd5de262U, 0x3d02852b3d961924U,
  0x3e195c783df1765cU, 0xbd29ad1e3e43c7c0U, 0xbd8f927cbddde262U, 0x3e7b40583d6aefb3U,
  0x3d0f927c3d961924U, 0xbc1c9fcdbd1c9fcdU, 0x3d29ad1e3cb6ba6fU, 0xbd9c9fcdbc9c9fcdU,
  0x3d29ad1e3d6aefb3U, 0xbe39fdc33c82852bU, 0x3b50d511bd8f927cU, 0xbe161924bdb033c6U,
  0x3db6ba6f3e12d5d0U, 0x3e36ba6f3df1765cU, 0xbdb033c6be090bd3U, 0x3d890bd33df1765cU,
  0x3dca4e68be33771bU, 0xbd0f927c3d5de262U, 0xbcd0d511bd43c7c0U, 0xbe1c9fcd3e0c4f27U,
  0xbb50d5113d8f927cU, 0x3d890bd3bd1c9fcdU, 0x3cb6ba6fbd29ad1eU, 0x3d1c9fcdbd8f927cU,
  0xbe1619243ddde262U, 0x3dca4e68bd02852bU, 0xbceaefb33d43c7c0U, 0x3d02852bbceaefb3U,
  0xbda9ad1ebddde262U, 0xbcb6ba6fbd1c9fcdU, 0xbd9c9fcd3e0f927cU, 0x3e36ba6f3d77fd04U,
  0xbd9c9fcdbd02852bU, 0xbde4690b3e2cf072U, 0xbd1c9fcd3e8df0d2U, 0x3ddde262bbd0d511U,
  0xbc9c9fcdbd1c9fcdU, 0xbde4690b3db6ba6fU, 0xbdeaefb3be77fd04U, 0x3dfe83ad3da9ad1eU,
  0xbda326753d6aefb3U, 0x3db6ba6f3bd0d511U, 0x3e1fe321be3033c6U, 0x3e05c87f3d961924U,
  0x3db033c6bd36ba6fU, 0x3e0c4f273da32675U, 0xbe0c4f273c50d511U, 0x3d43c7c03d82852bU,
  0xbe71765c3c82852bU, 0x3e36ba6f3cb6ba6fU, 0xbe02852bbd29ad1eU, 0x3dca4e68bd0f927cU,
  0xbc1c9fcdbc1c9fcdU, 0x3d36ba6fbd50d511U, 0x3cb6ba6f3df7fd04U, 0x3c50d5113e541865U,
  0xbd9c9fcdbe090bd3U, 0x3cb6ba6f3d0f927cU, 0xbd6aefb3bcb6ba6fU, 0xbd43c7c03c50d511U,
  0xbd9c9fcd3dc3c7c0U, 0x3d43c7c0bddde262U, 0x3b50d511be090bd3U, 0xbde4690b3df7fd04U,
  0x3db6ba6f3da32675U, 0xbd43c7c0be2cf072U, 0x3db6ba6fbd02852bU, 0x3e05c87fbdf1765cU,
  0x3e2326753d50d511U, 0xbe33771bbcd0d511U, 0x3dca4e683d8f927cU, 0xbe50d5113d02852bU,
  0x3da9ad1e3d36ba6fU, 0xbd6aefb33e0f927cU, 0xbe2326753e0c4f27U, 0x3dd0d511be0c4f27U,
  0xbd50d511bd9c9fcdU, 0x3c9c9fcd3d02852bU, 0x3d5de2623bd0d511U, 0x3da9ad1ebde4690bU,
  0xbd50d5113d890bd3U, 0x3dbd4117bd961924U, 0x3d36ba6fbd5de262U, 0xbd0f927c00000000U,
  0x3deaefb3bcb6ba6fU, 0x3d50d511be161924U, 0x3d50d5113c50d511U, 0xbc82852bbdb033c6U,
  0xbd29ad1e3db6ba6fU, 0xbd50d5113c82852bU, 0xbc50d511bc82852bU, 0xbdb6ba6fbdd75bbaU,
  0x3c1c9fcd3db6ba6fU, 0x3ceaefb33c82852bU, 0x3d9619243dca4e68U, 0xbd02852bbc82852bU,
  0xbd6aefb33d36ba6fU, 0x3e36ba6fbdca4e68U, 0x3d29ad1ebd5de262U, 0x3dd0d511bc9c9fcdU,
  0xbe02852b3d0f927cU, 0x3e4a4e683d961924U, 0xbe4a4e683dd75bbaU, 0x3ddde2623d02852bU,
  0xbe090bd3bdeaefb3U, 0x3deaefb33d890bd3U, 0x3e090bd33df1765cU, 0xbdb033c6bd77fd04U,
  0x3da9ad1e3d77fd04U, 0x3cb6ba6fbd0f927cU, 0x3e0c4f27be1fe321U, 0xbc9c9fcdbd77fd04U,
  0x3c1c9fcdbd82852bU, 0xbdb033c6bdb6ba6fU, 0xbd29ad1e3cd0d511U, 0x3d29ad1e3d8f927cU,
  0x3e33771b3da32675U, 0x3dc3c7c03df7fd04U, 0x3e43c7c0bc1c9fcdU, 0x3da326753cb6ba6fU,
  0x3ceaefb33d961924U, 0xbd1c9fcdbd890bd3U, 0x3ddde262be5de262U, 0x3e2cf0723d29ad1eU,
  0x3d36ba6fbcd0d511U, 0xbcb6ba6fbbd0d511U, 0xbdf7fd04be82852bU, 0xbd02852bbe29ad1eU,
  0x3d6aefb33b50d511U, 0xbe0c4f27bddde262U, 0x3d36ba6fbe5a9f0eU, 0x3d9619243d82852bU,
  0x3deaefb3bbd0d511U, 0x3d9c9fcdbe161924U, 0x3db033c6bc50d511U, 0x3ddde262be1c9fcdU,
  0x3ceaefb33b50d511U, 0x3d36ba6fbe29ad1eU, 0xbe090bd33db033c6U, 0xbd43c7c0bd02852bU,
  0xbc1c9fcd3d1c9fcdU, 0xbd1c9fcd3e0f927cU, 0xbcb6ba6f3da9ad1eU, 0x3e02852bbd8f927cU,
  0xbd77fd043c9c9fcdU, 0x3d36ba6f3bd0d511U, 0x3dd0d511bd9c9fcdU, 0xbd9c9fcdbd6aefb3U,
  0x3dd75bba3c50d511U, 0xbdfe83adbbd0d511U, 0x3d5de2623cd0d511U, 0x3d890bd3bcb6ba6fU,
  0x3d82852bbdb6ba6fU, 0x3e12d5d0bd36ba6fU, 0x3d6aefb3be0f927cU, 0xbd6aefb3bceaefb3U,
  0x3dd0d5113db033c6U, 0xbc9c9fcd3d50d511U, 0xbd43c7c03c1c9fcdU, 0xbda32675be4a4e68U,
  0x3ddde2623dca4e68U, 0x3d82852b3ceaefb3U, 0xbcb6ba6fbe77fd04U, 0x3e995c783d0f927cU,
  0x3d890bd3bd36ba6fU, 0x3c9c9fcdbda9ad1eU, 0xbddde2623d29ad1eU, 0x3c82852bbe0c4f27U,
  0x3d8f927cbe090bd3U, 0x3c9c9fcdbd5de262U, 0x3e33771bbdd0d511U, 0x3d890bd33dd75bbaU,
  0xbe39fdc3bd9c9fcdU, 0x3c1c9fcd3db6ba6fU, 0x3e9619243e12d5d0U, 0x3c9c9fcdbbd0d511U,
  0xbbd0d511bc9c9fcdU, 0x3d82852b3df7fd04U, 0xbe02852b3cd0d511U, 0xbd36ba6fbbd0d511U,
  0x3dbd4117bd961924U, 0x3ceaefb3bd29ad1eU, 0x3e2669ca3d9c9fcdU, 0xbd02852bbd890bd3U,
  0x3ceaefb33db033c6U, 0xbd8f927c3c82852bU, 0xbc50d511bda9ad1eU, 0xbdca4e683de4690bU,
  0xbd43c7c03e02852bU, 0xbdd75bbabe33771bU, 0x3d1c9fcdbbd0d511U, 0x3da32675bdb6ba6fU,
  0x3d43c7c03df1765cU, 0x3bd0d511bceaefb3U, 0xbd5de262bbd0d511U, 0xbceaefb33c50d511U,
  0xbd0f927c3e05c87fU, 0x3d5de262bd5de262U, 0xbd77fd043d50d511U, 0xbd36ba6fbb50d511U,
  0xbd29ad1e3e02852bU, 0x3c1c9fcdbdd75bbaU, 0x3dfe83adbde4690bU, 0x3e12d5d0bd77fd04U,
  0xbdca4e683da9ad1eU, 0xbc1c9fcd3e02852bU, 0xbdb6ba6fbd0f927cU, 0x3bd0d5113c50d511U,
  0x3d6aefb3bc9c9fcdU, 0xbd50d511bc1c9fcdU, 0x3db033c6bb50d511U, 0x3c9c9fcdbda9ad1eU,
  0xbcd0d5113d02852bU, 0x3e02852bbd43c7c0U, 0xbe090bd3bd50d511U, 0x3e0f927c3db033c6U,
  0xbd82852bbe161924U, 0x3dca4e683d50d511U, 0xbdc3c7c0bd43c7c0U, 0xbc82852b3da32675U,
  0x3d02852b3dc3c7c0U, 0x3dca4e683e29ad1eU, 0xbdf7fd04bdb6ba6fU, 0x3c82852bbd82852bU,
  0x3d77fd04bc50d511U, 0x3d6aefb33dd0d511U, 0xbd5de262U, 0xbcb6ba6fbe1c9fcdU,
  0x3ceaefb33cd0d511U, 0xbdeaefb3bdf7fd04U, 0xbdbd41173d43c7c0U, 0x3c9c9fcdU,
  0xbdfe83ad3d29ad1eU, 0xbd77fd04bdb033c6U, 0xbd890bd33d6aefb3U, 0x3c50d511bd8f927cU,
  0x3d8f927c3cd0d511U, 0x3d77fd04bd50d511U, 0xbc9c9fcd3cb6ba6fU, 0x3bd0d511bdeaefb3U,
  0x3cb6ba6f3e0f927cU, 0x3cb6ba6f3bd0d511U, 0x3e02852bbd890bd3U, 0xbe195c78bdd0d511U,
  0xbd36ba6fbdb033c6U, 0x3dc3c7c0bbd0d511U, 0x3c82852bbd6aefb3U, 0x3b50d5113cb6ba6fU,
  0xbe0c4f273d1c9fcdU, 0xbd1c9fcd3d8f927cU, 0xbe1fe3213cb6ba6fU, 0xbe4d91bd00000000U,
  0xbd6aefb33b50d511U, 0x3d43c7c03e1fe321U, 0x3e3d41173d961924U, 0x3db033c63d890bd3U,
  0x3da9ad1ebd02852bU, 0x3dfe83ad3d43c7c0U, 0xbcb6ba6f3d36ba6fU, 0xbe2326753d82852bU,
  0xbe67ac5f3deaefb3U, 0xbd8f927c3d82852bU, 0xbe3d41173e232675U, 0x3dca4e683d43c7c0U,
  0x3d43c7c0be12d5d0U, 0x3d890bd3bd02852bU, 0xbc50d5113e36ba6fU, 0xbe232675bb50d511U,
  0x3db6ba6fbd890bd3U, 0x3bd0d5113dbd4117U, 0xbd0f927c3dc3c7c0U, 0xbe1c9fcdbe195c78U,
  0x3d9619243d961924U, 0x3ceaefb3bda9ad1eU, 0xbdc3c7c03c50d511U, 0xbdb6ba6f3e5de262U,
  0xbdd75bbabd50d511U, 0xbc1c9fcd3e3033c6U, 0xbcd0d511bd5de262U, 0xbd77fd043df1765cU,
  0x3df1765cbd961924U, 0x3cd0d511bd1c9fcdU, 0x3b50d511be12d5d0U, 0xbc82852bbdb033c6U,
  0xbdeaefb33ceaefb3U, 0x3df1765cbcd0d511U, 0x3e67ac5f3d6aefb3U, 0xbe195c78be43c7c0U,
  0xbe12d5d03d36ba6fU, 0x3d36ba6fbd50d511U, 0x3c50d5113cd0d511U, 0xbe12d5d0bc1c9fcdU,
  0x3c9c9fcdbdd75bbaU, 0x3dd75bba3c9c9fcdU, 0x3e05c87f3d8f927cU, 0xbd8f927cbd9c9fcdU,
  0xbe090bd3bdd75bbaU, 0x3d43c7c03d6aefb3U, 0xbdbd41173db033c6U, 0xbd29ad1e00000000U,
  0xbd82852bbe4d91bdU, 0xbe05c87fbdb033c6U, 0x3d50d511bceaefb3U, 0x3e05c87f3de4690bU,
  0xbbd0d511bd8f927cU, 0x3dfe83adbd5de262U, 0x3d43c7c03d9c9fcdU, 0x3db033c63deaefb3U,
  0x3c9c9fcdbd0f927cU, 0x3d0f927cU, 0x3d29ad1ebd9c9fcdU, 0xbd43c7c0bd36ba6fU,
  0xbe02852bbceaefb3U, 0xbceaefb33cd0d511U, 0x3d43c7c0bc82852bU, 0x3d5de2623d29ad1eU,
  0x3df7fd043ddde262U, 0xbd8f927c3d29ad1eU, 0x3b50d5113dd0d511U, 0x3d9619243dd75bbaU,
  0x3d1c9fcdbd961924U, 0x3c50d511bbd0d511U, 0x3e05c87f3e3d4117U, 0xbcd0d5113e1c9fcdU,
  0xbe0c4f273db033c6U, 0xbd50d5113d890bd3U, 0xbdd75bba3dd0d511U, 0xbdc3c7c03d961924U,
  0x3d9619243da32675U, 0xbd0f927cbe195c78U, 0xbe12d5d0be02852bU, 0x3da326753d29ad1eU,
  0x3d29ad1eU, 0x3e1fe3213c1c9fcdU, 0xbd36ba6f3d8f927cU, 0x3d1c9fcdbd0f927cU,
  0xbc50d5113c82852bU, 0x3cb6ba6fbc1c9fcdU, 0x3d77fd04bd02852bU, 0x3de4690bbdd75bbaU,
  0xbdbd4117bd0f927cU, 0xbd77fd043e39fdc3U, 0xbdc3c7c0bbd0d511U, 0xbd82852b3e29ad1eU,
  0xbc50d511bc50d511U, 0x3ceaefb33d02852bU, 0xbd9619243c82852bU, 0x3c1c9fcd3e2669caU,
  0x3dc3c7c0be12d5d0U, 0x3d5de2623b50d511U, 0xbdd0d511bdeaefb3U, 0xbdf1765cbd43c7c0U,
  0xbd1c9fcdbdd0d511U, 0xbdca4e68bd6aefb3U, 0x3d9c9fcdbd02852bU, 0x3d50d5113d29ad1eU,
  0x3d82852b3d50d511U, 0xbc82852bbdeaefb3U, 0x3e1619243e33771bU, 0xbddde2623ceaefb3U,
  0xbd36ba6f3c82852bU, 0x3cb6ba6fbcd0d511U, 0xbe12d5d0bd50d511U, 0xbc1c9fcdbbd0d511U,
  0x3cd0d511be090bd3U, 0xbe36ba6fbd77fd04U, 0x3d50d511bd0f927cU, 0x3cb6ba6f3e2669caU,
  0x3d36ba6fbd1c9fcdU, 0x3e090bd3bc82852bU, 0x3bd0d511be05c87fU, 0x3da32675bd50d511U,
  0xbde4690b3c1c9fcdU, 0x3d29ad1e3c50d511U, 0xbd36ba6fbd961924U, 0xbcb6ba6f3d0f927cU,
  0xbd6aefb3bdb6ba6fU, 0xbceaefb33c82852bU, 0x3db6ba6fbe470b14U, 0xbdf7fd04bdb033c6U,
  0xbd36ba6fbe1c9fcdU, 0x3d02852bbdbd4117U, 0x3d50d511bd9c9fcdU, 0x3e090bd33d43c7c0U,
  0x3d0f927c3c1c9fcdU, 0x3df1765c3d1c9fcdU, 0x3d02852b3da32675U, 0xbd8f927c3cd0d511U,
  0x3cd0d511bd961924U, 0x3c1c9fcd3d9c9fcdU, 0x3d9c9fcdbe1fe321U, 0xbb50d5113da32675U,
  0x3e0f927cbe05c87fU, 0xbdca4e68U, 0x3e470b14be232675U, 0xbe1fe3213d961924U,
  0x3ddde2623e0c4f27U, 0xbdc3c7c0bd36ba6fU, 0xbde4690b3c9c9fcdU, 0x3d82852b3dd75bbaU,
  0x3ddde262be02852bU, 0x3d29ad1ebc82852bU, 0xbd6aefb3bd43c7c0U, 0x3df7fd04bcb6ba6fU,
  0xbd43c7c0bd1c9fcdU, 0x3d29ad1ebd50d511U, 0xbd9619243e02852bU, 0x3ceaefb3bdb033c6U,
  0x3bd0d5113dbd4117U, 0x3d6aefb3be2669caU, 0x3e29ad1e3de4690bU, 0x3d77fd043d77fd04U,
  0xbd1c9fcd3d29ad1eU, 0x3ceaefb3bc82852bU, 0x3dfe83adbe05c87fU, 0xbcd0d511bd77fd04U,
  0xbd36ba6f3e161924U, 0x3d36ba6f3d82852bU, 0xbd77fd04be470b14U, 0xbcd0d511be40846cU,
  0xbe02852b3cb6ba6fU, 0xbd82852bbd961924U, 0x3de4690b3d29ad1eU, 0xbc82852bbd5de262U,
  0xbdf7fd04be02852bU, 0xbd5de262bd77fd04U, 0xbe02852bbdc3c7c0U, 0x3e195c783da9ad1eU,
  0x3da9ad1e3d50d511U, 0x3e05c87f3d961924U, 0xbd890bd33c9c9fcdU, 0xbe2cf0723da9ad1eU,
  0xbdd75bba3ceaefb3U, 0xbd0f927cbde4690bU, 0xbdb6ba6fbe0c4f27U, 0xbe9afe23bc9c9fcdU,
  0xbd5de262bd43c7c0U, 0x3d50d511bd50d511U, 0xbd77fd04bdf7fd04U, 0xbdb6ba6f3d5de262U,
  0x3d9c9fcdbdb6ba6fU, 0x3df1765c3cd0d511U, 0xbe470b143c82852bU, 0xbd82852bbd8f927cU,
  0x3e4a4e68bda9ad1eU, 0x3dd75bbabd5de262U, 0x3e161924be2cf072U, 0xbd0f927cbc50d511U,
  0x3e39fdc33e12d5d0U, 0xbc82852bbdf1765cU, 0x3e541865bda9ad1eU, 0x3d961924bda9ad1eU,
  0x3da32675bd43c7c0U, 0xbb50d5113d5de262U, 0x3d8f927cbe1fe321U, 0xbde4690b3db033c6U,
  0x3cd0d511bc1c9fcdU, 0x3c9c9fcdbdfe83adU, 0x3df7fd043e0f927cU, 0xbd02852b3c82852bU,
  0xbc9c9fcdbd8f927cU, 0xbe5418653d9c9fcdU, 0x3e05c87fbd961924U, 0xbe195c783e1fe321U,
  0x3d43c7c0bc50d511U, 0xbd82852b3e161924U, 0xbdb033c6bc1c9fcdU, 0x3d36ba6fbceaefb3U,
  0x3d77fd04bc1c9fcdU, 0xbd29ad1ebd0f927cU, 0x3c50d5113d29ad1eU, 0xbd29ad1e3b50d511U,
  0x3ceaefb33bd0d511U, 0xbd43c7c0bdd0d511U, 0x3da9ad1e3d8f927cU, 0xbe1fe321bd02852bU,
  0x3d1c9fcdbd29ad1eU, 0xbd8f927c00000000U, 0xbd9619243d961924U, 0x3df7fd04bdfe83adU,
  0xbd77fd043da9ad1eU, 0xbd9619243d5de262U, 0x3d77fd04bda9ad1eU, 0x3d82852b3e12d5d0U,
  0x3c1c9fcd3e50d511U, 0x3c82852b3ddde262U, 0xbd961924bd82852bU, 0x3d5de262bd02852bU,
  0x3e05c87fbd6aefb3U, 0xbde4690b3d1c9fcdU, 0x3cd0d5113d1c9fcdU, 0x3d29ad1e3db033c6U,
  0xbceaefb3bdfe83adU, 0x3c9c9fcdbd961924U, 0x3d50d5113e02852bU, 0xbe2cf0723dd75bbaU,
  0xbe02852bbcb6ba6fU, 0x3d02852b3e161924U, 0x3ddde262bc82852bU, 0xbb50d5113c82852bU,
  0x3c9c9fcdbcd0d511U, 0x3e43c7c0be232675U, 0xbd0f927cU, 0x3d29ad1ebd890bd3U,
  0x3db6ba6fbe541865U, 0x3d29ad1ebd50d511U, 0x3dfe83ad3e2cf072U, 0x3e43c7c03dd75bbaU,
  0x3da326753d43c7c0U, 0xbd43c7c0bc82852bU, 0x3d0f927cbdb033c6U, 0xbd02852b3dca4e68U,
  0xbceaefb3bd1c9fcdU, 0x3cb6ba6f3dfe83adU, 0x3d890bd33d36ba6fU, 0xbd9c9fcdbd0f927cU,
  0x3bd0d5113d961924U, 0x3cb6ba6fbc1c9fcdU, 0x3cb6ba6fbd29ad1eU, 0x3d77fd04bda32675U,
  0xbddde2623b50d511U, 0xbd50d5113d77fd04U, 0xbdd75bbabb50d511U, 0x3dbd4117bdd0d511U,
  0x3e2cf0723e29ad1eU, 0xbd9c9fcdbd43c7c0U, 0xbc9c9fcd3db033c6U, 0x3c9c9fcdbdb6ba6fU,
  0x3ceaefb3U, 0xbcb6ba6f3d6aefb3U, 0x3c82852bbdb033c6U, 0x3da326753d02852bU,
  0x3e05c87fbe3d4117U, 0x3c50d511bd8f927cU, 0x3da32675bb50d511U, 0x3d50d511bdb6ba6fU,
  0x3dca4e68bd9c9fcdU, 0xbcd0d511U, 0x3e02852bbda9ad1eU, 0xbd9c9fcd3df7fd04U,
  0xbc1c9fcdbd9c9fcdU, 0xbdb6ba6fbdbd4117U, 0xbd5de262bdd0d511U, 0xbd5de2623da9ad1eU,
  0xbd1c9fcdbb50d511U, 0x3d29ad1ebe29ad1eU, 0xbcb6ba6f3d82852bU, 0xbdeaefb3bd02852bU,
  0xbd6aefb3bd0f927cU, 0xbc50d5113e67ac5fU, 0x3e02852bbcd0d511U, 0x3ceaefb3bd02852bU,
  0x3d77fd0400000000U, 0xbe1619243e5de262U, 0xbe0f927c3e161924U, 0x3d29ad1e3dd0d511U,
  0xbd890bd3be090bd3U, 0x3c9c9fcd3e0c4f27U, 0xbceaefb33dc3c7c0U, 0xbe1c9fcdbcb6ba6fU,
  0x3e36ba6fbd961924U, 0xbdd75bbabd5de262U, 0xbcb6ba6f3d82852bU, 0xbcd0d5113d9c9fcdU,
  0xbd02852bbcd0d511U, 0xbe3033c63db6ba6fU, 0xbc9c9fcdbd36ba6fU, 0x3c82852bbd9c9fcdU,
  0x3dc3c7c03d36ba6fU, 0x3d9c9fcd3e05c87fU, 0xbcb6ba6fbd1c9fcdU, 0x3d43c7c03d9c9fcdU,
  0xbe02852b3cd0d511U, 0xbe36ba6fbd02852bU, 0x3d5de2623d8f927cU, 0xbdb033c63dc3c7c0U,
  0x3c1c9fcd3d0f927cU, 0xbdb033c6be1c9fcdU, 0xbd8f927cbb50d511U, 0x3e195c78bc82852bU,
  0x3b50d511be02852bU, 0x3c1c9fcdbd50d511U, 0x3d36ba6f3d0f927cU, 0xbd890bd3bd5de262U,
  0xbc1c9fcd3e12d5d0U, 0xbd5de262bda32675U, 0x3deaefb33cb6ba6fU, 0xbe2cf0723dd0d511U,
  0x3e090bd3bc50d511U, 0xbe36ba6f3d8f927cU, 0xbdeaefb33d82852bU, 0x3d43c7c0bc1c9fcdU,
  0xbd9c9fcd3d0f927cU, 0x3d6aefb33d1c9fcdU, 0xbd02852bbdb033c6U, 0xbd6aefb33e090bd3U,
  0x3c9c9fcdbd36ba6fU, 0xbd02852b3d5de262U, 0x3d29ad1ebd1c9fcdU, 0xbc9c9fcd3ceaefb3U,
  0xbd02852bbceaefb3U, 0xbd1c9fcd3dd75bbaU, 0xbcb6ba6fbd5de262U, 0x3e12d5d03c9c9fcdU,
  0x3c9c9fcd3e1fe321U, 0xbd1c9fcd3cd0d511U, 0x3da326753ceaefb3U, 0x3d29ad1e3b50d511U,
  0x3da326753b50d511U, 0xbc50d5113d9c9fcdU, 0x3d6aefb33c1c9fcdU, 0x3e470b143d8f927cU,
  0x3dca4e68bd890bd3U, 0x3d9619243d961924U, 0x3df7fd043e195c78U, 0xbdbd41173db6ba6fU,
  0xbbd0d5113d6aefb3U, 0xbdbd4117bdd75bbaU, 0x3da326753c82852bU, 0xbe2326753d0f927cU,
  0xbd36ba6fbe29ad1eU, 0xbe1fe321bd77fd04U, 0x3d82852b3d50d511U, 0xbb50d5113ceaefb3U,
  0x3e39fdc3bd0f927cU, 0x3d0f927cbbd0d511U, 0xbd8f927c3dd0d511U, 0xbbd0d5113d9c9fcdU,
  0x3d77fd043d890bd3U, 0xbc50d5113dbd4117U, 0x3e090bd3be36ba6fU, 0xbd8f927cbdd75bbaU,
  0xbd8f927cbdb033c6U, 0x3d5de262bd5de262U, 0x3da9ad1ebdca4e68U, 0x3d5de262bd50d511U,
  0xbd02852b3d961924U, 0xbd1c9fcdbe6aefb3U, 0x3dbd41173c9c9fcdU, 0xbd02852bbdf1765cU,
  0xbd961924bceaefb3U, 0xbe02852b3e39fdc3U, 0x3da326753b50d511U, 0x3dfe83ad3db6ba6fU,
  0x3e05c87f3ddde262U, 0xbcb6ba6f00000000U, 0x3d82852bbd36ba6fU, 0xbd5de2623ceaefb3U,
  0x3d8f927cbd82852bU, 0x3e05c87f3dbd4117U, 0xbdf7fd04bdd75bbaU, 0xbdb033c63d890bd3U,
  0xbdf7fd043d82852bU, 0xbd0f927c3d43c7c0U, 0x3e0f927cbcd0d511U, 0x3d1c9fcdbceaefb3U,
  0x3e29ad1ebdd75bbaU, 0xbd43c7c0bdca4e68U, 0x3cb6ba6f3d0f927cU, 0xbe195c783d50d511U,
  0x3c9c9fcd3db033c6U, 0x3d02852bbd43c7c0U, 0xbdd75bba3cb6ba6fU, 0x3d36ba6f3d50d511U,
  0x3c50d511bd02852bU, 0x3ddde262bda9ad1eU, 0xbd890bd33d02852bU, 0x3d9c9fcd3c1c9fcdU,
  0x3c50d5113d5de262U, 0x3dc3c7c0bd50d511U, 0x3bd0d5113c1c9fcdU, 0x3e470b14bd9c9fcdU,
  0xbdd75bba3d50d511U, 0xbe195c783df1765cU, 0x3e40846c3ceaefb3U, 0x3ddde2623bd0d511U,
  0xbcd0d511bd77fd04U, 0x3c82852bbd9c9fcdU, 0x3e05c87fbd5de262U, 0xbe02852bbdb033c6U,
  0xbbd0d5113e3033c6U, 0x3c9c9fcdU, 0xbd8f927c3d6aefb3U, 0x3d50d5113d5de262U,
  0x3cd0d5113d0f927cU, 0x3deaefb33e1c9fcdU, 0xbd0f927c3d9c9fcdU, 0xbda326753d43c7c0U,
  0xbd0f927cbe12d5d0U, 0x3d8f927c3d9c9fcdU, 0xbceaefb3bdd75bbaU, 0x3d02852b00000000U,
  0x3d36ba6fbd1c9fcdU, 0x3e02852b3d6aefb3U, 0xbe161924bc50d511U, 0x3cd0d511bd0f927cU,
  0xbd1c9fcdbddde262U, 0xbbd0d5113d1c9fcdU, 0xbb50d511be195c78U, 0xbdb033c63d0f927cU,
  0xbd9c9fcdU, 0xbe05c87f3d43c7c0U, 0x3da32675bc50d511U, 0xbe0c4f273c9c9fcdU,
  0xbceaefb33d1c9fcdU, 0xbde4690bbd29ad1eU, 0x3de4690b3dd75bbaU, 0xbd1c9fcd3c50d511U,
  0xbd6aefb3bc50d511U, 0x3c1c9fcd3bd0d511U, 0xbc82852b3c9c9fcdU, 0xbc9c9fcd3c50d511U,
  0x3c82852b3c82852bU, 0x3dc3c7c0bbd0d511U, 0x3dfe83adbda9ad1eU, 0x3d9c9fcd3d29ad1eU,
  0x3d29ad1ebceaefb3U, 0x3ceaefb33d82852bU, 0xbe195c78be40846cU, 0x3d50d511be0c4f27U,
  0x3c1c9fcd3de4690bU, 0x3d77fd04be1fe321U, 0x3d6aefb33d0f927cU, 0xbc82852bbdd0d511U,
  0x3c82852b3d82852bU, 0xbd82852b3bd0d511U, 0xbdb6ba6f3d8f927cU, 0xbc50d5113dd75bbaU,
  0x3bd0d511bd9c9fcdU, 0xbde4690b3de4690bU, 0xbd36ba6f3d961924U, 0x3b50d5113d43c7c0U,
  0x3e43c7c0bc82852bU, 0xbd02852b3dc3c7c0U, 0x3c1c9fcd3dd0d511U, 0xbc82852bbd29ad1eU,
  0xbcb6ba6fbd77fd04U, 0xbe1619243d82852bU, 0x3df7fd04bd82852bU, 0x3dca4e683ddde262U,
  0xbd5de262bcd0d511U, 0x3deaefb33da32675U, 0x3d02852bbdc3c7c0U, 0xbd0f927cbdd0d511U,
  0xbda326753bd0d511U, 0xbdd0d511bd1c9fcdU, 0x3d1c9fcd3d02852bU, 0x3dca4e68be195c78U,
  0xbdf7fd04be2cf072U, 0xbc82852b3d961924U, 0xbd50d5113ceaefb3U, 0xbd8f927c3cb6ba6fU,
  0xbc82852bU, 0x3d961924bb50d511U, 0xbd9c9fcd3bd0d511U, 0x3d43c7c0bd36ba6fU,
  0x3d29ad1e3e4d91bdU, 0xbdca4e68bdeaefb3U, 0xbc1c9fcdbd890bd3U, 0xbb50d5113d8f927cU,
  0x3d890bd3bda9ad1eU, 0xbc9c9fcdbd5de262U, 0x3dc3c7c03cd0d511U, 0xbd5de262bdb033c6U,
  0x3b50d5113cb6ba6fU, 0xbd82852b3e8426d5U, 0xbc9c9fcdbd8f927cU, 0x3d9619243e232675U,
  0x3d29ad1e3da32675U, 0x3d890bd33d43c7c0U, 0x3e50d511bd29ad1eU, 0xbddde262be2669caU,
  0xbd82852bbbd0d511U, 0x3c50d5113d02852bU, 0xbddde2623d43c7c0U, 0x3e0f927c3c1c9fcdU,
  0xbe090bd3U, 0xbd1c9fcd3b50d511U, 0xbdeaefb33e161924U, 0xbd43c7c03d77fd04U,
  0x3e090bd3bbd0d511U, 0x3da32675bdfe83adU, 0x3de4690bbde4690bU, 0xbd6aefb3bd29ad1eU,
  0x3dd0d511bc82852bU, 0x3d9c9fcdbe05c87fU, 0x3db033c6bc9c9fcdU, 0x3c1c9fcdbe02852bU,
  0xbbd0d5113dd0d511U, 0xbbd0d511bd1c9fcdU, 0x3d961924bc9c9fcdU, 0x3c82852bbd02852bU,
  0x3d0f927cbd6aefb3U, 0xbdc3c7c03d9c9fcdU, 0xbc50d5113d6aefb3U, 0xbcb6ba6fbd5de262U,
  0xbd1c9fcdbdd75bbaU, 0xbdf1765c3d961924U, 0x3e02852b3d5de262U, 0xbe36ba6fbd50d511U,
  0xbd9619243cd0d511U, 0xbe5de2623db033c6U, 0x3d8f927cbd8f927cU, 0x3e0c4f2700000000U,
  0x3e71765c3dc3c7c0U, 0xbd8f927c3e195c78U, 0xbe3033c63d29ad1eU, 0xbd5de2623db033c6U,
  0xbc1c9fcd3da32675U, 0xbd1c9fcd3e2cf072U, 0xbe29ad1ebcd0d511U, 0xbe090bd3bc50d511U,
  0xbd5de262bd890bd3U, 0xbc9c9fcd3cb6ba6fU, 0x3e12d5d03e02852bU, 0xbdf7fd043d9c9fcdU,
  0x3d50d511bdf7fd04U, 0x3e2669ca3dc3c7c0U, 0xbcb6ba6f00000000U, 0x3dca4e683d77fd04U,
  0x3dc3c7c03d82852bU, 0x3e3033c63d0f927cU, 0xbd50d511bda32675U, 0x3cd0d511bcb6ba6fU,
  0x3cb6ba6fbdbd4117U, 0xbd36ba6fU, 0x3e50d5113cd0d511U, 0x3dbd41173d43c7c0U,
  0x3dca4e683cd0d511U, 0x3c9c9fcd3d1c9fcdU, 0x3e3d4117bd36ba6fU, 0x3e3033c63d77fd04U,
  0x3e3033c6bd890bd3U, 0x3cb6ba6f3cd0d511U, 0x3dd0d511bdc3c7c0U, 0xbd6aefb3be3d4117U,
  0xbd29ad1ebdb033c6U, 0xbd8f927cbc50d511U, 0xbd02852b3e0c4f27U, 0x3d890bd3bdd75bbaU,
  0x3c9c9fcdU, 0x3e470b14bdb6ba6fU, 0x3e0f927cbe0c4f27U, 0xbdb6ba6fbcb6ba6fU,
  0xbd5de262bdeaefb3U, 0xbdc3c7c03d43c7c0U, 0xbc1c9fcd3e12d5d0U, 0x3d29ad1e3dc3c7c0U,
  0x3deaefb3bd82852bU, 0x3d02852bbe29ad1eU, 0x3cd0d5113d36ba6fU, 0x3d36ba6fbdb033c6U,
  0xbbd0d511bc9c9fcdU, 0xbbd0d5113d1c9fcdU, 0xbe0c4f273c82852bU, 0x3d1c9fcd3e05c87fU,
  0x3c9c9fcdbe090bd3U, 0x3c50d5113d77fd04U, 0xbe1fe321bd6aefb3U, 0x3cd0d511bcb6ba6fU,
  0x3cb6ba6f00000000U, 0xbd1c9fcdbd961924U, 0x3d1c9fcd3d1c9fcdU, 0x3c9c9fcdbcd0d511U,
  0xbe50d5113df1765cU, 0x3c50d511be232675U, 0x3e2cf0723d02852bU, 0xbb50d51100000000U,
  0x3d50d511be3033c6U, 0x3e2326753d82852bU, 0xbd02852bU, 0xbcb6ba6f3b50d511U,
  0xbdb033c6bd890bd3U, 0xbd77fd043dfe83adU, 0x3d50d5113deaefb3U, 0xbd36ba6fbceaefb3U,
  0xbe232675bcb6ba6fU, 0x3d9c9fcdbc82852bU, 0x3e0f927c3da32675U, 0xbdd75bba3e195c78U,
  0x3dbd4117bd0f927cU, 0xbc82852b3c9c9fcdU, 0xbda326753d02852bU, 0x3e0f927c3d02852bU,
  0xbb50d5113d6aefb3U, 0xbdeaefb3bd0f927cU, 0xbd5de2623cd0d511U, 0x3cb6ba6fbc1c9fcdU,
  0x3c82852b3d890bd3U, 0x3d0f927cbdca4e68U, 0xbc9c9fcd3e1c9fcdU, 0xbdc3c7c03db6ba6fU,
  0x3e575bbabd6aefb3U, 0x3c1c9fcdbdfe83adU, 0xbceaefb3bb50d511U, 0xbd29ad1e3deaefb3U,
  0xbc9c9fcd3d5de262U, 0xbd961924bd5de262U, 0x3b50d5113cd0d511U, 0xbe6e3307bd43c7c0U,
  0x3da9ad1e3c9c9fcdU, 0xbcd0d511bc82852bU, 0x3d0f927cbceaefb3U, 0xbdf7fd043d8f927cU,
  0x3de4690bbc82852bU, 0xbe2669cabd02852bU, 0xbbd0d5113e3033c6U, 0xbdb033c63d29ad1eU,
  0xbe36ba6f3de4690bU, 0x3e05c87f3db033c6U, 0xbe05c87f3de4690bU, 0xbd43c7c0bd5de262U,
  0x3dca4e68bd82852bU, 0xbe12d5d03e0c4f27U, 0xbd0f927c3cd0d511U, 0x3dd75bbabd36ba6fU,
  0xbcd0d5113bd0d511U, 0x3df1765cbdca4e68U, 0x3da9ad1ebdbd4117U, 0x3da32675bd890bd3U,
  0x3b50d511bdc3c7c0U, 0xbd0f927c3d890bd3U, 0x3d82852bbd50d511U, 0x3bd0d511bc9c9fcdU,
  0xbd1c9fcd3dd75bbaU, 0x3bd0d5113d890bd3U, 0xbc50d5113ceaefb3U, 0x3e29ad1e3ddde262U,
  0x3d5de2623dd0d511U, 0x3d0f927c3c9c9fcdU, 0xbd36ba6fbe39fdc3U, 0x3b50d5113dbd4117U,
  0xbe36ba6f3d36ba6fU, 0xbc82852b3e876a29U, 0xbe43c7c03ddde262U, 0x3e43c7c03d0f927cU,
  0x3cb6ba6f3deaefb3U, 0xbd1c9fcdbbd0d511U, 0xbd961924bdb6ba6fU, 0xbd36ba6f3d0f927cU,
  0xbd961924be05c87fU, 0x3dfe83ad3e195c78U, 0xbc1c9fcd3dbd4117U, 0xbc50d511bdb6ba6fU,
  0xbda32675bbd0d511U, 0xbd5de262be05c87fU, 0x3d961924bda32675U, 0xbda326753e2669caU,
  0xbc50d5113d43c7c0U, 0x3c50d511bc1c9fcdU, 0xbe12d5d0bd1c9fcdU, 0x3d1c9fcdbceaefb3U,
  0xbd82852bbd5de262U, 0x3e2326753da32675U, 0xbe575bbabcd0d511U, 0x3e195c7800000000U,
  0xbd36ba6f3d6aefb3U, 0x3db033c63d29ad1eU, 0xbd0f927c3c50d511U, 0x3d29ad1e3d1c9fcdU,
  0x3db033c63d8f927cU, 0xbdca4e683ceaefb3U, 0x3d0f927c3da32675U, 0xbde4690bbceaefb3U,
  0x3deaefb33e090bd3U, 0xbe0f927cbbd0d511U, 0x3da326753bd0d511U, 0xbe0c4f27bb50d511U,
  0x3dca4e68bb50d511U, 0x3d8f927cbd02852bU, 0xbde4690bbe2669caU, 0x3b50d511be3033c6U,
  0xbceaefb33d961924U, 0x3e3033c63dd75bbaU, 0xbe12d5d0bbd0d511U, 0x3e02852b3dfe83adU,
  0x3d82852bbe02852bU, 0x3d8f927cbdca4e68U, 0x3db033c63c9c9fcdU, 0x3d9c9fcdbe090bd3U,
  0x3e090bd3bd02852bU, 0xbd36ba6fbd5de262U, 0x3ceaefb33d0f927cU, 0xbd36ba6f3d29ad1eU,
  0xbceaefb33cd0d511U, 0x3c82852b3d6aefb3U, 0xbd8f927cbceaefb3U, 0x3d43c7c03da9ad1eU,
  0xbc1c9fcdbdbd4117U, 0xbd43c7c03e161924U, 0xbcb6ba6f3d50d511U, 0x3c9c9fcd3d77fd04U,
  0xbd36ba6fU, 0xbdd0d511bd1c9fcdU, 0xbe05c87f3d02852bU, 0x3d6aefb33db033c6U,
  0x3cb6ba6fbd8f927cU, 0x3cb6ba6fbdbd4117U, 0x3b50d5113cb6ba6fU, 0x3e05c87fbdb033c6U,
  0xbdca4e68bd29ad1eU, 0x3e36ba6f3dd75bbaU, 0xbdbd4117bd1c9fcdU, 0x3da326753d36ba6fU,
  0xbd0f927c00000000U, 0xbdf1765cbe0c4f27U, 0x3d02852b3d8f927cU, 0x3e575bba3e05c87fU,
  0x3d50d5113e2cf072U, 0x3d961924bd8f927cU, 0x3ddde2623d8f927cU, 0xbdd0d511bcb6ba6fU,
  0xbdfe83ad3b50d511U, 0xbc1c9fcd3da9ad1eU, 0xbc82852bbc9c9fcdU, 0x3bd0d5113d961924U,
  0x3e090bd3bc82852bU, 0x3d77fd043d1c9fcdU, 0x3deaefb3bd1c9fcdU, 0x3dd0d5113db033c6U,
  0x3d1c9fcdbda9ad1eU, 0x3db6ba6f3df7fd04U, 0xbc1c9fcdbdc3c7c0U, 0x3bd0d511bcb6ba6fU,
  0x3e2cf072bda9ad1eU, 0xbdd0d511bd29ad1eU, 0xbddde2623e1fe321U, 0xbcb6ba6f3d9c9fcdU,
  0xbcb6ba6fbd02852bU, 0x3d1c9fcdbcb6ba6fU, 0xbd36ba6f3bd0d511U, 0xbda9ad1e3d43c7c0U,
  0x3dca4e683d0f927cU, 0xbdd75bbabdc3c7c0U, 0xbd1c9fcd3d8f927cU, 0xbd5de2623e02852bU,
  0xbd50d5113db6ba6fU, 0x3e40846cbdca4e68U, 0xbd961924bd02852bU, 0xbb50d5113c9c9fcdU,
  0xbd6aefb33d5de262U, 0xbd50d5113d8f927cU, 0x3d82852bbcd0d511U, 0xbbd0d511bd50d511U,
  0x3d43c7c000000000U, 0xbd50d511bd0f927cU, 0xbd9619243dc3c7c0U, 0xbe0f927c3dbd4117U,
  0x3c50d5113da9ad1eU, 0xbd43c7c0bd0f927cU, 0xbc50d5113dfe83adU, 0x3ceaefb33c82852bU,
  0xbd5de2623d82852bU, 0x3e2cf0723e2cf072U, 0x3c9c9fcd3e3033c6U, 0xbd36ba6fbdc3c7c0U,
  0xbd50d5113c82852bU, 0x3db033c63db6ba6fU, 0x3d961924be0f927cU, 0xbc50d5113e33771bU,
  0xbd43c7c03d9c9fcdU, 0x3bd0d5113d50d511U, 0xbd890bd3bceaefb3U, 0xbd9c9fcdbc1c9fcdU,
  0xbd961924bdb033c6U, 0x3db033c63d29ad1eU, 0xbceaefb3bd961924U, 0xbd43c7c03dd75bbaU,
  0xbcd0d5113dd75bbaU, 0x3db6ba6f3e3033c6U, 0xbe12d5d03d890bd3U, 0x3df7fd043e1c9fcdU,
  0xbdb6ba6fU, 0x3dbd41173d8f927cU, 0xbd0f927cU, 0xbd82852b3d77fd04U,
  0xbda3267500000000U, 0x3d02852bbd890bd3U, 0xbd36ba6fbe195c78U, 0xbceaefb3bd961924U,
  0x3d890bd33d43c7c0U, 0x3bd0d5113d961924U, 0x3cd0d511bdb6ba6fU, 0x3d82852bbd36ba6fU,
  0x3e1fe321bd5de262U, 0x3e05c87f3d82852bU, 0x3d77fd043e575bbaU, 0x3e12d5d03c50d511U,
  0xbdc3c7c03d77fd04U, 0x3df1765cbd50d511U, 0x3dfe83adbd82852bU, 0x3cb6ba6fU,
  0xbdf1765c3e5de262U, 0xbdd0d5113e02852bU, 0xbd890bd33dd0d511U, 0x3d1c9fcdU,
  0xbd36ba6f3d43c7c0U, 0x3e02852bbb50d511U, 0xbe50d5113da9ad1eU, 0xbe195c783e1c9fcdU,
  0x3d890bd3be232675U, 0x3c82852b3d82852bU, 0x3e2669cabe0c4f27U, 0x3dd75bbabe2669caU,
  0x3e090bd33c82852bU, 0xbdca4e68bda32675U, 0xbe1619243df1765cU, 0xbddde2623e02852bU,
  0x3cb6ba6f3d1c9fcdU, 0xbd82852b3c82852bU, 0x3d82852bbcd0d511U, 0x3d36ba6fbd43c7c0U,
  0xbcb6ba6fbd43c7c0U, 0xbd890bd33d50d511U, 0x3bd0d5113d77fd04U, 0x3d890bd3bda9ad1eU,
  0x3d50d511bd82852bU, 0xbe05c87f3e8f927cU, 0xbdc3c7c0bd43c7c0U, 0xbe2cf07200000000U,
  0xbd43c7c03d1c9fcdU, 0x3e85c87fbcb6ba6fU, 0x3b50d5113d36ba6fU, 0xbe05c87fbda32675U,
  0xbd77fd04bdeaefb3U, 0xbb50d511bda32675U, 0x3d5de262bc9c9fcdU, 0xbd5de2623dd0d511U,
  0x3e67ac5fbdc3c7c0U, 0xbd8f927cbd890bd3U, 0xbd43c7c0bd77fd04U, 0x3c1c9fcdbbd0d511U,
  0xbceaefb33d890bd3U, 0xbcb6ba6fbda9ad1eU, 0x3df1765c3e4a4e68U, 0xbd8f927c3deaefb3U,
  0x3e090bd33da32675U, 0xbd82852bbb50d511U, 0x3e5418653e02852bU, 0xbd0f927c3bd0d511U,
  0x3dc3c7c0bd961924U, 0x3dd0d511bd82852bU, 0x3db033c6bdc3c7c0U, 0x3cb6ba6f3e02852bU,
  0xbd82852b3c9c9fcdU, 0x3e1c9fcdbcd0d511U, 0x3e4d91bd3cd0d511U, 0xbdf7fd043db6ba6fU,
  0x3da32675be232675U, 0x3da9ad1ebd50d511U, 0xbd5de2623d02852bU, 0xbceaefb3bd36ba6fU,
  0x3d36ba6f3e12d5d0U, 0x3dca4e68bd890bd3U, 0xbd890bd33d6aefb3U, 0x3c50d511U,
  0xbd0f927cbdb033c6U, 0x3d36ba6fbc50d511U, 0xbd82852bbb50d511U, 0x3d6aefb33ceaefb3U,
  0x3db033c6bdb6ba6fU, 0xbdeaefb3be12d5d0U, 0x3db6ba6f3d890bd3U, 0x3dd75bba3e090bd3U,
  0xbd9619243dc3c7c0U, 0x3cd0d5113d43c7c0U, 0xbe29ad1ebdca4e68U, 0x3d890bd3bda9ad1eU,
  0x3d890bd3bd890bd3U, 0x3d29ad1ebd29ad1eU, 0x3d5de262bd961924U, 0x3c9c9fcdbceaefb3U,
  0xbd0f927c00000000U, 0xbdb6ba6f3d890bd3U, 0x3c82852b3d02852bU, 0x3c9c9fcdbc50d511U,
  0x3cb6ba6fbcb6ba6fU, 0xbd1c9fcdbcb6ba6fU, 0xbd1c9fcd3c82852bU, 0xbd02852bbd0f927cU,
  0x3db033c63c82852bU, 0x3e02852b3d6aefb3U, 0x3d36ba6f00000000U, 0x3dc3c7c0bdeaefb3U,
  0xbc82852b3d77fd04U, 0x3d36ba6fbd82852bU, 0xbdb6ba6fbd1c9fcdU, 0x3deaefb33d8f927cU,
  0xbdb6ba6fbcb6ba6fU, 0x3e6e33073ddde262U, 0x3dc3c7c0bd02852bU, 0xbcb6ba6fbdf7fd04U,
  0x3d890bd33da32675U, 0xbc82852b3d82852bU, 0xbdc3c7c03c1c9fcdU, 0xbceaefb3bdf7fd04U,
  0xbdbd41173df7fd04U, 0x3e33771b3cd0d511U, 0xbcd0d511bd890bd3U, 0xbdb6ba6f3d5de262U,
  0xbcd0d511bd29ad1eU, 0xbdd0d511bd6aefb3U, 0xbd9619243df7fd04U, 0x3c82852bbc50d511U,
  0x3dca4e68bd6aefb3U, 0x3c50d511bd961924U, 0x3d890bd3bc9c9fcdU, 0x3e05c87f3d77fd04U,
  0xbd8f927c3d5de262U, 0xbd890bd3bceaefb3U, 0xbd82852b3d0f927cU, 0x3e5a9f0ebbd0d511U,
  0x3dd75bba3dfe83adU, 0xbdbd41173d29ad1eU, 0xbd6aefb3bbd0d511U, 0x3d9c9fcdbdfe83adU,
  0xbd1c9fcdbceaefb3U, 0x3bd0d511bcd0d511U, 0x3e4a4e6800000000U, 0x3bd0d5113d890bd3U,
  0x3cd0d5113e541865U, 0x3cb6ba6fbe2669caU, 0x3d02852b3df1765cU, 0x3d0f927cbdf1765cU,
  0x3da326753c1c9fcdU, 0xbdb033c6bd02852bU, 0xbdf1765c3db6ba6fU, 0x3de4690b3ddde262U,
  0xbe4d91bdbe33771bU, 0xbd890bd33d5de262U, 0x3dc3c7c03e0f927cU, 0x3d50d5113c50d511U,
  0xbd02852bbd0f927cU, 0x3db6ba6f3c9c9fcdU, 0xbd02852bbd43c7c0U, 0xbc50d511bd0f927cU,
  0xbd1c9fcd3db6ba6fU, 0xbdc3c7c03da32675U, 0xbceaefb3bc9c9fcdU, 0xbc82852b3dd75bbaU,
  0xbc82852bbd1c9fcdU, 0x3c1c9fcd3c9c9fcdU, 0x3e1c9fcd3cb6ba6fU, 0x3d961924bcb6ba6fU,
  0xbdd75bbabdc3c7c0U, 0xbceaefb33cd0d511U, 0xbdf7fd04bdb033c6U, 0xbc1c9fcd3d50d511U,
  0x3bd0d511bd6aefb3U, 0xbe02852bbc82852bU, 0xbdc3c7c03d29ad1eU, 0xbc9c9fcd00000000U,
  0x3e02852b3c50d511U, 0xbe470b14bd5de262U, 0xbe40846cbe5a9f0eU, 0xbd5de2623c1c9fcdU,
  0x3e3033c63c1c9fcdU, 0x3d0f927cbdf7fd04U, 0x3dca4e68be29ad1eU, 0xbd50d5113b50d511U,
  0x3c50d5113d6aefb3U, 0xbd6aefb300000000U, 0xbcd0d511bcb6ba6fU, 0xbd43c7c0bd6aefb3U,
  0x3d1c9fcd3b50d511U, 0xbd82852b3e2cf072U, 0x3d961924U, 0x3cb6ba6fbc1c9fcdU,
  0x3d9c9fcdbdd0d511U, 0x3d890bd3bdb6ba6fU, 0x3e39fdc3bdb6ba6fU, 0xbd1c9fcdbd1c9fcdU,
  0xbdca4e683d8f927cU, 0x3cb6ba6f3dca4e68U, 0x3d43c7c0bd1c9fcdU, 0xbdb033c6bdfe83adU,
  0xbd8f927cbd9c9fcdU, 0x3d77fd04bd02852bU, 0x3cb6ba6f3dc3c7c0U, 0xbc50d511be29ad1eU,
  0xbdf1765c3cb6ba6fU, 0xbd82852bbe090bd3U, 0xbe7b40583c82852bU, 0x3e541865bb50d511U,
  0xbc1c9fcdbe1fe321U, 0x3dbd4117bd02852bU, 0x3d02852bbda32675U, 0x3db6ba6fbd6aefb3U,
  0xbdd0d511bb50d511U, 0xbd6aefb33d5de262U, 0x3d6aefb3bda32675U, 0x3d77fd043c82852bU,
  0x3df7fd043ddde262U, 0xbdd75bba3db033c6U, 0xbcd0d511bdeaefb3U, 0x3d5de262bda9ad1eU,
  0xbdb6ba6fbd43c7c0U, 0x3d890bd33dc3c7c0U, 0xbd82852bbd9c9fcdU, 0x3d9c9fcd3d890bd3U,
  0x3cb6ba6fbe05c87fU, 0x3d02852b3c82852bU, 0xbc1c9fcdbd8f927cU, 0x3ceaefb33d961924U,
  0x3d77fd04be02852bU, 0xbc82852b3d1c9fcdU, 0xbd9c9fcdU, 0xbe1619243c82852bU,
  0x3d961924U, 0x3d6aefb3bdf7fd04U, 0xbc9c9fcd3c9c9fcdU, 0x3d6aefb33d02852bU,
  0x3e05c87fbd43c7c0U, 0x3deaefb33db033c6U, 0xbd890bd33db033c6U, 0xbdc3c7c03de4690bU,
  0x3db6ba6fbde4690bU, 0x3bd0d5113da32675U, 0xbd43c7c0bbd0d511U, 0xbd82852bU,
  0x3c82852bbd43c7c0U, 0xbd82852bbd9c9fcdU, 0x3d961924bda32675U, 0x3ddde2623d77fd04U,
  0xbddde2623bd0d511U, 0xbd6aefb33da9ad1eU, 0x3bd0d511bcb6ba6fU, 0x3dfe83adbd77fd04U,
  0x3ceaefb3bd29ad1eU, 0x3c50d511be090bd3U, 0xbe2cf0723d1c9fcdU, 0x3e12d5d0bd36ba6fU,
  0xbda9ad1ebd36ba6fU, 0xbe74b9b03d43c7c0U, 0x3e2cf072bdc3c7c0U, 0xbdf1765cbd8f927cU,
  0xbc9c9fcd3cb6ba6fU, 0x3cb6ba6fbdd0d511U, 0xbc82852b3dd0d511U, 0xbda9ad1ebc50d511U,
  0xbdf7fd043d6aefb3U, 0x3df1765cbd1c9fcdU, 0x3d6aefb33b50d511U, 0x3d8f927cbd961924U,
  0xbd82852b3e5a9f0eU, 0x3d29ad1e3e02852bU, 0xbd8f927c3d36ba6fU, 0x3d8f927c3dca4e68U,
  0x3db033c6bd890bd3U, 0x3cd0d511bbd0d511U, 0x3c9c9fcdbd961924U, 0x3ceaefb33ceaefb3U,
  0xbd36ba6fbd36ba6fU, 0xbe50d5113d82852bU, 0x3c82852bbe0f927cU, 0x3db033c6bdc3c7c0U,
  0x3d9619243dd75bbaU, 0x3dd75bba3deaefb3U, 0x3b50d511bdd0d511U, 0xbd890bd33dd0d511U,
  0xbd36ba6fbc50d511U, 0x3d36ba6f3d5de262U, 0x3d0f927cbdb6ba6fU, 0xbdbd41173d43c7c0U,
  0xbdbd41173dc3c7c0U, 0x3cb6ba6f3cb6ba6fU, 0xbd8f927c3cb6ba6fU, 0x3e0c4f27bceaefb3U,
  0xbd6aefb3bd9c9fcdU, 0x3ceaefb33d77fd04U, 0xbd5de262bd1c9fcdU, 0xbddde262bd29ad1eU,
  0xbd36ba6f3cb6ba6fU, 0x3e232675bd0f927cU, 0xbe33771b3e1c9fcdU, 0xbe161924bd890bd3U,
  0x3df1765cbe1fe321U, 0x3db6ba6f3d02852bU, 0x3cb6ba6fbc50d511U, 0xbe33771bbe090bd3U,
  0xbd9619243e40846cU, 0xbd43c7c0bd961924U, 0x3e02852bbd82852bU, 0x3e2669cabe1c9fcdU,
  0xbbd0d5113cd0d511U, 0x3d02852b3ceaefb3U, 0x3cb6ba6fbd9c9fcdU, 0x3db6ba6f3d9c9fcdU,
  0x3e0f927c3d8f927cU, 0xbc82852b3e0c4f27U, 0xbe2326753c1c9fcdU, 0xbe1fe321bd29ad1eU,
  0xbdbd4117bbd0d511U, 0xbda32675bc50d511U, 0x3d0f927cbd961924U, 0x3ceaefb33d9c9fcdU,
  0x3c9c9fcdbe64690bU, 0xbceaefb3bd29ad1eU, 0xbda9ad1e3e43c7c0U, 0x3d02852bbdf7fd04U,
  0xbd5de262bc1c9fcdU, 0xbd50d5113c82852bU, 0xbdd0d5113c9c9fcdU, 0xbdca4e683d77fd04U,
  0xbd0f927c3d50d511U, 0xbd50d511bdb6ba6fU, 0x3d82852bbdb6ba6fU, 0x3cd0d5113deaefb3U,
  0x3d02852b3ceaefb3U, 0xbceaefb3U, 0x3b50d5113db6ba6fU, 0x3d29ad1ebd5de262U,
  0x3da9ad1ebe02852bU, 0xbd77fd043b50d511U, 0x3dc3c7c0bc82852bU, 0x3c82852bbd43c7c0U,
  0x3b50d511bc9c9fcdU, 0x3c9c9fcdbc1c9fcdU, 0x3e2669cabe6125b6U, 0x3df7fd04be232675U,
  0xbe4d91bdbc1c9fcdU, 0x3d1c9fcd3df7fd04U, 0x3db033c63d29ad1eU, 0xbe02852b3e33771bU,
  0xbe12d5d0bd5de262U, 0xbd29ad1e3e77fd04U, 0xbd77fd04bd02852bU, 0x3df1765c3c9c9fcdU,
  0xbdeaefb3bd43c7c0U, 0x3da326753da32675U, 0x3d8f927cbe090bd3U, 0x3dbd4117bd5de262U,
  0x3d36ba6fbdd0d511U, 0xbd5de2623c1c9fcdU, 0x3c50d511bd1c9fcdU, 0xbe0c4f273d0f927cU,
  0xbd36ba6f3c50d511U, 0xbd961924bd36ba6fU, 0xbd6aefb3bd961924U, 0x3c9c9fcd3d82852bU,
  0x3d890bd33d6aefb3U, 0xbd77fd043ceaefb3U, 0x3ddde262bc50d511U, 0x3d36ba6f3df7fd04U,
  0x3e02852bbe29ad1eU, 0xbb50d5113d77fd04U, 0xbcd0d5113e2cf072U, 0xbe05c87f3e232675U,
  0x3db6ba6f3deaefb3U, 0x3d02852b3d82852bU, 0xbd890bd3bdbd4117U, 0x3bd0d5113d8f927cU,
  0xbceaefb33d5de262U, 0x3d0f927cbd02852bU, 0x3d9619243d43c7c0U, 0xbb50d511bd890bd3U,
  0xbd890bd3bd82852bU, 0x3c50d5113da32675U, 0xbe43c7c03dd0d511U, 0x3d02852bbc50d511U,
  0x3cb6ba6fbd36ba6fU, 0x3bd0d511be02852bU, 0xbd82852bbcb6ba6fU, 0xbe161924bbd0d511U,
  0xbe12d5d0bd8f927cU, 0x3c1c9fcd3d9c9fcdU, 0x3d5de2623c82852bU, 0xbd9c9fcdbd36ba6fU,
  0xbceaefb3be02852bU, 0xbd77fd043b50d511U, 0x3dd0d511bdf1765cU, 0xbd5de262bd8f927cU,
  0x3dc3c7c03b50d511U, 0xbdfe83ad3e36ba6fU, 0xbc50d5113da32675U, 0xbe33771bbc9c9fcdU,
  0x3da9ad1ebd82852bU, 0xbd36ba6fbd02852bU, 0xbd1c9fcd3d961924U, 0xbe0f927c3db6ba6fU,
  0x3c1c9fcd3d5de262U, 0x3dfe83ad3ddde262U, 0xbd82852bbe43c7c0U, 0x3d0f927cbdbd4117U,
  0x3c50d511be232675U, 0x3dd0d5113d02852bU, 0x3dd0d5113c9c9fcdU, 0x3d0f927cbceaefb3U,
  0x3ddde262bdbd4117U, 0xbe1c9fcd3c82852bU, 0x3c9c9fcd3d8f927cU, 0xbd9c9fcd3da32675U,
  0x3dc3c7c0bd961924U, 0x3deaefb3bd43c7c0U, 0xbd961924bdca4e68U, 0x3ceaefb33dc3c7c0U,
  0xbd50d511bd5de262U, 0x3d8f927c3d0f927cU, 0xbe2669cabdca4e68U, 0x3d29ad1ebd02852bU,
  0x3e195c783d890bd3U, 0xbd77fd04bd82852bU, 0x3d9c9fcd3d82852bU, 0x3e9afe23bd02852bU,
  0x3e05c87fbc50d511U, 0x3d1c9fcdbc82852bU, 0x3dca4e68bd0f927cU, 0xbd02852b3c82852bU,
  0x3e195c78bd6aefb3U, 0x3da9ad1e3d02852bU, 0x3bd0d511be43c7c0U, 0xbd5de2623e2669caU,
  0x3dbd41173e3033c6U, 0x3d5de262bd9c9fcdU, 0x3d6aefb33ceaefb3U, 0x3d02852b3d02852bU,
  0xbdb6ba6fbc9c9fcdU, 0x3ddde2623e541865U, 0x3d961924bd961924U, 0x3dfe83adbd82852bU,
  0x3d29ad1e3bd0d511U, 0x3d77fd043e0c4f27U, 0xbdf7fd04bd8f927cU, 0xbcb6ba6fbc82852bU,
  0xbd02852b3d5de262U, 0xbceaefb3bb50d511U, 0x3d29ad1e3d36ba6fU, 0x3dca4e68bcb6ba6fU,
  0xbe575bbabc82852bU, 0xbd0f927c3c1c9fcdU, 0x3d77fd043c9c9fcdU, 0x3cb6ba6f3d890bd3U,
  0xbe36ba6f3d82852bU, 0xbddde2623d02852bU, 0xbc50d511bd50d511U, 0xbe195c78be1c9fcdU,
  0x3d77fd043d43c7c0U, 0xbc1c9fcd3da9ad1eU, 0x3d02852bbd0f927cU, 0x3dca4e68be05c87fU,
  0xbdb6ba6fbd6aefb3U, 0xbd8f927c3d50d511U, 0xbd9619243df7fd04U, 0x3e0f927cbd890bd3U,
  0xbe1fe321bc9c9fcdU, 0x3dc3c7c03df1765cU, 0x3e0c4f273cb6ba6fU, 0xbe195c78bd02852bU,
  0x3e43c7c03d50d511U, 0xbddde2623d6aefb3U, 0xbe12d5d0be0f927cU, 0x3da32675bd02852bU,
  0x3cd0d511bb50d511U, 0x3dd0d511bda9ad1eU, 0x3d0f927cbdc3c7c0U, 0x3d0f927cbd02852bU,
  0xbceaefb3U, 0x3c1c9fcd3c50d511U, 0xbd43c7c0bbd0d511U, 0x3da9ad1e00000000U,
  0xbd29ad1ebcb6ba6fU, 0x3d36ba6f3d50d511U, 0xbc50d5113c1c9fcdU, 0xbbd0d511U,
  0xbb50d5113da9ad1eU, 0xbe02852bbbd0d511U, 0xbe1fe3213deaefb3U, 0xbcb6ba6fbbd0d511U,
  0xbd9619243d5de262U, 0x3d0f927cbe2cf072U, 0xbd9619243d890bd3U, 0x3d5de2623d43c7c0U,
  0xbcb6ba6fU, 0xbd9c9fcd3c82852bU, 0x3c1c9fcdbe1c9fcdU, 0x3cd0d511be05c87fU,
  0x3da32675bc1c9fcdU, 0x3d82852b3ceaefb3U, 0x3e0f927c3d36ba6fU, 0x3d1c9fcdbc82852bU,
  0xbd43c7c03cd0d511U, 0x3d8f927c3d02852bU, 0x3df7fd04bd29ad1eU, 0xbd1c9fcd3c1c9fcdU,
  0x3e2cf072be0c4f27U, 0xbd0f927c3dbd4117U, 0x3d0f927cbddde262U, 0x3eb1d5703d8f927cU,
  0x3e02852bbb50d511U, 0xbe02852bbdca4e68U, 0x3e05c87f3e29ad1eU, 0xbd36ba6fbdb033c6U,
  0xbd9c9fcdU, 0xbceaefb3be090bd3U, 0x3d43c7c0bdca4e68U, 0xbe23267500000000U,
  0xbc9c9fcd00000000U, 0xbd1c9fcdbcd0d511U, 0x3d1c9fcdbd77fd04U, 0xbe02852bbd0f927cU,
  0x3deaefb3bdb033c6U, 0xbe1fe3213c9c9fcdU, 0x3b50d5113d890bd3U, 0xbc82852b3b50d511U,
  0xbcd0d5113e161924U, 0xbb50d5113df7fd04U, 0xbc9c9fcdbd50d511U, 0x3dd0d5113c1c9fcdU,
  0x3d8f927cbe0f927cU, 0xbc9c9fcdbd0f927cU, 0xbc1c9fcdbd8f927cU, 0xbd961924bdbd4117U,
  0xbd890bd33dbd4117U, 0x3e12d5d0bddde262U, 0x3d82852b3e12d5d0U, 0xbd6aefb33d0f927cU,
  0xbb50d5113d0f927cU, 0xbd6aefb33c82852bU, 0x3d6aefb3bc50d511U, 0xbdbd41173d29ad1eU,
  0x3c1c9fcd3c82852bU, 0x3d02852b3c9c9fcdU, 0xbd82852bbd6aefb3U, 0xbd890bd33e232675U,
  0xbd36ba6fbc50d511U, 0x3d8f927c3c9c9fcdU, 0xbdb6ba6fbd6aefb3U, 0x3cd0d511bd82852bU,
  0xbe36ba6fbe1fe321U, 0xbda326753c1c9fcdU, 0xbcd0d5113e876a29U, 0x3dc3c7c0bdf7fd04U,
  0x3da32675bd43c7c0U, 0x3d961924bbd0d511U, 0x3d890bd3bd36ba6fU, 0x3d82852bbd36ba6fU,
  0x3c9c9fcdbdbd4117U, 0x3d29ad1e3e39fdc3U, 0xbe1c9fcdbe05c87fU, 0xbdfe83adbd50d511U,
  0xbc1c9fcdbd82852bU, 0xbe05c87fbe470b14U, 0x3b50d5113da9ad1eU, 0x3d0f927c3d6aefb3U,
  0xbe876a293db033c6U, 0xbbd0d5113da9ad1eU, 0xbbd0d5113de4690bU, 0x3d50d511bd1c9fcdU,
  0x3d29ad1ebd1c9fcdU, 0xbc9c9fcd3c9c9fcdU, 0x3d0f927c3ceaefb3U, 0x3d77fd04bd43c7c0U,
  0xbdf1765cbdf1765cU, 0x3b50d511bddde262U, 0xbc82852bbd02852bU, 0x3d82852b3d82852bU,
  0xbd36ba6f3c9c9fcdU, 0x3d8f927c3e6e3307U, 0x3deaefb3bceaefb3U, 0xbc9c9fcd3d02852bU,
  0x3d50d511U, 0x3d0f927cbd43c7c0U, 0x3d82852b3d5de262U, 0x3d43c7c0bc82852bU,
  0xbdb033c6bdbd4117U, 0x3e36ba6f3e1c9fcdU, 0x3e1619243d50d511U, 0xbdb6ba6fbdca4e68U,
  0xbe1c9fcd3d8f927cU, 0x3d29ad1e3bd0d511U, 0xbe0c4f273d1c9fcdU, 0x3d5de262bc1c9fcdU,
  0xbd8f927cbd6aefb3U, 0x3df1765c3e090bd3U, 0x3d6aefb33c50d511U, 0xbda9ad1ebd1c9fcdU,
  0xbd890bd3bdf7fd04U, 0x3c1c9fcdbc9c9fcdU, 0x3e12d5d03d43c7c0U, 0xbe2cf0723d9c9fcdU,
  0x3e3d4117bc1c9fcdU, 0xbd50d511be161924U, 0x3d36ba6f3d6aefb3U, 0xbdf7fd043ceaefb3U,
  0xbd9c9fcd3d02852bU, 0xbd77fd043dca4e68U, 0xbd43c7c03d1c9fcdU, 0x3ceaefb33c50d511U,
  0xbd77fd04bd43c7c0U, 0x3db033c63d6aefb3U, 0xbe0f927cbd77fd04U, 0x3d8f927cbd961924U,
  0xbe3033c63c50d511U, 0xbd02852bbbd0d511U, 0xbb50d511bb50d511U, 0xbd02852bbd0f927cU,
  0xbe195c78bc50d511U, 0xbe2cf072U, 0x3e16192400000000U, 0xbe12d5d0bcd0d511U,
  0x3da32675bc1c9fcdU, 0x3d0f927c3d02852bU, 0x3e2669cabbd0d511U, 0xbdca4e68bdb033c6U,
  0x3e0c4f273bd0d511U, 0xbdd0d5113deaefb3U, 0x3c9c9fcd3e29ad1eU, 0x3d77fd04bd961924U,
  0x3d1c9fcdbdd75bbaU, 0x3dbd4117U, 0xbd961924bd9c9fcdU, 0xbdc3c7c03dfe83adU,
  0x3c82852b3b50d511U, 0x3d50d511be40846cU, 0xbc82852bbd02852bU, 0xbd43c7c03d77fd04U,
  0xbcb6ba6f3d02852bU, 0x3d29ad1e3dbd4117U, 0xbd02852bbd43c7c0U, 0xbdfe83adU,
  0x3d8f927c3d1c9fcdU, 0x3e36ba6fbd9c9fcdU, 0xbbd0d5113d77fd04U, 0x3d961924bd1c9fcdU,
  0xbddde2623c82852bU, 0xbdeaefb33e12d5d0U, 0x3d02852b3da9ad1eU, 0x3cb6ba6f00000000U,
  0xbd1c9fcd3e1fe321U, 0xbe29ad1ebdbd4117U, 0x3de4690bbdd75bbaU, 0x3d1c9fcd3c82852bU,
  0xbc1c9fcdbcb6ba6fU, 0x3d77fd043df7fd04U, 0x3c50d511be1c9fcdU, 0x3db6ba6f3cb6ba6fU,
  0xbdb6ba6fbdbd4117U, 0x3c50d5113df1765cU, 0x3d961924bd50d511U, 0xbb50d5113b50d511U,
  0xbcb6ba6fbdd0d511U, 0xbd9c9fcd3e1fe321U, 0x3e0f927cbe161924U, 0x3c50d5113c1c9fcdU,
  0xbc9c9fcdbc9c9fcdU, 0x3de4690bbd77fd04U, 0x3e1c9fcdbe195c78U, 0x3c82852bbd5de262U,
  0x3df1765cbdb6ba6fU, 0xbd6aefb3bbd0d511U, 0x3d50d511bcb6ba6fU, 0x3ceaefb33c1c9fcdU,
  0x3d890bd3be0c4f27U, 0x3bd0d5113c9c9fcdU, 0xbd9c9fcdbdc3c7c0U, 0x3cd0d5113da9ad1eU,
  0x3c9c9fcd3d29ad1eU, 0x3e090bd33ceaefb3U, 0xbdfe83ad3dca4e68U, 0xbdeaefb3bd5de262U,
  0x3ceaefb3be43c7c0U, 0xbdfe83ad3d02852bU, 0xbc82852bbd43c7c0U, 0x3bd0d5113e161924U,
  0x3d9c9fcdbc50d511U, 0xbceaefb3bb50d511U, 0xbdeaefb3be02852bU, 0x3b50d5113bd0d511U,
  0xbdf1765c3db033c6U, 0xbd0f927c3d5de262U, 0x3e2326753d1c9fcdU, 0xbd50d511bd36ba6fU,
  0xbc82852bU, 0xbd8f927c3dd75bbaU, 0xbddde262be2669caU, 0x3db033c6bdd0d511U,
  0x3e195c783d50d511U, 0x3d82852b3e575bbaU, 0xbdd0d5113e43c7c0U, 0x3deaefb3bd77fd04U,
  0x3e8df0d2bdc3c7c0U, 0xbda32675bd77fd04U, 0x3e2669ca3da9ad1eU, 0x3cb6ba6fbceaefb3U,
  0xbe4a4e68bd36ba6fU, 0xbcb6ba6f3e2cf072U, 0x3e05c87f3e2669caU, 0xbdeaefb3bd02852bU,
  0x3d9c9fcdbd43c7c0U, 0xbb50d5113dd75bbaU, 0xbd890bd3bbd0d511U, 0x3cb6ba6f3d961924U,
  0x3d8f927cbd1c9fcdU, 0xbd0f927c3df1765cU, 0xbcb6ba6f3d5de262U, 0xbc9c9fcd3d9c9fcdU,
  0xbd43c7c03cd0d511U, 0xbd9619243c9c9fcdU, 0x3d36ba6f3d36ba6fU, 0x3c50d511bd77fd04U,
  0x3d8f927cbc82852bU, 0x3e05c87fbd9c9fcdU, 0x3dc3c7c03cd0d511U, 0xbceaefb3bde4690bU,
  0xbdfe83adbe232675U, 0x3de4690b3d43c7c0U, 0xbe2cf0723da32675U, 0x3d5de2623e33771bU,
  0xbe12d5d0bd50d511U, 0x3e195c783d43c7c0U, 0xbd77fd04bd6aefb3U, 0x3dca4e68bceaefb3U,
  0xbd29ad1ebc9c9fcdU, 0x3cd0d5113c82852bU, 0x3e1c9fcdbdc3c7c0U, 0xbd77fd04bd961924U,
  0x3d82852b3d29ad1eU, 0xbe36ba6f3d0f927cU, 0xbd890bd33e05c87fU, 0xbdca4e68bd43c7c0U,
  0xbd02852b3dd0d511U, 0x3b50d5113d1c9fcdU, 0xbd82852b3de4690bU, 0xbd890bd3bd961924U,
  0xbd29ad1e3c9c9fcdU, 0x3d6aefb3bd02852bU, 0xbe05c87fbda9ad1eU, 0xbe1c9fcd3c9c9fcdU,
  0xbd890bd3bcd0d511U, 0xbd36ba6f3dd75bbaU, 0x3bd0d5113e195c78U, 0x3bd0d5113d1c9fcdU,
  0x3d1c9fcdbd77fd04U, 0xbcb6ba6f3c9c9fcdU, 0xbd29ad1ebc1c9fcdU, 0xbd1c9fcd3d5de262U,
  0x3d1c9fcd3e64690bU, 0xbdfe83ad3cd0d511U, 0x3ceaefb33da32675U, 0x3db6ba6f3e090bd3U,
  0x3c1c9fcdbc1c9fcdU, 0xbe02852b3d82852bU, 0xbb50d511U, 0x3d8f927c3c50d511U,
  0x3deaefb33d77fd04U, 0x3d50d511bdbd4117U, 0x3c1c9fcd3c1c9fcdU, 0x3db6ba6fbd0f927cU,
  0xbbd0d511bd29ad1eU, 0xbe195c78bda9ad1eU, 0x3db6ba6fbdca4e68U, 0x3e67ac5f3d6aefb3U,
  0x3dbd4117bd43c7c0U, 0x3dfe83adbd6aefb3U, 0x3b50d5113d1c9fcdU, 0x3c1c9fcd3cb6ba6fU,
  0xbcd0d511bd02852bU, 0xbdf1765c3ceaefb3U, 0xbe33771bbddde262U, 0x3d961924bd82852bU,
  0x3c82852bbd961924U, 0x3c82852bbc50d511U, 0x3bd0d511bbd0d511U, 0xbd890bd3bceaefb3U,
  0xbd50d5113df7fd04U, 0xbe12d5d0bd36ba6fU, 0x3d50d511bddde262U, 0xbc1c9fcdbd8f927cU,
  0xbb50d5113e33771bU, 0xbceaefb3bd82852bU, 0x3de4690b3dca4e68U, 0x3db033c6bc1c9fcdU,
  0x3d6aefb3bd890bd3U, 0xbdf7fd04bd961924U, 0x3d9c9fcd3e0c4f27U, 0xbdeaefb3bd82852bU,
  0xbdb033c63e3033c6U, 0x3dbd4117bd02852bU, 0x3d890bd3bda9ad1eU, 0xbb50d511bd890bd3U,
  0x3da326753c1c9fcdU, 0x3db6ba6fbe29ad1eU, 0xbd29ad1ebd50d511U, 0xbdb033c6bd5de262U,
  0xbe05c87f3bd0d511U, 0xbcb6ba6fbdb033c6U, 0x3d02852bbd77fd04U, 0x3e1619243d8f927cU,
  0x3d02852bbd0f927cU, 0x3d43c7c0bd9c9fcdU, 0x3db6ba6f3e1fe321U, 0x3c9c9fcd3b50d511U,
  0xbd9c9fcdbe64690bU, 0x3e195c78bda32675U, 0xbdca4e68bd961924U, 0x3ceaefb33d1c9fcdU,
  0xbe02852bbc50d511U, 0x3d6aefb33ceaefb3U, 0xbd9619243d9c9fcdU, 0xbd36ba6fbd43c7c0U,
  0xbd8f927c3da9ad1eU, 0x3e0f927c3d0f927cU, 0xbdd75bbabd82852bU, 0x3e2326753dbd4117U,
  0x3dbd41173c1c9fcdU, 0xbd02852bbd8f927cU, 0xbd77fd04bb50d511U, 0xbddde262bd961924U,
  0xbe64690b3cd0d511U, 0x3bd0d511be4a4e68U, 0xbe1619243e232675U, 0x3d50d5113c1c9fcdU,
  0x3c50d5113c1c9fcdU, 0x3d43c7c03dc3c7c0U, 0xbc82852b3df1765cU, 0x3bd0d5113d5de262U,
  0xbceaefb33c9c9fcdU, 0x3d82852bbe961924U, 0xbe92d5d0bea32675U, 0xbe36ba6f3e3d4117U,
  0x3d77fd043dca4e68U, 0xbdb6ba6f3d36ba6fU, 0x3da9ad1ebc9c9fcdU, 0x3e74b9b03df7fd04U,
  0x3d29ad1e3e80e380U, 0x3d8f927cbceaefb3U, 0x3e02852b3cd0d511U, 0x3d961924bde4690bU,
  0xbdbd41173e1c9fcdU, 0xbe1c9fcd3d43c7c0U, 0xbe575bba3c82852bU, 0xbe50d511be12d5d0U,
  0xbd82852bbe33771bU, 0x3da9ad1e3d50d511U, 0xbe39fdc33d02852bU, 0x3e02852b3e67ac5fU,
  0x3e4d91bd3d82852bU, 0x3d1c9fcd00000000U, 0xbde4690b3da9ad1eU, 0x3d02852b3d50d511U,
  0x3cd0d5113d1c9fcdU, 0x3c9c9fcdbcb6ba6fU, 0x3dc3c7c03e0c4f27U, 0x3db033c6bdf1765cU,
  0x3dd75bba3b50d511U, 0x3d29ad1e3c82852bU, 0x3df1765cbdf7fd04U, 0x3e161924bc1c9fcdU,
  0xbe5a9f0ebd77fd04U, 0xbe090bd33d890bd3U, 0xbd9c9fcd3e12d5d0U, 0x3e9134263e575bbaU,
  0xbe02852b3df7fd04U, 0xbbd0d5113e82852bU, 0x3e470b14bd43c7c0U, 0x3e43c7c0bd9c9fcdU,
  0xbe876a293ceaefb3U, 0xbbd0d5113e195c78U, 0x3c50d511be36ba6fU, 0xbc50d5113e2cf072U,
  0x3d9c9fcd3d0f927cU, 0x3e39fdc3bd961924U, 0x3dd75bbabe6125b6U, 0xbc1c9fcd3c50d511U,
  0x3d890bd33d36ba6fU, 0x3e1c9fcd3e43c7c0U, 0xbd50d5113de4690bU, 0xbdb033c6bc82852bU,
  0xbd29ad1e3deaefb3U, 0xbdd0d5113e71765cU, 0xbe29ad1ebda9ad1eU, 0x3df1765c3e5de262U,
  0x3da9ad1e3d0f927cU, 0xbd50d511be5a9f0eU, 0xbc82852b3c1c9fcdU, 0x3d8f927c3d6aefb3U,
  0x3e1c9fcdbd890bd3U, 0x3d9619243dca4e68U, 0x3c82852bbd5de262U, 0x3cd0d5113d29ad1eU,
  0x3dd75bba3d1c9fcdU, 0x3d02852b3df7fd04U, 0x3da326753deaefb3U, 0xbc50d511bdfe83adU,
  0x3deaefb33dc3c7c0U, 0x3bd0d511bdc3c7c0U, 0xbd29ad1e3dbd4117U, 0x3ddde2623d8f927cU,
  0xbdb6ba6f3d36ba6fU, 0xbd9619243db6ba6fU, 0xbd890bd33d5de262U, 0xbd1c9fcd3d8f927cU,
  0x3e2669cabdd0d511U, 0xbd9c9fcdbd36ba6fU, 0xbdb033c6bd77fd04U, 0x3d02852b3db6ba6fU,
  0xbd1c9fcdbd961924U, 0xbd02852b3d5de262U, 0x3e12d5d03e090bd3U, 0x3d43c7c0be2cf072U,
  0x3cd0d51100000000U, 0x3d43c7c0bda9ad1eU, 0x3d77fd04bd43c7c0U, 0xbd29ad1e3d02852bU,
  0x3dfe83adbdd0d511U, 0x3b50d511bcd0d511U, 0xbdb033c63ceaefb3U, 0x3d29ad1e3d29ad1eU,
  0xbd82852bbbd0d511U, 0x3dbd4117bcd0d511U, 0xbd8f927cbda9ad1eU, 0x3da326753dc3c7c0U,
  0x3d36ba6fbdfe83adU, 0x3d890bd33c9c9fcdU, 0x3e6e33073dca4e68U, 0xbe05c87fbd29ad1eU,
  0x3e2cf0723cd0d511U, 0x3d36ba6fbda9ad1eU, 0xbd29ad1ebd0f927cU, 0xbd6aefb33d8f927cU,
  0x3d29ad1e3d82852bU, 0x3dfe83ad3cd0d511U, 0x3e161924bddde262U, 0xbe195c7800000000U,
  0xbe3033c6bda9ad1eU, 0xbdb033c63da9ad1eU, 0x3c50d511bb50d511U, 0x3deaefb3bda9ad1eU,
  0x3ceaefb33d8f927cU, 0xbcd0d511bd0f927cU, 0x3c50d511bd961924U, 0xbdd75bba3d8f927cU,
  0xbdeaefb3bda9ad1eU, 0x3d8f927cbd50d511U, 0x3c82852b3db6ba6fU, 0xbd50d511bde4690bU,
  0xbd29ad1e3d36ba6fU, 0x3b50d5113dca4e68U, 0x3d77fd04bcd0d511U, 0x3dca4e683d29ad1eU,
  0x3d77fd04bda32675U, 0xbdf7fd04be02852bU, 0x3d29ad1e3dc3c7c0U, 0x3dd75bbabd1c9fcdU,
  0x3e6125b63c50d511U, 0x3d82852b3dd75bbaU, 0xbd0f927c3e33771bU, 0xbd890bd3bc50d511U,
  0x3c1c9fcd3d02852bU, 0x3d82852bU, 0xbd36ba6f3d29ad1eU, 0x3c9c9fcd3ceaefb3U,
  0xbe232675bd9c9fcdU, 0x3d43c7c03e1c9fcdU, 0xbe02852bbd43c7c0U, 0xbd1c9fcd3e05c87fU,
  0xbd0f927c3ceaefb3U, 0x3bd0d511bd82852bU, 0x3ceaefb33dca4e68U, 0xbdf7fd04bc50d511U,
  0x3d50d511bd9c9fcdU, 0xbe02852b3d8f927cU, 0x3d5de2623e40846cU, 0x3dca4e68bde4690bU,
  0x3dc3c7c0bdd0d511U, 0xbc82852bbde4690bU, 0x3ceaefb33da9ad1eU, 0x3c82852bbd961924U,
  0x3e2cf072bcd0d511U, 0x3d1c9fcdbe50d511U, 0x3dbd41173d0f927cU, 0xbd36ba6fbe195c78U,
  0x3cb6ba6f3df1765cU, 0xbe1c9fcdbd36ba6fU, 0x3d890bd33d5de262U, 0xbcd0d511bcb6ba6fU,
  0x3da32675bd6aefb3U, 0xbda326753d9c9fcdU, 0xbd77fd043d02852bU, 0x3e97bacebd29ad1eU,
  0x3e1c9fcd3cd0d511U, 0xbdd0d5113d43c7c0U, 0x3bd0d5113d43c7c0U, 0xbe090bd33dca4e68U,
  0xbe0f927cbe541865U, 0xbe12d5d0bd29ad1eU, 0xbcd0d511be12d5d0U, 0xbd02852b3e8c4f27U,
  0x3d8f927c3e2cf072U, 0x3d29ad1ebd8f927cU, 0x3de4690bbc1c9fcdU, 0xbd29ad1e00000000U,
  0xbd36ba6f3e1fe321U, 0x3dd75bbabda9ad1eU, 0xbbd0d511bc9c9fcdU, 0x3d1c9fcdbe232675U,
  0x3d77fd04be39fdc3U, 0xbe05c87fbe12d5d0U, 0xbd50d511bc9c9fcdU, 0xbd50d511bc1c9fcdU,
  0xbd50d511bb50d511U, 0xbd77fd04bd43c7c0U, 0xbdb6ba6f3dd0d511U, 0xbd50d5113e195c78U,
  0xbdf7fd04bd890bd3U, 0xbd02852bbd8f927cU, 0xbdbd41173d29ad1eU, 0x3dd0d5113bd0d511U,
  0x3c406f763c105398U, 0xbda25e0c3dd87d65U, 0xbdea87d83d844ca1U, 0x3d1c5a903cd87d65U,
  0x3e3a6bfabca86187U, 0xbebeee973d64845cU, 0x3da25e0cbd4c766dU, 0xbd1c5a90bd1c5a90U,
  0x3d8a501dbc406f76U, 0x3e074e5fbc406f76U, 0xbcf08b543e135556U, 0xbca86187bcc06f76U,
  0x3cc06f76bdde80e0U, 0x3cd87d653d286187U, 0x3c406f76bd286187U, 0x3bc06f76U,
  0x3d2861873c905398U, 0xbe044ca1bd406f76U, 0xbd844ca13d044ca1U, 0xbe1f5c4ebe4974b0U,
  0xbbc06f763d105398U, 0x3bc06f76bcf08b54U, 0xbc406f76bc105398U, 0x3bc06f76be3166c1U,
  0x3d34687f3e85cd80U, 0x3b406f76bd844ca1U, 0x3ca861873d1c5a90U, 0xbcf08b543bc06f76U,
  0xbe3166c13c105398U, 0xbd9657143cf08b54U, 0xbd64845cbbc06f76U, 0x3d286187bd34687fU,
  0x3df68ecf3e135556U, 0xbd587d653d64845cU, 0x3e3166c1bd905398U, 0x3e2e65033b406f76U,
  0x3e85cd80bd044ca1U, 0xbeab6345bda25e0cU, 0xbe5279e9bcc06f76U, 0xbe286187bc406f76U,
  0xbd044ca13e044ca1U, 0x3e3166c13cd87d65U, 0x3df68ecf3e1958d2U, 0xbd9c5a90bd64845cU,
  0xbd34687fbbc06f76U, 0xbd8a501dbe4c766dU, 0x3e406f76bdfc924bU, 0xbe64845c3db4687fU,
  0xbe4672f23e044ca1U, 0xbe255fc9bd406f76U, 0x3cf08b54bdcc766dU, 0xbe2b6345be014ae3U,
  0xbd9c5a903e0d51dbU, 0x3dfc924bbcc06f76U, 0xbd965714be3d6db8U, 0xbc1053983d965714U,
  0x3c708b543dba6bfaU, 0xbde4845c3e376a3cU, 0x3e4974b0be074e5fU, 0xbdfc924bbe1958d2U,
  0xbe165714bbc06f76U, 0x3dc06f763e7f9409U, 0x3e3a6bfa3d844ca1U, 0x3dcc766d3e0a501dU,
  0x3df68ecf3d286187U, 0x3dea87d83d64845cU, 0xbe1355563c406f76U, 0xbbc06f763d4c766dU,
  0xbe64845cbe135556U, 0xbca861873e557ba7U, 0xbd64845cU, 0xbbc06f763c708b54U,
  0x3e2b63453dcc766dU, 0x3e1c5a90bd044ca1U, 0xbdea87d8bdde80e0U, 0xbd34687fbdea87d8U,
  0x3d406f763dfc924bU, 0xbc708b54be3166c1U, 0x3cd87d65bd34687fU, 0x3e2e65033d105398U,
  0xbc406f763d286187U, 0x3d965714bca86187U, 0xbd406f76bdba6bfaU, 0xbd965714be014ae3U,
  0xbd844ca1bd965714U, 0xbd406f763d8a501dU, 0xbd9c5a90bbc06f76U, 0xbdc06f763db4687fU,
  0x3d9053983e1c5a90U, 0x3dba6bfabdd279e9U, 0xbdc06f763d7c924bU, 0xbd708b54bc708b54U,
  0xbdd279e9bd105398U, 0xbda861873bc06f76U, 0x3e074e5f3e165714U, 0x3ca861873dfc924bU,
  0x3cf08b54bc708b54U, 0x3ca86187bbc06f76U, 0x3c406f76U, 0xbc105398bc905398U,
  0xbda25e0c3bc06f76U, 0xbc105398bc105398U, 0x3c708b543bc06f76U, 0x3c708b54bc406f76U,
  0xbc406f76bc406f76U, 0x3cd87d653c406f76U, 0xbcd87d65bd105398U, 0xbbc06f763b406f76U,
  0x3cf08b54bbc06f76U, 0x3c905398bc905398U, 0x3c1053983b406f76U, 0xbc90539800000000U,
  0xbb406f76bc406f76U, 0x3b406f763c905398U, 0x3c105398bb406f76U, 0x3bc06f76bc105398U,
  0xbb406f76bc105398U, 0xbcc06f763b406f76U, 0x3bc06f7600000000U, 0xbc406f763bc06f76U,
  0xbbc06f76bc708b54U, 0xbcc06f76bc708b54U, 0xbc708b543c708b54U, 0x3b406f763cc06f76U,
  0x3c905398bbc06f76U, 0x3cd87d65bb406f76U, 0xbd1053983cd87d65U, 0x3d1c5a90bc905398U,
  0x3ca86187bbc06f76U, 0xbe044ca13e2e6503U, 0xbe9958d23d044ca1U, 0x3e0d51dbbde4845cU,
  0x3e1f5c4e3d587d65U, 0x3e874e5fbd7c924bU, 0x3d9053983e34687fU, 0xbe1f5c4ebd8a501dU,
  0xbd406f76be165714U, 0xbd1c5a90bde4845cU, 0x3cf08b54bca86187U, 0xbdde80e0bd105398U,
  0xbd8a501d3dc672f2U, 0x3d044ca13e4672f2U, 0xbca861873cc06f76U, 0x3e1657143e1f5c4eU,
  0x3d105398U, 0x3df08b54bc406f76U, 0xbdd87d653dd279e9U, 0xbd4c766d3e9ad9b1U,
  0x3df68ecf3e376a3cU, 0x3e406f763db4687fU, 0x3dae65033dc06f76U, 0x3d2861873d406f76U,
  0xbdde80e0be935556U, 0xbe286187bd8a501dU, 0x3da25e0cbd587d65U, 0x3d587d653e165714U,
  0xbdae65033e1958d2U, 0xbe6d89963d9c5a90U, 0x3d905398bdcc766dU, 0x3df68ecfbe5b7f23U,
  0xbd965714be105398U, 0x3e8d51dbbe5b7f23U, 0x3c708b543e044ca1U, 0xbe014ae33e074e5fU,
  0xbda25e0cbe135556U, 0xbd406f76bdc672f2U, 0xbda25e0cbe376a3cU, 0xbe1657143df08b54U,
  0x3cd87d65bdfc924bU, 0x3e557ba73e044ca1U, 0xbe2e6503bd34687fU, 0xbd64845cbd844ca1U,
  0xbbc06f763d7c924bU, 0x3e5e80e0be135556U, 0x3d9053983d105398U, 0x3e165714bcc06f76U,
  0x3dc06f76bd905398U, 0x3dba6bfabd587d65U, 0xbc406f763c105398U, 0x3bc06f76be074e5fU,
  0x3d4c766d3e165714U, 0x3d406f763dde80e0U, 0xbd34687f3c105398U, 0x3d406f76bdb4687fU,
  0x3d9053983cf08b54U, 0x3da25e0c3df68ecfU, 0x3dc672f23b406f76U, 0x3dc672f23e376a3cU,
  0xbe1053983d844ca1U, 0x3c406f763de4845cU, 0xbcd87d65be044ca1U, 0x3e255fc93d4c766dU,
  0xbc905398bd844ca1U, 0x3da86187bd34687fU, 0xbd7c924b3c105398U, 0x3cf08b54bdba6bfaU,
  0x3e3a6bfa3d1c5a90U, 0xbe4f782b3e1c5a90U, 0xbdd87d65bd105398U, 0xbd587d653d4c766dU,
  0x3df68ecf3d965714U, 0x3e074e5fbe014ae3U, 0x3dc06f763e135556U, 0x3df68ecfbd105398U,
  0xbbc06f763d965714U, 0xbd044ca13dde80e0U, 0xbe014ae33e014ae3U, 0x3d1053983d587d65U,
  0xbdea87d8U, 0xbe406f763de4845cU, 0x3e4371343d4c766dU, 0xbd1c5a90be1f5c4eU,
  0x3c9053983d708b54U, 0xbbc06f763d905398U, 0x3d2861873d844ca1U, 0xbd4c766dbe905398U,
  0xbe044ca13d965714U, 0x3d044ca13e82cbc2U, 0x3e0a501dbd7c924bU, 0x3d587d653c708b54U,
  0xbb406f76bd044ca1U, 0xbdae6503bd8a501dU, 0xbe286187be1958d2U, 0xbd044ca1bdba6bfaU,
  0x3c1053983cf08b54U, 0xbbc06f76U, 0x3c105398bc708b54U, 0x3d4c766d00000000U,
  0x3e587d65bc406f76U, 0xbdb4687f3e1958d2U, 0x3d1c5a903c105398U, 0xbcc06f763d044ca1U,
  0xbd105398bd9c5a90U, 0xbdb4687fbd286187U, 0xbb406f763dde80e0U, 0xbcc06f76bc905398U,
  0x3c406f763c905398U, 0xbc708b54bc105398U, 0x3bc06f76bd708b54U, 0x3cd87d65bbc06f76U,
  0x3d844ca1bc105398U, 0xbc9053983d1c5a90U, 0x3c708b54bca86187U, 0x3ca861873db4687fU,
  0x3cc06f76bd34687fU, 0xbdc06f763b406f76U, 0x3c1053983cf08b54U, 0xbc406f76bd4c766dU,
  0x3d2861873d587d65U, 0x3c708b543d7c924bU, 0xbcd87d653d406f76U, 0x3d1c5a90bcc06f76U,
  0xbc9053983d1c5a90U, 0xbcf08b54U, 0xbd044ca1bc105398U, 0xbc406f76bc105398U,
  0x3d286187bc406f76U, 0x3d34687fbbc06f76U, 0xbcc06f76bc105398U, 0x3d2861873ca86187U,
  0x3e225e0c3c708b54U, 0x3cf08b543d8a501dU, 0xbc406f76bbc06f76U, 0x3cc06f763c105398U,
  0x3cd87d653c708b54U, 0xbdb4687fbcf08b54U, 0xbc9053983d7c924bU, 0xbd1053983cf08b54U,
  0x3c406f76bc708b54U, 0xbd286187bcc06f76U, 0x3bc06f76bc905398U, 0xbcf08b54bc105398U,
  0x3cd87d653c406f76U, 0xbbc06f763ca86187U, 0x3d1c5a90bb406f76U, 0x3b406f763d64845cU,
  0xbcd87d65U, 0xbd7c924bbcd87d65U, 0x3cc06f76bcf08b54U, 0x3cd87d65bc406f76U,
  0x3b406f76bca86187U, 0x3c9053983d7c924bU, 0xbcc06f763c105398U, 0x3c708b54bc708b54U,
  0xbc406f76bc105398U, 0xbcf08b54bc105398U, 0x3d1c5a90bca86187U, 0xbcc06f763c708b54U,
  0xbe2b63453db4687fU, 0xbe1c5a9000000000U, 0xbd1c5a90bdae6503U, 0xbe1c5a90bd905398U,
  0xbd4c766dbd1c5a90U, 0x3e2b6345bd286187U, 0x3e2e6503be165714U, 0xbdcc766d3d905398U,
  0x3e0d51db3d406f76U, 0x3cf08b543e34687fU, 0x3e1355563cd87d65U, 0x3c406f763de4845cU,
  0x3df08b543e165714U, 0xbdc672f23e225e0cU, 0xbe044ca1be437134U, 0xbd1c5a90bd708b54U,
  0x3d105398bc708b54U, 0xbdde80e0bd965714U, 0x3d7c924bbd587d65U, 0xbd286187bcd87d65U,
  0x3cc06f763de4845cU, 0xbda86187be587d65U, 0xbd9c5a90bd4c766dU, 0x3ca86187be1c5a90U,
  0x3db4687fbdc672f2U, 0x3e3d6db8bc708b54U, 0x3e738d113dea87d8U, 0x3dba6bfabd708b54U,
  0xbc1053983de4845cU, 0xbde4845c3d105398U, 0x3e014ae3bd708b54U, 0xbe3d6db83e2e6503U,
  0xbdcc766d3cc06f76U, 0xbdc06f763d587d65U, 0x3e225e0cbdc06f76U, 0xbca861873d105398U,
  0x3e406f763da25e0cU, 0x3d1c5a90bdd279e9U, 0x3d587d653d1c5a90U, 0x3e1f5c4e3c105398U,
  0xbdd87d653d1c5a90U, 0x3e406f763dae6503U, 0x3e3166c1be82cbc2U, 0x3cd87d653df68ecfU,
  0x3c905398bd905398U, 0xbd64845c3dc06f76U, 0xbd1c5a903d105398U, 0xbe5b7f23be014ae3U,
  0xbd7c924bbdae6503U, 0xbd708b543c708b54U, 0xbca86187bcc06f76U, 0xbcc06f76bdde80e0U,
  0xbd7c924bU, 0xbe2e6503bdea87d8U, 0xbc105398bdde80e0U, 0xbbc06f76bda25e0cU,
  0x3d9c5a903d34687fU, 0x3d8a501d3cd87d65U, 0x3c406f763d965714U, 0xbd1c5a90U,
  0x3dcc766d3d044ca1U, 0x3dd279e9bcd87d65U, 0x3db4687f3d105398U, 0xbd044ca13d044ca1U,
  0x3cc06f76bb406f76U, 0xbc708b54bd587d65U, 0x3cc06f763b406f76U, 0x3c10539800000000U,
  0xbe014ae33cc06f76U, 0x3c406f76bd406f76U, 0x3c905398U, 0xbca8618700000000U,
  0xbcd87d653bc06f76U, 0x3d406f7600000000U, 0xbca86187bd8a501dU, 0xbcd87d65bc406f76U,
  0x3bc06f763b406f76U, 0xbc406f76bcf08b54U, 0xbb406f763d34687fU, 0xbca861873c406f76U,
  0x3bc06f763b406f76U, 0x3c708b543c905398U, 0x3c90539800000000U, 0xbd587d65U,
  0x3cc06f76bcd87d65U, 0xbb406f76bc905398U, 0x3bc06f763ca86187U, 0x3cf08b54bb406f76U,
  0xbcf08b54bd8a501dU, 0xbca86187bc708b54U, 0xbc708b5400000000U, 0xbc406f763bc06f76U,
  0x3c708b5400000000U, 0x3ca86187bc105398U, 0xbb406f7600000000U, 0x3d1c5a90bbc06f76U,
  0xbdcc766d3d587d65U, 0xbc905398bcd87d65U, 0xbe1053983cd87d65U, 0x3e1657143c406f76U,
  0x3d9053983d7c924bU, 0xbdcc766d3e255fc9U, 0xbd708b543dfc924bU, 0xbdae650300000000U,
  0xbdf08b54bd34687fU, 0xbc708b54bc905398U, 0x3e406f76bd9c5a90U, 0xbde4845cbb406f76U,
  0xbde4845c3d587d65U, 0x3e376a3c3e6a87d8U, 0x3d2861873dae6503U, 0xbe286187bd4c766dU,
  0xbd708b54bdae6503U, 0xbd286187bd1c5a90U, 0xbd587d653bc06f76U, 0xbe1f5c4e3d406f76U,
  0x3e074e5f3e5b7f23U, 0x3d708b543de4845cU, 0x3c905398bdea87d8U, 0x3c905398bd406f76U,
  0x3d64845cbe0a501dU, 0xbdde80e03dd87d65U, 0x3e135556bd4c766dU, 0x3d708b543e34687fU,
  0xbe044ca13e6d8996U, 0xbb406f763e4f782bU, 0x3e4c766dbda86187U, 0x3e1c5a90bdd279e9U,
  0xbca86187bc708b54U, 0x3d044ca1bc105398U, 0x3cd87d653d105398U, 0xbd1c5a903c905398U,
  0x3cf08b543b406f76U, 0x3c9053983c105398U, 0x3c406f763c105398U, 0x3b406f7600000000U,
  0x3cc06f763c708b54U, 0xbc905398bc105398U, 0xbbc06f763c708b54U, 0xbb406f76bc105398U,
  0x3c406f763c105398U, 0x3c105398bc708b54U, 0xbb406f763c105398U, 0xbb406f7600000000U,
  0x3d105398bc406f76U, 0xbc708b543c105398U, 0xbc105398U, 0x3ca86187bc905398U,
  0x3c708b54U, 0xbb406f76bc905398U, 0xbc406f76bb406f76U, 0x3c10539800000000U,
  0x0U, 0x3c406f7600000000U, 0xbc708b543c105398U, 0xbc406f76U,
  0x3bc06f76bc708b54U, 0xbb406f76bc105398U, 0xbb406f76bb406f76U, 0xbca86187bc406f76U,
  0xbdb4687f3d708b54U, 0xbdcc766d3d286187U, 0xbdc672f23d1c5a90U, 0x3e1c5a903e0a501dU,
  0x3dea87d83e1c5a90U, 0x3e4c766dbe3d6db8U, 0x3c406f763e074e5fU, 0x3e4974b03bc06f76U,
  0xbe905398be286187U, 0xbd64845cbe044ca1U, 0x3d4c766d3de4845cU, 0xbd708b543d8a501dU,
  0xbe225e0cbe4974b0U, 0x3e0a501d3e768ecfU, 0xbdc672f23e61829eU, 0xbdf08b54be165714U,
  0x3c105398bda86187U, 0x3e2b63453d105398U, 0xbe0d51db3dae6503U, 0xbda861873b406f76U,
  0x3d905398bc708b54U, 0xbdfc924b3dd279e9U, 0x3cc06f76bc406f76U, 0xbc9053983e0a501dU,
  0xbd286187bdde80e0U, 0xbdf68ecfbd34687fU, 0xbe3d6db8bcc06f76U, 0xbbc06f763e1958d2U,
  0xbdd279e93dfc924bU, 0x3da25e0cbdd87d65U, 0x3df08b54bd587d65U, 0x3d286187be79908dU,
  0x3cc06f76bb406f76U, 0xbdc672f23e0d51dbU, 0x3d4c766dbda86187U, 0xbd1c5a90bca86187U,
  0x3e2b63453cf08b54U, 0x3dfc924bbe3a6bfaU, 0xbdba6bfa3dc06f76U, 0x3d34687f3c105398U,
  0xbdd279e9bd286187U, 0xbd708b543c905398U, 0xbb406f76bc406f76U, 0x3d7c924b3d1c5a90U,
  0xbc905398bd8a501dU, 0xbd9c5a903dfc924bU, 0x3dcc766dU, 0xbdcc766dbc708b54U,
  0x3c406f76bd105398U, 0xbc708b543d7c924bU, 0xbd7c924bbd34687fU, 0xbe044ca1be4c766dU,
  0x3cc06f76bd34687fU, 0x3b406f76U, 0x3d4c766dbcf08b54U, 0xbcc06f763d708b54U,
  0x3d34687fbd8a501dU, 0x3e074e5fbb406f76U, 0x3dd279e93d708b54U, 0x3d044ca13d708b54U,
  0xbe3166c1bd105398U, 0x3cf08b54bc105398U, 0x3eab6345bd708b54U, 0x3dde80e03d587d65U,
  0x3b406f763dc672f2U, 0x3e074e5f3d708b54U, 0xbe708b543d1c5a90U, 0x3de4845cbd708b54U,
  0xbd8a501dbcc06f76U, 0xbbc06f76bd8a501dU, 0x3b406f763e2e6503U, 0xbe1355563b406f76U,
  0x3e255fc93e844ca1U, 0x3e8a501dbe376a3cU, 0x3c9053983cc06f76U, 0x3b406f76bdba6bfaU,
  0xbc708b543e4672f2U, 0xbc406f76bcc06f76U, 0x3c905398bd1c5a90U, 0x3db4687fbdba6bfaU,
  0xbd8a501dbd286187U, 0xbd905398bd105398U, 0xbdd87d65be376a3cU, 0xbe64845c3b406f76U,
  0x3d286187bc406f76U, 0xbe0a501d3d7c924bU, 0xbcf08b54bd64845cU, 0xbdea87d8be5e80e0U,
  0x3e768ecf3e64845cU, 0x3e1958d2bc406f76U, 0x3d1c5a903e014ae3U, 0xbd34687f3d8a501dU,
  0xbd1053983e105398U, 0xbe376a3c3d8a501dU, 0x3c708b543e34687fU, 0x3d2861873e105398U,
