
/**
  ******************************************************************************
  * @file    network_data.c
  * @author  AST Embedded Analytics Research Platform
  * @date    Wed Mar 16 09:48:12 2022
  * @brief   AI Tool Automatic Code Generator for Embedded NN computing
  ******************************************************************************
  * @attention
  *
  * Copyright (c) 2021 STMicroelectronics.
  * All rights reserved.
  *
  * This software is licensed under terms that can be found in the LICENSE file
  * in the root directory of this software component.
  * If no LICENSE file comes with this software, it is provided AS-IS.
  ******************************************************************************
  */
#include "network_data.h"
#include "ai_platform_interface.h"

AI_API_DECLARE_BEGIN

AI_ALIGNED(32)
const ai_u64 s_network_network_weights_array_u64[ 1486 ] = {
  0x4a00c3e0fe371129U, 0xf9e7f04107e025ecU, 0x12fadb292ae0df0aU, 0x1fce10eee6dff818U,
  0x2da06211b1fe0efU, 0x71700e407f61cfaU, 0x6edf7031dedea08U, 0xdc17fd17f7f1e61eU,
  0xaff17f3df0b2615U, 0xdf0c20cfed110d1eU, 0xe31021f7fb11dd03U, 0xdfc912f349ee16c2U,
  0xeed22de6f7e3e930U, 0xe0d7ef07e1d304f9U, 0xcf2533eeee0a03f3U, 0xefc01f7dbfaf4e9U,
  0xfcf80207f821fb2fU, 0xe9be1a33ddb205f4U, 0xf62edee626f7022dU, 0x5e005f70d17db11U,
  0x31ea3eebf5e316dbU, 0xfcf0010604ea0fdfU, 0xee07f903f3fb0cf8U, 0x11ce70ef4eaec0dU,
  0x23dd05eeee0902fbU, 0xe224ffe41a2d22ceU, 0x3ffd7d9f605fee7U, 0xf4ffcf26eb34e9ddU,
  0xcdc081d1013b2f0U, 0xb0ed6d9fb1b170eU, 0xe804f313fbe8d32cU, 0x15f41f2003121af7U,
  0xecf80dd9172a21eeU, 0x27f6f82804fcf316U, 0x30212eb20ec2a01U, 0x1a15dbfdf2ed1b01U,
  0xe73efa15d83439e8U, 0xcdc1c1ad21d1bedU, 0xf023fb14f611f71dU, 0xfc16f913f726f515U,
  0xdcf903cb1e0d00f2U, 0x130c3be346fac5efU, 0x1a010452ddf51f15U, 0x1a11df16fbe301f7U,
  0x1e60fe10cf10614U, 0xcfde0148e8040f11U, 0x200403f7f319e5f0U, 0x370b1ef616f5ff0eU,
  0x4d2f2ef12f71e0cU, 0x260feed00afc0fd8U, 0x39d2f6062fecde0dU, 0xe9f012342ad0e00dU,
  0xf30d05d0fedd061bU, 0xed2dfed9fc0e15e1U, 0xef06e20f1302fdf6U, 0x1823e90efdcb0415U,
  0xddf10dff07fa10f9U, 0xf72df01c23dee9f7U, 0xceea0104ff26f827U, 0x6080df6f0300de6U,
  0x3feefcf4f8e4f9f2U, 0x200e9e71fccef47U, 0xf7fa0b1afb07e11fU, 0xe8f9f02815161012U,
  0x1606e4ef1bf40cf3U, 0xde18e8ecfc0603f7U, 0xe0fc2806fc03fa29U, 0xe4f8e631310e0d16U,
  0xfb0e11e8ebebcde1U, 0xf8f7f01220f0e906U, 0x10d620f316d90926U, 0x63f7ee0416f0e914U,
  0xf01fec04cf12f6ddU, 0x29171ee5212af91eU, 0xee10e2fc0e0df612U, 0x2515e307301d03e6U,
  0xede824f2cf1d0f01U, 0xdd13f8e903fafe0eU, 0x1d14f3e2f7f907eaU, 0x21e112fe4be90ffbU,
  0xfefe0d0dfd1edafdU, 0xf9f905ffed0006c7U, 0x30e90cebe6e823dbU, 0xfadaf711c10cec1fU,
  0x4ce1d3e1dad11f21U, 0x172207e7f51b1332U, 0x17ec04ef1221f1f4U, 0xfc34e52f2f73308U,
  0x2dde284204fbf6ecU, 0x1ed0ef40dfa35U, 0x4efa23b8d2ebd4f1U, 0xd9d9e408433bd215U,
  0x39c739e30e08f42bU, 0x50ef4c9fd14062dU, 0xc4122ee60be61403U, 0xbd814eb4502330fU,
  0xdee2ebee1304f112U, 0xd7f3f9341ee2f407U, 0xf51025daee1a26f6U, 0xf630f7efc92615d4U,
  0xbf9eddd220cd22eU, 0xe018de3cdf0df007U, 0xf80036c9010e0615U, 0x11f6e3f0f70f0cfaU,
  0x1e508f6193ee6U, 0x2ed5fcc0bd16d40bU, 0x1ef204eaacf3cafbU, 0xffe01101f8fd0809U,
  0xef0cea08ebf2cff8U, 0xe617e4f91308071cU, 0xf7f5fdfa02fef9d2U, 0xeb0045f20bfb1bfaU,
  0x15e8f0ffe3e013fcU, 0xd40aea1ace00d70aU, 0xd02e9fb15fd0fU, 0xf7d326e40528fdddU,
  0x24c310212311fee1U, 0xfefb060808fdf00fU, 0x60fe80515d51603U, 0xe80feaecea1ae0feU,
  0xd8fce0271608f712U, 0x15d5e603f7140cd9U, 0x61105eb2a25e9f3U, 0xf328ea05f9eadfe6U,
  0xed3a051e130ed20bU, 0xf20af617fe04ebedU, 0xe517e6fcec0e2717U, 0x4130103e217d1eeU,
  0x111c01c0edfd38fbU, 0xf6e70d0f10d717ebU, 0xe118f512cb0d062cU, 0xd529eece110b1be0U,
  0x1dfa1420e3eeffd3U, 0x4f10902ed1bd3U, 0x1615e6e335f0e014U, 0x1d0ddf0e23f6fdeeU,
  0x20cbe2fe15e600ffU, 0xdaea0626130bf5ffU, 0xb390df329f3051cU, 0xbe0e5fddaf0f116U,
  0xf1200ccdaf2dd2cU, 0xfecf8d84becf8feU, 0xfcdcf61dcfe2cde0U, 0xfbddf9f9efe00709U,
  0xef818e00dddfe13U, 0xf4040f0d083a050eU, 0xae913de24e2fedcU, 0x28fbdc3218f8f905U,
  0xf312dfd9e128cf28U, 0xe51ceaf5020ee609U, 0xfa03fdeb0e01e117U, 0x1eaf6ebe90311e0U,
  0xcfdef2a08020cfaU, 0x2f040129caf50522U, 0xff0fa0bcf0dc6ebU, 0xedffda18e1f5f5d6U,
  0xe5fcf006f1fc2b00U, 0x1ff00e40df5d000U, 0xb0e32d51d051902U, 0xcdd91fd9eafffed3U,
  0xe402e6010e31c900U, 0xea0e08f1f7f8200eU, 0xd80bf9fff8fee818U, 0x5ff1e2d02f8141bU,
  0xddcd27e9f2ec1f11U, 0x4dc37f0f2db2436U, 0xf6f231e90ced1bf5U, 0x180725100ef83507U,
  0x230ef5ff24f90020U, 0xd3e8ebeb13e6d6fbU, 0x191d0d34e2d0e8feU, 0xf6c805f7281a1c35U,
  0xf11ef2f212061fefU, 0xff07f816c0ecd802U, 0x101d39edf9e30a00U, 0xeef322fae2e227faU,
  0xf90efa3ff20913d7U, 0xdb0dd9fbf7131e11U, 0x30bda061204e8f9U, 0xc1c2250832c905ffU,
  0x22d70539ffc70906U, 0xf03ced0314e61cdfU, 0xf70e13f1fb062fdfU, 0xf2ffeff3f7fe23e4U,
  0x2400d3e009e40801U, 0xc903e51302fefd05U, 0xb91efaf3f2f50833U, 0xe1310131231f10dU,
  0xbedec00d035e613U, 0xe6f4150c08d60414U, 0x19ecf9f3f306f617U, 0xb1015270d1719dfU,
  0xf3171bf4eebf16e8U, 0x13f0fc121c0fd913U, 0x1bd40a0011fefaf5U, 0xd5ecdb403ef4f322U,
  0x121223eee1240dd9U, 0x18d4ff1b19d3fe06U, 0xf9160decf718e709U, 0x1648ee08ff0402f6U,
  0xe031ffade80303caU, 0x1522e6240dffc5f3U, 0x4317021ed10c1afbU, 0x8fd091915ef1aeaU,
  0xe5df18361fe9e6eeU, 0xd9cee6daf736f2d9U, 0x171502f7153e18eaU, 0x5f8ffd6eada3419U,
  0xb27fdf6ca1525daU, 0xea0125f42fddf0e8U, 0x1dd603070fd802e3U, 0x3206d7c41d0fe209U,
  0xf41cf0c52115fff3U, 0xf036ebf214ff1cdfU, 0xe62de8170408ef12U, 0xff14021cde1ffd15U,
  0x2ff2bd4fe07f4e8U, 0xd15d5f50a38e610U, 0x3023beb0303ebf7U, 0x2ce4deec06240221U,
  0xbedf2d9f0f21810U, 0xf30301e809b3fb1fU, 0x17011f02e00adbe4U, 0x4ede70cfedff4fdU,
  0xe5e5e2ddda2fde00U, 0xfe080b17fad02be5U, 0xe400fa13fbf8f903U, 0x122febeff9e50226U,
  0xf5262add04cd021fU, 0xeb1af7fde70d18dfU, 0xed11e90119f2fefcU, 0xe51d1d2afa09f61dU,
  0xf4d607d7f8f906ffU, 0xd4fa21f1220d18edU, 0x1a0adc35f604ffffU, 0x5d90903192bdac9U,
  0xf31513000102d82bU, 0x311dc8d3d8c61210U, 0xcedfa0df808ee46U, 0x5c0fbe50f193002U,
  0xd06e802121af2f1U, 0xdbdf040b22b05808U, 0x30d036e9f42ce309U, 0xd013ed03f127d211U,
  0xd3e3eb1b380209ffU, 0xce20d92ae5df3b16U, 0xd6e83fcff81fe712U, 0xdff0f60722eafc37U,
  0xf4e429fee721fcf9U, 0xdf3ecdfcbffd817U, 0xf2e01813e3d2230bU, 0xece04230a181216U,
  0x1d193b0cdaf0f911U, 0xf3231806ef00ec04U, 0x16f922fcdb02f7e9U, 0xde0857e91d27e316U,
  0xee09f128fc1ef601U, 0xf9e71a392be93414U, 0x41633e903151addU, 0xd437fed52a101be3U,
  0x1d15d131e83313e2U, 0xc180dd02aee28f0U, 0x7ea1df9270217e3U, 0x2af41d1a02f8091dU,
  0x19c4fc18171bcddaU, 0xd3ff11f016181ac0U, 0xc31ed3ee2904f829U, 0xbffdc052e27e9e9U,
  0xd2e60de2e103f610U, 0x1014dfe7fed7f83aU, 0x9e80715f10e113cU, 0xf3d5f52c00153ff8U,
  0xf7030ce6f3fc0906U, 0x1007f9f80d0f2cedU, 0x3f5e115f909e510U, 0x71dcb04d517e00cU,
  0xfecb2efaf90e1a0eU, 0xed051808d5f51619U, 0x10c10e0611d91807U, 0x2c1a0de600d4fff8U,
  0x311fa24fb22dcecU, 0xac6f217eadbe6f9U, 0xfedd0200f1f92316U, 0xd1a01cf18eb0911U,
  0x1f08e8eefb0a0916U, 0xdd12f9241212eefbU, 0xe200e0cad910ec27U, 0x1dfe20ccfefd23fcU,
  0xaec28d3e4fcf913U, 0x1e26fae607f629c7U, 0x8f5fd0208fc06f9U, 0x1909b915ebeaf305U,
  0xea12d9c3162026ddU, 0x10fc03e51c10de0bU, 0xfc00ee1bed03f304U, 0xebf4d2fff015e303U,
  0xed2133eb1502cf2aU, 0xe1d72d0bf5d80ce9U, 0xc91dd80332daed2eU, 0x40104ffd32ce506U,
  0x9fbfeff1cffd2f9U, 0x2ae5f726180c04ccU, 0x17e8d7e2140ffde2U, 0xd1ef5e7fbbb1a0bU,
  0x282b301c0f26e80eU, 0xe2f910d5f5f3fdd6U, 0xe60e1ed9e1200d02U, 0x1dd1040e1733f3fbU,
  0xfe0825cdd6d90023U, 0x20eaec0b17e319eaU, 0x1e20016fce804f7U, 0xec02300709c81009U,
  0x1ffdfeed14fe0f0fU, 0x15ed2218161718f0U, 0x1118efeaf3f1e1dbU, 0x4add8def615130fU,
  0xffd280e2be8f812U, 0xf1d17e2200cf6b8U, 0x23ef07f5fce709d6U, 0xecff26d3fa021c04U,
  0xe6184bfc000305caU, 0xef0bfd03fb06e6f4U, 0xfdf8fac8e0e40c2dU, 0x19fcfe33230ecde8U,
  0x14db1e4943102b22U, 0xe5f7db18050c0deaU, 0xf1fe1be7feef0b16U, 0xf4131ceff8080dfcU,
  0xf201e20013e7ecddU, 0x700e3491ef25022U, 0xfef5fcf9e736dd08U, 0xece5e4253247d3e5U,
  0x140517e2fffaf70fU, 0xb0cf9264fed0859U, 0xbc3e947ca092626U, 0x2007e24205d8d60bU,
  0xeffc2ff7d70619c6U, 0x24d52feaa63d0fdfU, 0x30f80104ed0b13fcU, 0xec0039e3f83537f5U,
  0x1f2f8e7d8f74af1U, 0x1dd23d0e10c04feU, 0x15f1edc240ced31fU, 0x182d2af8f817eef9U,
  0x250ad5e6f2290c5cU, 0x3f3c200f04131d16U, 0x1109ed08470e450cU, 0xf31cd53614eaa7c5U,
  0xe301fef50ad3dde3U, 0xdd4b621517326d01U, 0xee628650107bef3U, 0xc235b83e02a4f2efU,
  0xf6040802f70711e6U, 0xfee7fb1a22f1000eU, 0xf82916fd02ef12f4U, 0x18db34d02ada09c9U,
  0x16d52ff62dd5beU, 0x18d20a1ac72911feU, 0xe3fb2318e410f211U, 0xe3dbe81e1d06f61dU,
  0xde07e214d5f0d0f0U, 0x2b2ffdb1608c807U, 0xef7ede1e923f32eU, 0xbddef6191a1509bdU,
  0x207cf24e310f4e6U, 0x20dfa62cfa17e1faU, 0xeff0e00edffb1e0dU, 0xef32502c1faf80dU,
  0xf1ef0edb0e1434e2U, 0xf302c6e60f16d1d3U, 0xe3230a06f0d82b1cU, 0x5be202544f00aecU,
  0xf6f4ddfc3ad82fd1U, 0xe1411c7160925cfU, 0xf0fe24e8040a1dd9U, 0xfcedeffaf323d41eU,
  0xde121bd9c1fdf2f9U, 0xe1f80413d1221aeeU, 0xd249170c00011e15U, 0xf0deafee40ce4f5U,
  0x3f23c8fa14301a09U, 0xd522493748d311efU, 0xdf00081c020aeae0U, 0xd4fbd427ff2b1423U,
  0xedcadee0ffede833U, 0x1f1326e51102d623U, 0x29e7e7fc2af3d324U, 0xe82e2b0bfed20bf8U,
  0x8e9022eec05e803U, 0xe3ec1df7fdea0d0dU, 0xd91f1fe500eb28fcU, 0x1be8f604fa1b07fbU,
  0x1539dce30203fe08U, 0xdaeb15f416f60fe3U, 0xcfafe43f015e5e4U, 0xfd0c2b0311f1db09U,
  0x21f7f220e3f23532U, 0x142f0b0816e49f05U, 0xf61105f006271fe4U, 0x2613fdf6daf11625U,
  0x2e0806f7bf1bf5e4U, 0x180204f420eb3026U, 0xfb12df0d0111dd12U, 0x1c233018f4e0e625U,
  0xfbd131d736dbecffU, 0x7ed05fc0ce92303U, 0x812f008f70310f5U, 0xd4eefefe0ae304f2U,
  0x341df8f61d0a2b03U, 0x120ee1f011f336ffU, 0xdea2afefcf73ffaU, 0x31fb10020a47ba17U,
  0x2d14e71814ddfcdeU, 0xe8050612dbfee7fcU, 0xf515ec0bdb0f07ffU, 0xafa15ed13fc2d0fU,
  0xe3ebd904ee14f5U, 0x111bdf1a13e9ff1cU, 0x1922e6e01c24e80bU, 0x40d328030310f2daU,
  0xf6fbfc16faff00f3U, 0x2ee205f815f3ec25U, 0xfbe41eff06ec27d6U, 0x3aeb30080df4150dU,
  0xf200cd7d309f501U, 0xffe2f5051eef1522U, 0xd16fbb50f2518e9U, 0xd3d7fbdf17f4ec02U,
  0xec14f5fbf1131613U, 0x110030042b29d702U, 0xefd1bfbedfe261aU, 0xdb0afdfa0324ed11U,
  0xe90fffe6151bf804U, 0xefd5411c2cff0dffU, 0xd8ed32f7eff315ebU, 0x2ef6e6eaf11cff21U,
  0x19da05daec30fa2dU, 0x90ced042bdc22f6U, 0xf01408060c000606U, 0x8101a0ef8000e0fU,
  0x500227f915e11a1aU, 0xbf6f7fa03ebe0ebU, 0xe8ec04f7e4f3f305U, 0xeae306fb1c3dbe07U,
  0x2bf02e03f2f00a02U, 0x1016fcdbfdfee8fbU, 0xfe0dfbd0ec1009e0U, 0xf1f819f6f9e1092bU,
  0xa1416f30519e5e4U, 0xe8e51d05cefee23aU, 0x5d6180ee7e628eaU, 0x2dc7de060ae90910U,
  0xed03333227e40fdaU, 0xe0df4cd2616ea01U, 0xe00bf6f11df1dc01U, 0xf23501d6f8f6fffeU,
  0x171d13e6fe11d6f1U, 0xed5c5090f0d04ebU, 0xdf62ad5d4f61eeeU, 0x1fecf1e8c944f926U,
  0xc8550939121ae6f0U, 0xf11b040ecf0628daU, 0x1c05e7ebff38f303U, 0xf3e9de1a04dadad8U,
  0xd307fbdefb13f0ecU, 0x5f40d370d3cf125U, 0x1eedf9ff1dfa02ceU, 0xf332391ff715e20fU,
  0x16192ff8f5dbdafaU, 0xcf422e5130309dbU, 0x1001ff30cf1d0efaU, 0xf70b2507f90620f6U,
  0x723d1e2f30bfb06U, 0x24f423eeff33f705U, 0xe6f9070010f7eddfU, 0xdd2d243516e50e07U,
  0x1abe17dfe6f9e813U, 0xe10f7abeaf0fbc3U, 0xf814e3ea12f5f6faU, 0xf00af8c515fdf415U,
  0xd8b0fc173fd4e1dcU, 0x1ef5040f042ceb19U, 0xdfcff1c07f4e60bU, 0x15d7d2210cfb1100U,
  0xe5fdfee406f5181fU, 0x80d04f6ff05e729U, 0xf41afdf2fb31e8f0U, 0xc1ef6061be40c0aU,
  0xbe19070a000b0c29U, 0xf813cf221b0ec0deU, 0xece2f90bc210e53aU, 0x14130cf7e6281df3U,
  0xfe04f616e900fefaU, 0x2d51612fecfe40bU, 0xc261cdf0718240fU, 0xe619d9f9f9ffe51eU,
  0xf7ce03e3f1e11cb2U, 0xf7f93805aff723c7U, 0x351f0dcffa14541cU, 0xe4edd21305f62b03U,
  0x3ae2250ff0e70fe0U, 0xf6fced1a0a0dd0f6U, 0x8dd18da07e72403U, 0xda15f4d03217ee1fU,
  0x2fcac993f25c2935U, 0x721b241dbaf72b2fU, 0x1bf3c6f605a02a13U, 0x193cfbf6faddd3e2U,
  0x81f41d2af3f106d8U, 0xe0174820f0252cd6U, 0x2ba212430fbaa08U, 0xc156fa33d402bf06U,
  0x381dc5220827e716U, 0xe6faf376e2e91220U, 0xde0dfd21c741dde5U, 0x2a21bcfe0d16cd32U,
  0xdfd1f0d1f621b90cU, 0xfef9040a0cca1226U, 0xdb1102fff60ffefeU, 0xe70df80cea19e528U,
  0x9fee4260cec0a0dU, 0x16e903edb3d3ff3fU, 0xddedfde404c7ffe5U, 0x2705360bfc05e3eeU,
  0xd6f20d0705191afaU, 0xd71815e626e6cde2U, 0xf9433be3f1fddb35U, 0xce1820e9d52420fcU,
  0xe0f726f3040826ddU, 0xf33defd81013ecfaU, 0xee5d5d30902e334U, 0xd5d3bef70de8e4eaU,
  0xf90b1f220eeedacdU, 0xf5f9e92807f3ede4U, 0xdf070fee02f2fb29U, 0x200f8dc080bfa0eU,
  0xcef8faefeee1f9d3U, 0x201fd1a25fe4022U, 0xeb17ff08001ee8ecU, 0xff09fd2df0fcfb17U,
  0xfc12f2d4ef271911U, 0xd7131a2e41e0eb1aU, 0x26d9ee2be1de02faU, 0xe17e911ffe1e00bU,
  0xa1e0f232105e11bU, 0xebcd0ff6d1e1fafdU, 0x11f908f321fd0efaU, 0x3a37230e0be70110U,
  0x1a01f8cfdbd129f9U, 0xfa15f60fde21fdffU, 0x15f6090fe51d00f7U, 0xd819f004011df6faU,
  0xd407ce250bf917e5U, 0xdbf203f20efbf8f3U, 0x1cecf4f1f4f60628U, 0xfff6b3fbeb141ad8U,
  0xf8ffdc1338dee124U, 0x3a2fd216d7e516f3U, 0xfe17de14fe0cf22aU, 0x390c0c28e90150faU,
  0xf520f9fbfaf0e6f5U, 0xe22bf6f1e1d6f83bU, 0x27c60aed2eeeea18U, 0x1de025f329ead92bU,
  0xcdfd1ef8f9d8f309U, 0xf714e21ff0e93501U, 0x2130ef4e81ce809U, 0x15e1fdd7222603e9U,
  0x1edcd013160b1523U, 0xfdd0cc05d5be010cU, 0xd5111eeef8e9fc03U, 0x8b6fd0a00eaf3f1U,
  0xf90aeb0bffdd1814U, 0x1a2c260115e013fdU, 0xe0f2010ee8ff31feU, 0xf826f0fdf60bf318U,
  0xdcf90de202f9f8f2U, 0xf40408c112efcae8U, 0xd6f61a04ecfd250dU, 0x35290014d2f80431U,
  0x151c19ead620e704U, 0xeb09e52fedf914dbU, 0xd52a07de0304e41dU, 0x1ef5db15090700U,
  0x10ff2cd7f519ebf1U, 0xf0bf90a20082308U, 0xfffdf0b0ae812efU, 0xff01cb08d8b80fe6U,
  0xf8d6ea2b0407ee04U, 0x1404e4e4fcf90dfeU, 0x4023fbbced2feaf2U, 0x4e1d1d90cf506ebU,
  0xf70c392016e4c412U, 0x20eb042933d23ac1U, 0x5fb13f803fd00e6U, 0xc5e2e928f610ecU,
  0xf902f01826cad720U, 0xf81ed70f0202f603U, 0xf70407eef129df03U, 0xe8eeecfefa0bfc05U,
  0x1e010d36301710fcU, 0x2e071a1ad710fd2cU, 0xdfcef0c1a23052fU, 0xf1cef01cec0dfdd7U,
  0xfffc1ffac7e3f1ebU, 0x12e41ae811f9fd0aU, 0x2407fcf91de4f4d4U, 0x15c8f50af2bf27ccU,
  0x324d020e81823U, 0x27e7e3eadcf71201U, 0x23dd09f90eed1e16U, 0xe80b28f8cc021ed1U,
  0xdb2520242b01fdc0U, 0xfbf80eeffd12d827U, 0x6fd1bd326e20b0bU, 0x22e2cb080808da00U,
  0xf7e5fd19fbe6e0d5U, 0x309e1f9f4eee3d4U, 0xf006f5d0c039ced5U, 0xff11cbd0e8130020U,
  0x18430c101bf1f924U, 0xeaf9fd0518141503U, 0xf05a60e1d0613eaU, 0xfedbb1a5de401cdU,
  0x916d418edfa1202U, 0xee03e7eafa091bcbU, 0x34fbe6120301f102U, 0x22cb2c28d2b929ceU,
  0x1bd1e22c1ce021e8U, 0x1425db10e62dce21U, 0x1dffd033db31d7fdU, 0xe3ede60a1c16d806U,
  0xc20ceeceebec21feU, 0xe2120ad92111401aU, 0x240224e0050b174cU, 0xdf2e09351805f314U,
  0xe18f4a3e0f5f824U, 0xc50d04372cbe0fd5U, 0x1001e61df7d3150cU, 0xf1f8f838eed40d09U,
  0xff2f2e50ecc18acU, 0xf204e6e6fa33e6faU, 0xe80bdd140517db09U, 0x6ddcdf824d8dd33U,
  0xff0c09ed2e2df422U, 0x7cf2af40b0ed804U, 0xf70be7ff09fa1206U, 0xaf8ccf4f4fcdb05U,
  0xc4320b0bd70bf701U, 0x8fdf625ff092117U, 0xe316c9f4fef8e62aU, 0xdf0c1bfde213f6e6U,
  0xafe01f1d505fdf9U, 0xace4a016802c71fU, 0x1dfe3503fae205f6U, 0x1d1bce0614d2fed7U,
  0x1bf3e0d902011118U, 0xe91cdb18eae2073aU, 0x20e3f106101deb3cU, 0xed80402f5e3ef17U,
  0xf60a2ee82d14e1ddU, 0x16e2e93d05d512f2U, 0xf2fa20df0f0be722U, 0xa27e9ce060fe3ffU,
  0x12c7fbdae72d25f1U, 0x150afc03d8050f22U, 0xf3e9f255e0e82cfeU, 0x38131600d5d33f10U,
  0xd303012cd6f8e4d1U, 0xccf92dfadc18d4b6U, 0x421f4fd38d9f109U, 0x1ed29bcecfc130bU,
  0xf03a070bfa56f3efU, 0x18def74505e924f7U, 0x1dda1ff307f91720U, 0xb0ff518f9db1902U,
  0x12eb1507d0d812edU, 0x19e90eea1109fce6U, 0xecf90808f514da18U, 0x2714f503edf70009U,
  0xeea2eeae02be204U, 0xeae413ef1d02e012U, 0xe2fafb1df02423e0U, 0x161b1cf2f5dde008U,
  0x5fc38c702f5f414U, 0xdcf3202a34f334f0U, 0xd2fe13e9f8ead9e9U, 0x132701fbd5e41900U,
  0x2efbd5ede717fa07U, 0xddfde4f9d8e63bceU, 0xf424d31bf5fdf5ebU, 0x4de31e51fe60401U,
  0xfaf5fe2be415d906U, 0xe0170df4ef0915ffU, 0x1d15d1000514f4faU, 0x1c3f9f40a23d0e9U,
  0xe09211df4edbf16U, 0x424181d16ec10feU, 0x1d4f11625e6182cU, 0x519ede70e17c1e5U,
  0xffef8071c062dU, 0xe4fdf4e82eec1922U, 0xc5ef1b13e60dff3fU, 0xf6ffe11c004112fdU,
  0x9eb0730e4f80202U, 0x2cfbe7d1d7f8f906U, 0xe904f300e810d60fU, 0xe90fd90424d3f519U,
  0xe60dfe341b09c5d9U, 0x90b13f9cc270ff1U, 0xfdf60fe6f12901d6U, 0xe9f201fe01e31ff1U,
  0x7072811ea28e307U, 0xebefe5fe16b5de33U, 0x11508070f1ef9f7U, 0x18eb02e0e0ff0d1bU,
  0xd1e2f026232a000fU, 0xea071bfedefb1613U, 0xb130adb10f405efU, 0x10dd05e81d130ed1U,
  0x1e1d901de0f0941U, 0xe5ff0142f5c5df35U, 0x3fd41ecf221deef7U, 0xfafe2bde06dbff05U,
  0xf417e5321a2af4e0U, 0x31eac1231926e9e1U, 0xda0734e2f1ff01fdU, 0xd6e9cff5310bfa10U,
  0x201200e2fd191e00U, 0x2dfb260c0af5c3e9U, 0x239db0d2bd118c4U, 0xdb201d0601c00f0aU,
  0xcf02fee27e30beeU, 0xd42806f3f65e08f7U, 0xe91003cdfc1815d4U, 0xf92035eb0b02e500U,
  0x101491710b9faf7U, 0x12f72aa2c31a0d17U, 0xcbf2e3dcdef3d916U, 0x2702501c1701daedU,
  0xd3f8f23a4e2ced0fU, 0xfde816d1dfddf31aU, 0xf2dbf004e0fafbd3U, 0x1c39f7f3ecdf07f3U,
  0x12f91bbc12d5f1ffU, 0xe602daedfe073deeU, 0xf81b25da63106201U, 0xe70a1e24d2f7bee0U,
  0xdcd928fa1e25fc01U, 0xd73f20fa2eec0921U, 0x34f5f059270cdadeU, 0xaede430ff092403U,
  0x1dbdb00d232b807U, 0xdcfddf36da0a17c3U, 0xf602e11ada0bed03U, 0xf70aefea11d3f70fU,
  0xea2620e52101100aU, 0xf02810e507081be3U, 0x18fa23d0ff1e16dfU, 0xfae30be8f72912d7U,
  0x7eef31403f10803U, 0xf304f21308270f0fU, 0xaf6bb0f09f2e500U, 0xf1a082beb06f713U,
  0x8c7e439112ce7f3U, 0xf00b05f51505c909U, 0x13f1e9010cfff0dcU, 0xf3fb05efd5070f0fU,
  0x3fc0ee9e4e2c8e2U, 0xe7fd02dc083e08fdU, 0x6e00bf40901f5efU, 0xe1cd6ff06fed616U,
  0xe3f224cd1fe8e509U, 0x22f20efffdef1305U, 0x224d91ffe13f1f6U, 0xe19fff6eb0d0cf0U,
  0x7f41039e9e819efU, 0x13c7dc1bfb00e228U, 0xce14deedec190309U, 0x35ddfd16db2608f0U,
  0xf317e4d912edfcf1U, 0x9154a0906aeff34U, 0x12ebc900fbf7ed34U, 0xe315c3e708eaf6faU,
  0x32e71bf1120efeb9U, 0xd1710112eda0324U, 0x13f3f5020901feecU, 0x38ef42d800f8e106U,
  0xcb262ce5f90bdfe4U, 0xfbfe0a07ee060618U, 0x1709e1fe2cd716f4U, 0xea02e0fc22e0f903U,
  0xf8ec061c120909e0U, 0x31f1d5f80568f9fdU, 0x19f70e14082e1710U, 0xf9ef0c0010ff39b5U,
  0x2512fbfd13ab361eU, 0xd63107e9ffe82e24U, 0xe8fb322a250ee0U, 0x1f27fbedd5eb0610U,
  0xc322433e616e617U, 0xfd5ee1a11c0f0e7U, 0xfee3151ce5fff0e8U, 0xefcd42f404d1fb2cU,
  0x81ae3022bcc171aU, 0x2202fee5fb0c2bd6U, 0xcdf0deb16e81bccU, 0xd3d3fbf815fbf000U,
  0x200154f7142008ffU, 0xf9f703da14e6080aU, 0xdfaedece5d2f107U, 0xe5ccdb043e193013U,
  0xbcd41732151e0626U, 0xfb08dfebbdfee2e1U, 0x1437d8bc1130050fU, 0x1d525e9030629d7U,
  0xe6ea17f10afbd42aU, 0xe9e1121738f22fefU, 0x6dd2a13f1f6f9feU, 0xf812d310cc0a17f1U,
  0xeaf0fde93b11fa01U, 0xfdd60d2cd01c2cf5U, 0x3aec0cfdf02a0cffU, 0xdeef25110217f2f8U,
  0x8422bf00bd7efU, 0x20d9f5ea360fbb1eU, 0x24bff81c03ebd81bU, 0xf1eb07d51c29f844U,
  0x2edb0af52304f537U, 0xc24aa12de1b0d33U, 0xd30b1de1f5102af2U, 0x1bdd27d329072008U,
  0xfddc01d9000306d5U, 0x29070fffdbf6de17U, 0xbdc161ee4fe06f6U, 0x19e3323c2be9ff0bU,
  0xe406fce6f6e0d9faU, 0xceaf517f0110dfdU, 0xfbfef919fcfdf410U, 0xebf61efef0f6180cU,
  0xa05fff406f21517U, 0x21c9d9f5f5e60e18U, 0xe6f214f120010a11U, 0x9ea00f8ef15f614U,
  0xf20f1f170cf6cf0bU, 0x16ff0df6f4f00f22U, 0x5f62aeff1e10bf3U, 0x11bf034c7f8ee0dU,
  0xf8289aefcc141204U, 0x16cfdd2d030a130aU, 0xcb2511e410081413U, 0xda36d9e62dfef931U,
  0xf2f918e40c0c31e4U, 0xd50c2acd032ecf14U, 0xe1205fd1300f725U, 0x27281def080525dcU,
  0xfff8eff8eb48d3e0U, 0xea11f1e9f21726eaU, 0x4ffdd09e9fdd2f5U, 0x331b27fbff0ee5f1U,
  0xcae11b1709001702U, 0x15e5e503e7e205eaU, 0xe61f1bd344040c23U, 0x2c3f20e42c173716U,
  0xf9fed1f4d5320ce6U, 0xdecfe90a1fdb0f13U, 0x1aeb1fd51a010803U, 0xdce33036feee0ceaU,
  0xd713ed001fe3e5fcU, 0xfc0b26ddf0031e0dU, 0xcd1c0dcf121306e1U, 0x28e7f52ec81aff18U,
  0x29de0edfd40011f3U, 0x2120c99bfde7023bU, 0xf8f32f2308fdf61dU, 0xef15f3f70c12212eU,
  0xdaff2423d2083cf8U, 0xbbf7000bd0bef20fU, 0x160e210319ecfc15U, 0x151618e8d40a1706U,
  0x12d3e5ace5f61a13U, 0xe145c3ce3d03ec34U, 0x11ece210ed20b225U, 0x2cfa252a040afdf0U,
  0xebeffee9efeb1ef1U, 0x1ce7d82bffe8110dU, 0xe80f27dd1902d620U, 0xf9052def090a26ffU,
  0xecf1f90840fd020eU, 0x4090d2506b4f801U, 0xfd3c06f80d03debaU, 0xff92cfcae9f5ce23U,
  0xda0bdbfd0bae241eU, 0x2321ffdc0304fe01U, 0x17032ec802cc2a33U, 0xd7effde71003ee10U,
  0xda04c30e0eed41d5U, 0xd3fb20c308e6f2f1U, 0xd9090016e7f301e6U, 0xf2d9c729f213e919U,
  0xcc10f9f9f1f9222bU, 0xdd13e91bf5fcf329U, 0x3e1100304df021cU, 0xde12fe9fce812fcU,
  0x18fbff17eaf81b01U, 0x4db32101732e7e9U, 0xde4f9f41c06dfedU, 0xd8b911e9c52a1012U,
  0x2301e7ece7383014U, 0x27212f092decda0bU, 0xf309eb0dd70fe70aU, 0xd8fe1ced29eaf8f4U,
  0x131c69f210ef26d0U, 0x1b2019b7f1482dc9U, 0x90ad11cfe02c3eeU, 0x2ddeff35ddfc04f1U,
  0x30ced916c7e8e321U, 0xdfe933eaed0edb15U, 0xfe1dbc3617dff541U, 0x123000dd08ddfafbU,
  0xd152a1de132d9eaU, 0xe8e40103f703f7fbU, 0xbda00d6f6fdd716U, 0x363cf5d337ed10edU,
  0xf7e6c9be0af40c14U, 0xecec061f0bf6c2ddU, 0x5ea1f20fa19d9efU, 0x8e7fa2c01fd00ddU,
  0xf22312183e0d1be8U, 0xe720260e0a062cU, 0xebef3ef2f1e64419U, 0x5d220d9241c15faU,
  0xe01d22030fe616dbU, 0x15f223f21ef723f7U, 0xec1b1ad828fa2ae2U, 0x23190fe003090c0dU,
  0xe7ff17e50801f808U, 0x1e00eae7ff3b0ae2U, 0xd9c0d316e133e421U, 0xf3f9040d141929d6U,
  0xd0131051913f4e8U, 0xddeef60e09f8d713U, 0x3eeeeb5801291b19U, 0x133a1826dde1f710U,
  0x1d27170501d1ffd9U, 0x3e301080e0bf604U, 0xd11e3419dddb1108U, 0x1af228dde211e4feU,
  0xf1cdd3e00bf6d904U, 0xe7fefadd03192a06U, 0x9fd0720e50420d9U, 0xf5180e03f1e812e9U,
  0xfe15160d1422e304U, 0x7ec1c34e32714e5U, 0xf5d4010726ff1622U, 0xd30cc70626e2d3U,
  0x16fefd15fcc9f003U, 0x20ef1af4f006e320U, 0x1e1f537e8480a1aU, 0xd6dffd31f720fdf4U,
  0xf424ecdae6ed2016U, 0x8e414273cfde6cfU, 0xcfcec26db0fe8daU, 0x3f0de226152be6ffU,
  0xdde81d07dbf4dfefU, 0xe5051bd714d2192fU, 0xf931ddffe521f9f2U, 0x6ee05e20218f8d5U,
  0x22ec2a20160e0907U, 0xffc6ebf91711debfU, 0xecd8f012f5f14726U, 0x2f16fe12ed02fd2aU,
  0xfc0313f719ebf4fbU, 0xdf0fad63a0bc3d2U, 0xe0d206ff1a14e2efU, 0xe5fbecbd07e2f5eeU,
  0xe4f91cf00c0cdefaU, 0xe9f50151df06cb17U, 0x19de18f6fd1901e7U, 0xf3f32c33e62bd317U,
  0xf90503f40535e0d7U, 0xfd92afb06d729f3U, 0x8ff0df4ff0901f9U, 0xa08da08f9f6090bU,
  0x2cd6e813111402deU, 0x1b09fac0dde2e3fbU, 0xdb10f40ce11603e4U, 0x22be70c00dc3c17U,
  0x1dea33310cea3000U, 0xb0f0f003c7092c13U, 0xdfdbde0921defe11U, 0xff0c0abefb1fd8ebU,
  0xf0e2eaea0b1f09faU, 0xf8e1fa1a2edde01eU, 0x7eefb25f8ea0bfdU, 0xdd2f3421dfe8001aU,
  0x2ae911e9ff0a15e2U, 0x18ed021006db25ecU, 0xe503f328e0f121eeU, 0x5e00d1506f2fe28U,
  0xfc39f7c8f9e320e6U, 0xdbe932d8f3ffa8f9U, 0x2bf3cf3e0cfaed26U, 0x3f2e84612f73106U,
  0x44dc2e0d2c0a1c21U, 0xf507eee5cf15f514U, 0x140ef8ec1621f0f1U, 0xacb0f0803f629f6U,
  0xe2e2fc11000bdd21U, 0x1c00103aecde050dU, 0x27d315f516f60b23U, 0xf828dff717d7e31aU,
  0x26f1263bf9e7fc29U, 0xf300f3f7f9052ac8U, 0xdd1410f3dc2fd710U, 0xc911f502f42507feU,
  0x10ce10e7f80a16e4U, 0x1fed0ecafcfeca21U, 0x7272436f0181508U, 0xe8e5210cf7ff0823U,
  0xe4fafe2c211009deU, 0xb28da1acd15f500U, 0x1aecd42ffc1b0f07U, 0xf8e3000912fc26e9U,
  0x1c6fffffd27U, 0x27200000262U, 0x4d4fffffd31U, 0xfffffd150000019bU,
  0xffffffea0000037fU, 0x9900000307U, 0xfffffccafffffd17U, 0xfffffc7400000236U,
  0x2ac00000255U, 0x75000002bfU, 0xfffffc9400000261U, 0xfffffb560000040cU,
  0xfffffc80fffffe1cU, 0x384fffffcbfU, 0xfffffe6dfffffc80U, 0xfffffb86fffffe3bU,
  0x3c2000002fdU, 0x2cd00000131U, 0xffffffb8fffffcdfU, 0xfffffbe700000331U,
  0x109fffffbf3U, 0x254000003afU, 0xfffffabefffffb27U, 0xe7fffffb5aU,
  0xfffffd1efffffe7cU, 0x4b1fffffedeU, 0x1d2fffffeb3U, 0xfffffd2dfffffd65U,
  0xe1fffffddeU, 0x3cf0000023dU, 0x354000000f0U, 0xfffffc55ffffff0cU,
  0x605feff06fa0d11U, 0xfbff07ef1501001eU, 0xe31518100516fef8U, 0x203eef7fbf8f60bU,
  0x1fe10f403fa240eU, 0xffdeee0a0a1c00f9U, 0xfc0901f901fef910U, 0xefeefefd1df60c0bU,
  0xf60a210f090104eeU, 0x105f3f7fb0507ffU, 0xfd03bdc8fef7e7f4U, 0x1df3040d01f7fd10U,
  0xf0050be21402e7f7U, 0xf41713ef01fff7d9U, 0x7f912f71bfdf4f9U, 0xfd000106d9f600f0U,
  0xf6ef291dfc06d1d2U, 0x1de622f51bf515e0U, 0x2d24fc32f906f6fdU, 0x81700c2d82016ebU,
  0x14fd0f041dec270eU, 0xd9e3d90dfa0c312bU, 0x320c350eaad1ee0dU, 0xcedb02ec0ecf1306U,
  0xbfffd04011009eeU, 0xe409e310f10d02f5U, 0xebcbf303fcf50508U, 0xf9f3e91b0b020122U,
  0xf01efbf624fcd5f9U, 0x32a18f11001f1f8U, 0xb010e0f010d07e5U, 0x3fff80109fcececU,
  0xfdf303020ef10efcU, 0xc0504f105fcf7U, 0xf4d8fc1001faf9feU, 0xf00f0d14f700f415U,
  0x106010000f0f606U, 0xfb051c08f8f8eefcU, 0xf30cfbf1fdeffdf0U, 0x914f20637eef700U,
  0x4094dfe341401U, 0xdcf62eff0a17b905U, 0xa9beb01ef142c29U, 0xcff2d202d7270701U,
  0x10eaec240823ffc7U, 0xd41501a0bf5f3e2U, 0xfa1246ea27100e00U, 0x122f0d0ef2351528U,
  0xe4ebc2b2da0703c9U, 0xf70525ff50ff01U, 0xfcfa4651280f09e7U, 0xbb0618f3eeef03e3U,
  0xfbf401160a0af21bU, 0x15f4000906e530cbU, 0xf3eddcd6e524e2dcU, 0xb0bf201570536edU,
  0xafcefd9e81c0bf6U, 0x16f20b0ce70d02f4U, 0x231dd2ca0a02f12dU, 0x2af3f3181c062c1bU,
  0xfa150fdc0c1f10e2U, 0x60bee0d06d6e205U, 0xfc01001c121528efU, 0x2c18f115991c11eeU,
  0xfc09f3f401faef03U, 0xaf007fcfffcfa0aU, 0xfa040501f4ecfdU, 0xe0a11f4f003ffe9U,
  0x1bfaec14ddf60200U, 0xf412ed0ffe071311U, 0xeb03fce8f8f70cU, 0xfcf8f70011fbf60fU,
  0xfc0f07f6ff06f7ebU, 0x2fcf115f6e3fbU, 0xf6433bc4000ff611U, 0xc2f4fb080a1106e8U,
  0xfdfeef0702f8ed19U, 0x1e1116fd08f7230eU, 0xe9e8241605fcfb0aU, 0x11ef01f3d32bfcfcU,
  0x100622ea9f4ec1e4U, 0x9ddced222732d8feU, 0xe9da3427b91de2cbU, 0xa7cee8255d141defU,
  0xf42c1c040526ccedU, 0x4b58f5eed9ae0414U, 0x1bf70543c8ed3bdbU, 0x17fa47f1334ef5c5U,
  0x1f2d010bcfd5d239U, 0x12cf1e56e5d844d4U, 0x3523c4bb3434a503U, 0xffa04ec03d42038U,
  0x2fb656abe50b39acU, 0x3ef712b9d70dd53fU, 0xe55bff4eebb123caU, 0xbc28bd13f90f1843U,
  0x1ebd3c1c4203a1dU, 0x22371c37f120fa16U, 0xed1ae61e1b36d33fU, 0xe0310e0382d0e1eU,
  0x36b7151b0709d0dbU, 0x2fca49b8221cc620U, 0x143217094011c6e7U, 0xdf02d721c704d811U,
  0xfbfcddfd08e20b13U, 0x21e0230b03e70308U, 0xfb3e4010120cfaf8U, 0x210000f8eafefbf1U,
  0x11e70bffeaec371dU, 0xffcddb20f808fcffU, 0xee0df1f806020921U, 0xf0fefa07fdf20c18U,
  0xeafbc2ee13030ff1U, 0xff07ef03f3090aedU, 0xf0f75e5af7fdfc16U, 0xd60afffc04090515U,
  0xf81203eb0e14f6fcU, 0xfcc6e7f5ff020df8U, 0xf6130c0114f702f8U, 0xfe0c141421ebf3f9U,
  0xa6dfbfcff1143926U, 0x173f0f1424f5e55bU, 0x17fe2446d44029c1U, 0x21acc61f5703c3e7U,
  0x5eb0231012bc4d28U, 0xdca81328304e400eU, 0x4b280fc02853ba04U, 0xddb5c0f7360728b8U,
  0x52f4530eb62f011bU, 0xf1dee03f49f00ad2U, 0xd14429e3a228f040U, 0xd94005f63e000cf3U,
  0x2bb112353128ca23U, 0x95744a709ed0b18U, 0xeee71c040e3207edU, 0xf3334aeadc70d1a7U,
  0xf02818e70fe40defU, 0x43d725eb18cd23fcU, 0xbe040a81d08dad4U, 0xaa0f0a14cfe9f2f8U,
  0x1dde09f3fff7e014U, 0xe0fff91df01f223cU, 0xf807d4e2fbebd1f1U, 0xe3e5dbe63f05f028U,
  0xeacb8b81a0a61e0U, 0xd1433d2ad82f8f15U, 0xe2dcf55420ebf81dU, 0x2f0df524f0392a2aU,
  0xef09d42c3e2e04efU, 0xd825fa152223d6b7U, 0x1501da052715fc1cU, 0x7e1f20d19e1addeU,
  0xfd0bf713f8050c0fU, 0xfbfd0e15dcebfceeU, 0xf3d41a2b04fce80bU, 0xf70b0413fc03011eU,
  0x1401f5e8f9f50001U, 0xd61308fcf4f4efU, 0x1e0706f70bfbf9U, 0x115f2133afb0601U,
  0xfdf0f610f5030f18U, 0xfd06020ffceefcfcU, 0xfafdfd04fbfffc09U, 0x8fa030dfd0a0803U,
  0xafe0df5fa0607edU, 0xfcf10100fe07eff2U, 0xf2210608fb0400eeU, 0xfe03fa1007fb0c01U,
  0x25fc17ef17dbccd0U, 0xd025e41a0709e3dbU, 0x282518f6000519d3U, 0x17140119f028f730U,
  0xc923f206271009f4U, 0x6f7db0114c50cf3U, 0x38f3dc1b0d09ee40U, 0xdcfdce4fd2829dfU,
  0xecd7c5ddb8fa180eU, 0x545abfddf8e7ff31U, 0xf43e1e01f04c0e53U, 0x1602eb954f51eeecU,
  0xf3052e0dcdf03c0eU, 0x331120ae5dd6dc34U, 0xd2d07321d6dad1eU, 0x6e0e61b97f33047U,
  0x4251ef9dbeb31b5U, 0xec150dcf09532c0aU, 0xbbf0d4bb632d0fc9U, 0x8de3d0f195314ffU,
  0xf22bcc381aa6c20cU, 0x5504f8f313e9b25dU, 0x37de1ccb46c7a61fU, 0xdae418112fc4de41U,
  0xd8f9d35cddcb22d5U, 0xa5df4f162ff4a21aU, 0x10de2bdeb4be6bcU, 0x4809b80031fb06e7U,
  0xda1254b466d5f150U, 0x3a0f153f11e3ca81U, 0xc855e874192c670fU, 0xad16c99de50a3c26U,
  0x2fd0ff9fc09fe06U, 0xf506060a070df314U, 0x8f5fe18f61c0500U, 0xfd07f8f5090bff01U,
  0xf6030e03fa0d07feU, 0x9db01f7f4fc070bU, 0xff30005f3040b0eU, 0xbef11f10b0f13feU,
  0x111f339f426fa2aU, 0x331ff42b02fce4e3U, 0x39e9da4dfcef3afcU, 0xbf531e83df90c15U,
  0x191ce8e1f2f41e14U, 0x6e0ffca0d2ffef9U, 0xca043e0bf00af201U, 0xf606fcf60b2f43d6U,
  0x7adecb7d00ef529U, 0xf7fd3927dab98d17U, 0x18a1000fe11fe712U, 0xee3c7eb430d31feU,
  0xef1d1ae3db44bbdfU, 0xe3d4a5e8ff293b06U, 0xe23c568b0ed151fU, 0xffd41a253c22270fU,
  0xfae0fc0ac46d19f2U, 0xcb1cef26053da4ecU, 0xc0ee46d0bbf30048U, 0x40bf20f33381708U,
  0xe81ff714285e3ef3U, 0x150646e205c9ccb3U, 0xf51126231d3e0ecbU, 0x2d2130093724ccc3U,
  0xefddd92c0cc726daU, 0xbae9e90c09b106b3U, 0x171bda39f9084844U, 0x51fad443e6f906e0U,
  0xf02ff80521383af8U, 0xc6ff193307260a04U, 0xe809f8ea2941d9feU, 0x713f903dcdb49e1U,
  0xa021cfff905f802U, 0xf304fefb14f8f806U, 0xfffe00f919fa03U, 0x2f7eefc08ff02efU,
  0xfa0a14f4fe050210U, 0x9ebfefbfcf70f01U, 0xaf70106fe040215U, 0x3e905e5060408f5U,
  0x35c346cffeb33808U, 0xdbeb463426c4c117U, 0xf518cfcce741dddfU, 0xe535c5e720d108eaU,
  0xaca200448f93151U, 0xe611d0e8194839d4U, 0xd9ffb838f2032a31U, 0xaef9fbd11b3800e8U,
  0xfffffdf6fffffedfU, 0xfffffd93000003d2U, 0x39d000002a9U, 0x35cfffffc69U,
  0xfffffc91000001ccU, 0xfffffcff0000035aU, 0x2d1000002f0U, 0xfffffde9fffffcbaU,
  0x296fffffb71U, 0x289fffffc1bU, 0x3ac000001bfU, 0xfffffd92fffffde2U,
  0xfffffef8fffffc5bU, 0xfffffcd0fffffdd1U, 0x2bd00000248U, 0x3affffffe41U,
  0x4420b107d91decfaU, 0xfac355a848b638d4U, 0xfb4046dddce8b22cU, 0xc443bb1714c74209U,
  0xf122c90fa7404a17U, 0xcdb6c4c5f4143fb4U, 0xe5e12004e2f5ff2bU, 0x161b2f0829c70be1U,
  0x271de5214c17fee8U, 0x5b033423ecdac002U, 0x1c0fecf6f1fcc43eU, 0xb9c51fbceda94644U,
  0x4a24130556ceaec3U, 0xd538b410f938e025U, 0x39d9310dfdda90e6U, 0x1c112522107e4d3U,
  0xe8094f36f329d7e6U, 0xbe3bc7bb01b9ade1U, 0x28cad101295e2b3fU, 0x191c3e1fe3b41bd4U,
  0xc7211bf7c637c525U, 0xec3f28dfd6f2ccfcU, 0xefc32f26f7c32dfdU, 0x4e08f200d1dc1ca6U,
  0x4362a5b3d204699U, 0xf352d3e93442f7d5U, 0x5fb35d6d83fbd25U, 0xb2d001305ef7ced8U,
  0xbcc82414dc0dbe04U, 0xece2031d2e2753f5U, 0xfc6b3d43c2daf65aU, 0xc7f7f0dad6083ed2U,
  0xcb42cec30556bcd6U, 0xf70aef4350bf1448U, 0xc5d51bd7ef53cebaU, 0xed03c3cfb5f6aae9U,
  0xc1dfcf93506cf1cU, 0x6ef6e41effb71d3dU, 0x59b4d1ffe80046d9U, 0x2af84f54f2dc13cfU,
  0xbb0318232d2fc655U, 0x49ae67cce40ea539U, 0x1f192728dbe3048dU, 0x1ff103b5e396d733U,
  0xf2e0db41ccef53efU, 0x3411d6da030e0012U, 0xe244d6080e0309f4U, 0xe1b953c3f7aa380dU,
  0xe7ced9c821e44d32U, 0xbb3eacc8e6d240deU, 0xb7e7cc3b7f243d12U, 0xfdab602aea581a06U,
  0xb034e025f52036f5U, 0xd2eac6b7fafd191dU, 0x22f52116e64ef90bU, 0xf1d43f1a5bf52de5U,
  0x56f7d00d12371e5bU, 0x15a503c913fbdeb6U, 0x19ef11ea0b072af4U, 0x244029041019b2dfU,
  0x3232ad1adad907dfU, 0xe9d84430aba3d3f1U, 0x1ebc35afffe24ffdU, 0xac200fd6e1b8b64dU,
  0x6143f8da604209d6U, 0xd6241e17c63c1315U, 0x18cdf54847530725U, 0xc51cae08f1334cbbU,
  0xd2f6aed511e9eb47U, 0xed505abed74105f4U, 0x4843240827204ffbU, 0x3804cb3fc73ebed7U,
  0x3cc71821dfd92e5eU, 0xef13099a0cbd18f8U, 0xff3425291a3605d3U, 0x41a8d638afddad1bU,
  0xabe9a81915c8f9abU, 0x48c6193012224727U, 0xca078eb8310bf5e2U, 0x1a5525efeacd03bdU,
  0x293d1f271646122fU, 0x25d00f2a3b42e2bdU, 0xf1fd11d1de39e7ebU, 0xd1f52db93829dbdbU,
  0xd94ab7b82ef721cfU, 0xdb01d712d9151ac0U, 0x5722cef1c1d2ba38U, 0xf5d03438f6d502ebU,
  0x4cede808a6cabdc0U, 0x3dd8e1e8d9af072fU, 0x1a1946fc2025f646U, 0xe1b822e3e13525fdU,
  0xff3be2c4eb231820U, 0x56c0f615b91cc904U, 0xd82795f6d5c44f20U, 0xeb3f12caa6215d9fU,
  0xb13ca1eef3b0ef6U, 0x25ad2df459c2bacaU, 0xcc470cb72a1d01e3U, 0xe2ddcb0bd9021c09U,
  0x65d90c0cb82d5743U, 0xbcffa713cd03e5b4U, 0xd3c51fd014061a64U, 0x3a1a080307feabfbU,
  0x3cf908cbffa622c4U, 0x37b622e65a2ce0e0U, 0x3fcae1c23da8faa5U, 0x1106d766f22d2f33U,
  0xd252da02b92c16fbU, 0x410b461f1ec5f83fU, 0x143cd9ebf4d038d3U, 0xb5b9e4404507ffe0U,
  0x41bf420a2c19e9f2U, 0xeba9d3204244bae8U, 0xf817fe0fd90bbd1eU, 0x540b0718c442d023U,
  0xfbc0b505ea25d3d8U, 0x52e3c01847476de2U, 0x20e6f5bd0c28d42dU, 0xd0c3bdacdc85022U,
  0xe905e3eee41429dbU, 0x403717e1bef2d72fU, 0xc248f646d89fd6e6U, 0x454a0d4bda113fc2U,
  0x400cf6ff28e24ce9U, 0x20070b053ff90905U, 0xc4cc2943ee0fce06U, 0x2b10f9c3ff0ca1ddU,
  0xfffffcc8fffffd6eU, 0x33bfffffcdaU, 0x305fffffdb8U, 0x1b3fffffd1aU,
  0xfffffdb7fffffcf6U, 0xfffffd0100000058U, 0x30cfffffe0eU, 0x2e0ffffffacU,
  0xfffffd6e000002afU, 0x1f800000314U, 0x22e000002d5U, 0xfffffec8fffffd18U,
  0x25400000289U, 0x2fcfffffe5bU, 0x330000000aaU, 0x250000002f3U,
  0x338148c857dd9aa8U, 0x590f53eeb6ebebbaU, 0xc3cb1e200f34a82aU, 0xff5459ed22f63c43U,
  0xfbb23cf140bfa7ddU, 0x52cc4ffee816c2c1U, 0x1cdb0951144de72fU, 0xb2b613434e6150eU,
  0x2fbcc4bee41bd9a2U, 0x4ec0f5f50c1495fbU, 0xf5070556f79ec049U, 0xfdd4ecb3d1b14eebU,
  0x1f1000001a8U, 0x17U,
};


ai_buffer g_network_data_map_activations[AI_NETWORK_DATA_ACTIVATIONS_COUNT] = {
  AI_BUFFER_INIT(AI_FLAG_NONE,  AI_BUFFER_FORMAT_U8,
    AI_BUFFER_SHAPE_INIT(AI_SHAPE_BCWH, 4, 1, 192, 1, 1),
    192, NULL, NULL),    /* heap_overlay_pool */
  };
ai_buffer g_network_data_map_weights[AI_NETWORK_DATA_WEIGHTS_COUNT] = {
  AI_BUFFER_INIT(AI_FLAG_NONE,  AI_BUFFER_FORMAT_U8,
    AI_BUFFER_SHAPE_INIT(AI_SHAPE_BCWH, 4, 1, 11884, 1, 1),
    11884, NULL, s_network_network_weights_array_u64),   /* network_weights_array */
  };


/*!
 * @brief Get network activations buffer initialized struct.
 * @ingroup network_data
 * @param[in] ptr a pointer to the activations array storage area
 * @return an ai_buffer initialized struct
 */
AI_DEPRECATED
AI_API_ENTRY
ai_buffer ai_network_data_activations_buffer_get(const ai_handle ptr)
{
  ai_buffer buf = AI_BUFFER_INIT(
    AI_FLAG_NONE, AI_BUFFER_FORMAT_U8,
    AI_BUFFER_SHAPE_INIT(AI_SHAPE_BCWH, 4, 1, AI_NETWORK_DATA_ACTIVATIONS_SIZE, 1, AI_NETWORK_DATA_ACTIVATIONS_COUNT),
    AI_NETWORK_DATA_ACTIVATIONS_SIZE,
    NULL, ptr);
  return buf;
}

/*!
 * @brief Get network weights buffer initialized struct.
 * @ingroup network_data
 * @param[in] ptr a pointer to the weights array storage area
 * @return an ai_buffer initialized struct
 */
AI_DEPRECATED
AI_API_ENTRY
ai_buffer ai_network_data_weights_buffer_get(const ai_handle ptr)
{
  ai_buffer buf = AI_BUFFER_INIT(
    AI_FLAG_NONE, AI_BUFFER_FORMAT_U8|AI_BUFFER_FMT_FLAG_CONST,
    AI_BUFFER_SHAPE_INIT(AI_SHAPE_BCWH, 4, 1, AI_NETWORK_DATA_WEIGHTS_SIZE, 1, AI_NETWORK_DATA_WEIGHTS_COUNT),
    AI_NETWORK_DATA_WEIGHTS_SIZE,
    NULL, ptr);
  return buf;
}


/*!
 * @brief Get network weights array pointer as a handle ptr.
 * @ingroup network_data
 * @return a ai_handle pointer to the weights array
 */
AI_DEPRECATED
AI_API_ENTRY
ai_handle ai_network_data_weights_get(void)
{
  static const ai_u8* const s_network_weights_table[1 + 2] = {
    AI_PTR(AI_MAGIC_MARKER),
    AI_PTR(s_network_network_weights_array_u64),
    AI_PTR(AI_MAGIC_MARKER)
  };

  return AI_HANDLE_PTR(s_network_weights_table);

}


/*!
 * @brief Get network params configuration data structure.
 * @ingroup network_data
 * @return true if a valid configuration is present, false otherwise
 */
AI_API_ENTRY
ai_bool ai_network_data_params_get(ai_network_params* params)
{
  if (!params) return false;
  
  const ai_buffer_array map_activations = 
    AI_BUFFER_ARRAY_OBJ_INIT(AI_FLAG_NONE, AI_NETWORK_DATA_ACTIVATIONS_COUNT, g_network_data_map_activations);
  
  const ai_buffer_array map_weights = 
    AI_BUFFER_ARRAY_OBJ_INIT(AI_FLAG_NONE, AI_NETWORK_DATA_WEIGHTS_COUNT, g_network_data_map_weights);

  return ai_platform_bind_network_params(params, &map_weights, &map_activations);
}


AI_API_DECLARE_END
