
/**
  ******************************************************************************
  * @file    network_data.c
  * @author  AST Embedded Analytics Research Platform
  * @date    Wed Mar 16 11:50:39 2022
  * @brief   AI Tool Automatic Code Generator for Embedded NN computing
  ******************************************************************************
  * @attention
  *
  * Copyright (c) 2021 STMicroelectronics.
  * All rights reserved.
  *
  * This software is licensed under terms that can be found in the LICENSE file
  * in the root directory of this software component.
  * If no LICENSE file comes with this software, it is provided AS-IS.
  ******************************************************************************
  */
#include "network_data.h"
#include "ai_platform_interface.h"

AI_API_DECLARE_BEGIN

AI_ALIGNED(32)
const ai_u64 s_network_network_weights_array_u64[ 5698 ] = {
  0x3e1a3bd23e40cac6U, 0x3f06f458bd9a3bd2U, 0xbe86f4583d40cac6U, 0xbed41241be06f458U,
  0xbecf40623e4a6e84U, 0x3e7aa1353f06f458U, 0x3f06f4583e822279U, 0xbdad834cbd9a3bd2U,
  0xbc1a3bd23e9569f3U, 0x3dc0cac6bc9a3bd2U, 0x3de759bbbdc0cac6U, 0xbe1a3bd23dad834cU,
  0xbd9a3bd2bdad834cU, 0x3c1a3bd2U, 0x3dad834c3e5db5feU, 0x3e9f0db13e8bc636U,
  0x3d1a3bd23ea8b16eU, 0x3dfaa1353e06f458U, 0x3e40cac63e2d834cU, 0xbe109815bdd41241U,
  0xbe4a6e84bd9a3bd2U, 0x3d6759bbbe109815U, 0xbc9a3bd2be23df8fU, 0xbdd41241be541241U,
  0xbe23df8fbe541241U, 0xbdc0cac6bd9a3bd2U, 0xbd6759bbbd1a3bd2U, 0x3dd41241bdad834cU,
  0xbdd41241be4a6e84U, 0xbe372709bdd41241U, 0xbf1a3bd23e23df8fU, 0xbefaa1353ee287dcU,
  0x3e86f4583ef5cf57U, 0x3e1a3bd2bdad834cU, 0x3de759bbbd9a3bd2U, 0xbec59ca53ea3df8fU,
  0x3e822279be5db5feU, 0x3ec0cac63ed41241U, 0xbdd41241bee287dcU, 0x3dfaa1353e8bc636U,
  0x3d86f4583e1a3bd2U, 0xbe372709bf8828cfU, 0xbed8e41fbd1a3bd2U, 0x3ec0cac63c9a3bd2U,
  0xbf0222793c9a3bd2U, 0x3e40cac63e5db5feU, 0x3ee759bbbe822279U, 0xbf1f0db13ea8b16eU,
  0xbeb72709bee287dcU, 0x3e1a3bd2bd9a3bd2U, 0x3ead834cbe541241U, 0xbdad834c3f022279U,
  0xbeb727093e372709U, 0x3f06f4583ebbf8e8U, 0x3dfaa1353eb2552bU, 0x3e23df8fbef0fd78U,
  0xbe5db5fe3e109815U, 0xbebbf8e83e40cac6U, 0xbe40cac600000000U, 0x3dad834cbe372709U,
  0xbe2d834c3d40cac6U, 0xbec0cac6be9a3bd2U, 0x3f06f4583dc0cac6U, 0xbce759bb3e70fd78U,
  0xbdd41241bce759bbU, 0x3e1a3bd23de759bbU, 0xbde759bb3dad834cU, 0xbe06f4583d40cac6U,
  0xbe06f4583e23df8fU, 0xbd86f4583d6759bbU, 0xbc1a3bd23d6759bbU, 0x3de759bbU,
  0xbd86f4583e23df8fU, 0x3ce759bbbd1a3bd2U, 0xbe3727093e1a3bd2U, 0x3d86f458U,
  0xbdc0cac63e109815U, 0xbdad834cbd9a3bd2U, 0x3d9a3bd23c1a3bd2U, 0xbc9a3bd23d1a3bd2U,
  0xbdad834c3e1a3bd2U, 0x3dd41241bd9a3bd2U, 0x3dc0cac6bde759bbU, 0xbd9a3bd23ce759bbU,
  0xbc9a3bd2bc1a3bd2U, 0xbc9a3bd23dad834cU, 0x3e06f458bdd41241U, 0x3d1a3bd2bdc0cac6U,
  0x3de759bbbdfaa135U, 0xbd86f4583d86f458U, 0x3c1a3bd2bce759bbU, 0x3c9a3bd2bce759bbU,
  0xbc1a3bd200000000U, 0xbc9a3bd2bd6759bbU, 0xbd86f4583d40cac6U, 0xbe1a3bd23e372709U,
  0x3dd412413dc0cac6U, 0x3dad834cbd9a3bd2U, 0x3d86f45800000000U, 0xbd40cac63dc0cac6U,
  0x3e23df8f3ce759bbU, 0xbe4a6e84bc9a3bd2U, 0xbdfaa135bdd41241U, 0xbe23df8f3dfaa135U,
  0xbc9a3bd23dad834cU, 0xbd9a3bd2bdc0cac6U, 0xbe1a3bd23e6759bbU, 0x3d6759bb3c9a3bd2U,
  0xbe86f4583ce759bbU, 0x3d1a3bd23e06f458U, 0xbd1a3bd2U, 0xbd9a3bd23e06f458U,
  0xbe109815bc1a3bd2U, 0xbd9a3bd23d86f458U, 0x3de759bb3d9a3bd2U, 0xbce759bbbd6759bbU,
  0xbdc0cac6bd40cac6U, 0x3e9f0db13e06f458U, 0x3d9a3bd23d86f458U, 0xbc9a3bd23de759bbU,
  0x3e109815bc9a3bd2U, 0xbe372709bc1a3bd2U, 0xbc1a3bd2bc9a3bd2U, 0xbe1098153d86f458U,
  0xbe2d834c3d9a3bd2U, 0xbd9a3bd23d1a3bd2U, 0x3e2d834c3ce759bbU, 0xbd1a3bd2U,
  0xbd40cac63dfaa135U, 0x3e1a3bd23d6759bbU, 0xbe40cac6bc9a3bd2U, 0x3c9a3bd2be86f458U,
  0xbc9a3bd23dd41241U, 0xbe06f4583dad834cU, 0x3de759bb3c1a3bd2U, 0xbd86f458bdd41241U,
  0xbde759bb3e1a3bd2U, 0xbdad834c3dfaa135U, 0xbd6759bbbc1a3bd2U, 0x3c1a3bd23e2d834cU,
  0xbc1a3bd2bdfaa135U, 0x3e23df8fbe1a3bd2U, 0x3d86f4583de759bbU, 0xbdd412413dfaa135U,
  0x3d1a3bd23dad834cU, 0xbc9a3bd23d40cac6U, 0xbdd41241bdfaa135U, 0x3d40cac6bd40cac6U,
  0x3c1a3bd2bdfaa135U, 0x3d86f458bc1a3bd2U, 0x3d86f4583dd41241U, 0x3c9a3bd2be23df8fU,
  0x3e1a3bd2be06f458U, 0x3d1a3bd2bd40cac6U, 0xbd1a3bd200000000U, 0x3e1a3bd2bde759bbU,
  0xbdd41241bd6759bbU, 0xbc1a3bd23dd41241U, 0xbe4a6e84bd86f458U, 0xbe9098153e70fd78U,
  0x3c9a3bd2bdad834cU, 0xbe2d834c3e23df8fU, 0xbe541241be06f458U, 0xbe23df8f3de759bbU,
  0xbd86f458bdad834cU, 0xbd1a3bd23dd41241U, 0xbc9a3bd2bdc0cac6U, 0x3e06f4583dad834cU,
  0xbe2d834c3e06f458U, 0xbe4a6e84bebbf8e8U, 0xbe9098153de759bbU, 0xbce759bb3d40cac6U,
  0x3e1098153e1a3bd2U, 0x3dc0cac63ce759bbU, 0x3de759bb00000000U, 0xbe06f4583e7aa135U,
  0x3d9a3bd2be822279U, 0x3e4a6e843de759bbU, 0x3dad834c3d9a3bd2U, 0xbde759bb3e6759bbU,
  0x3d1a3bd23e109815U, 0x3e541241U, 0x3d6759bb3ec0cac6U, 0x3e5db5febdc0cac6U,
  0xbe9569f3bc9a3bd2U, 0xbde759bb3e4a6e84U, 0xbead834c3ea3df8fU, 0x3dd412413d1a3bd2U,
  0x3c9a3bd23e7aa135U, 0x3d40cac6be372709U, 0x3d86f458bc1a3bd2U, 0x3d1a3bd23dfaa135U,
  0x3e5412413e40cac6U, 0xbe2d834c3e23df8fU, 0x3e1098153e9f0db1U, 0x3d9a3bd2U,
  0x3e86f458bec59ca5U, 0x3e541241bebbf8e8U, 0xbde759bbbd6759bbU, 0x3e6759bb3d86f458U,
  0x3e909815bead834cU, 0x3e86f4583ce759bbU, 0x3d6759bb3e9f0db1U, 0x3ead834c00000000U,
  0x3e5412413e40cac6U, 0xbe7aa1353e2d834cU, 0xbe06f458be23df8fU, 0xbe70fd78bd9a3bd2U,
  0xbdd41241bd9a3bd2U, 0xbce759bbbd6759bbU, 0xbe822279U, 0x3c9a3bd23e06f458U,
  0xbce759bb3dd41241U, 0x3dad834c3de759bbU, 0x3d86f458bd9a3bd2U, 0xbd6759bb3e1a3bd2U,
  0x3dfaa1353e7aa135U, 0xbd6759bbbdfaa135U, 0x3ce759bb3d40cac6U, 0xbd6759bb3ce759bbU,
  0x3dfaa1353de759bbU, 0x3c9a3bd200000000U, 0x3e4a6e843c9a3bd2U, 0x3e8bc636bf0e2f26U,
  0xbe3727093e5db5feU, 0x3dc0cac6be6759bbU, 0x3ecf40623ebbf8e8U, 0x3f28b16ebe7aa135U,
  0xbc9a3bd2bd6759bbU, 0xbdad834cbe9a3bd2U, 0x3ead834cbef5cf57U, 0xbe06f4583ce759bbU,
  0x3de759bbbe86f458U, 0x3ea8b16e3efaa135U, 0x3ecf40623e109815U, 0xbeb72709U,
  0xbdad834cbe372709U, 0x3c1a3bd23e4a6e84U, 0xbe7aa135bc1a3bd2U, 0x3f0bc636be372709U,
  0x3d9a3bd23f17d2e3U, 0x3d6759bbbc1a3bd2U, 0x3d86f4583d86f458U, 0x3d9a3bd2bf1a3bd2U,
  0xbdc0cac6be2d834cU, 0xbce759bb3d86f458U, 0x3e822279bf109815U, 0xbe9a3bd23d1a3bd2U,
  0x3e06f45800000000U, 0x3e372709beb2552bU, 0x3e372709be9a3bd2U, 0x3e06f4583dc0cac6U,
  0xbe86f458bc1a3bd2U, 0x3e5412413c9a3bd2U, 0xbe8bc636bce759bbU, 0x3d86f458befaa135U,
  0xbde759bb3dd41241U, 0x3e909815bd86f458U, 0xbc9a3bd2be109815U, 0xbe23df8fbdfaa135U,
  0xbdc0cac6bc1a3bd2U, 0xbde759bb3ead834cU, 0x3ea8b16e3dfaa135U, 0xbc1a3bd2bdfaa135U,
  0xbd1a3bd23e6759bbU, 0x3d1a3bd2bdd41241U, 0x3c9a3bd2bd1a3bd2U, 0x3c1a3bd2U,
  0xbde759bb3dad834cU, 0xbdd41241bce759bbU, 0xbd1a3bd2bd1a3bd2U, 0x3d40cac6bd9a3bd2U,
  0x3e1098153dd41241U, 0x3dc0cac6bdad834cU, 0x3dc0cac6U, 0xbe5db5fe3dad834cU,
  0x3de759bbbe23df8fU, 0x3dfaa1353d1a3bd2U, 0xbd9a3bd2U, 0xbd40cac63d6759bbU,
  0x3dd41241bdd41241U, 0xbe1a3bd23dc0cac6U, 0xbd6759bb3dad834cU, 0x3e06f458bd40cac6U,
  0xbd86f458bce759bbU, 0xbe23df8f3dad834cU, 0xbe1098153e70fd78U, 0xbe9569f33e9f0db1U,
  0x3ec0cac63e9569f3U, 0x3d86f458bd86f458U, 0xbe06f458be23df8fU, 0xbec59ca53ead834cU,
  0x3dd41241be23df8fU, 0x3e1a3bd23e6759bbU, 0xbdd41241bc9a3bd2U, 0x3dc0cac63ce759bbU,
  0xbd86f4583ebbf8e8U, 0xbe70fd78bec59ca5U, 0xbe5412413de759bbU, 0x3e9f0db13dd41241U,
  0xbdd412413dc0cac6U, 0x3d6759bb3e109815U, 0x3e40cac6be822279U, 0xbef5cf573e9f0db1U,
  0xbe9f0db1bea8b16eU, 0x3e4a6e84bdd41241U, 0x3d9a3bd2bdad834cU, 0xbe4a6e843e70fd78U,
  0xbe8bc6363d40cac6U, 0x3dc0cac63e1a3bd2U, 0x3ead834c3e541241U, 0x3e109815be70fd78U,
  0xbe8222793d6759bbU, 0xbed8e41f3dd41241U, 0xbe2d834cbc1a3bd2U, 0x3c9a3bd2be1a3bd2U,
  0xbe6759bb3d86f458U, 0xbe909815be8bc636U, 0x3e1a3bd2bde759bbU, 0x3dd412413dad834cU,
  0xbe40cac63d9a3bd2U, 0xbd40cac63e23df8fU, 0x3d86f4583de759bbU, 0x3de759bb3e372709U,
  0xbc1a3bd23c1a3bd2U, 0xbd1a3bd2bc9a3bd2U, 0xbe70fd783d86f458U, 0x3d40cac6bdfaa135U,
  0xbc1a3bd2bde759bbU, 0xbd1a3bd23ce759bbU, 0x3d9a3bd2bc1a3bd2U, 0xbe23df8fbce759bbU,
  0x3ce759bb3dd41241U, 0x3d86f4583e109815U, 0x3e1a3bd2bdfaa135U, 0xbe23df8f3dd41241U,
  0xbde759bbbdd41241U, 0x3e1a3bd23ce759bbU, 0xbde759bbbe1a3bd2U, 0xbd1a3bd23e40cac6U,
  0xbe06f4583d6759bbU, 0x3dc0cac6bc1a3bd2U, 0xbd9a3bd2bd1a3bd2U, 0x3c9a3bd23d40cac6U,
  0x3e06f458bd40cac6U, 0xbd86f458bdad834cU, 0x3e06f4583ce759bbU, 0xbc9a3bd2bd1a3bd2U,
  0x3dad834cbd40cac6U, 0xbd40cac6U, 0x3dc0cac63c1a3bd2U, 0xbdc0cac6bd6759bbU,
  0x3d6759bb3de759bbU, 0x3e372709be23df8fU, 0x3dd4124100000000U, 0x3e5db5febd6759bbU,
  0xbc9a3bd23e1a3bd2U, 0x3ce759bb3dc0cac6U, 0x3e2d834cbe2d834cU, 0x3d9a3bd23ce759bbU,
  0xbc1a3bd23c9a3bd2U, 0xbe1098153c1a3bd2U, 0x3c1a3bd23d6759bbU, 0xbd86f458be109815U,
  0x3e06f4583e23df8fU, 0x3c9a3bd23e4a6e84U, 0xbe109815bd9a3bd2U, 0x3ce759bbbd86f458U,
  0xbd40cac63e6759bbU, 0x3dfaa1353c9a3bd2U, 0xbdc0cac63d40cac6U, 0x3d86f458be9a3bd2U,
  0xbc9a3bd23c9a3bd2U, 0xbc1a3bd2be5db5feU, 0xbd1a3bd2be1a3bd2U, 0x3d6759bbU,
  0x3dc0cac63d86f458U, 0x3dd41241bc1a3bd2U, 0xbe109815be06f458U, 0xbd40cac6bce759bbU,
  0xbd40cac600000000U, 0xbc9a3bd2bce759bbU, 0xbd86f4583d40cac6U, 0x3c9a3bd2be372709U,
  0xbce759bbbdc0cac6U, 0x3dfaa1353d86f458U, 0xbc9a3bd2bc9a3bd2U, 0x3e2d834cbce759bbU,
  0x3c1a3bd23d6759bbU, 0xbe1a3bd23e23df8fU, 0xbdfaa135bd1a3bd2U, 0xbdd41241bd9a3bd2U,
  0x3d9a3bd2bd86f458U, 0xbe06f4583d40cac6U, 0xbce759bb3dad834cU, 0xbdad834c3e06f458U,
  0x3d40cac6bdad834cU, 0x3dd41241bd40cac6U, 0xbdc0cac63e06f458U, 0xbd1a3bd23d40cac6U,
  0xbd1a3bd2be23df8fU, 0x3d86f4583d6759bbU, 0x3dd41241be06f458U, 0xbd40cac6U,
  0x3d40cac63ce759bbU, 0x3dd41241bd9a3bd2U, 0x3d9a3bd2bd6759bbU, 0x3c9a3bd2bd9a3bd2U,
  0x3d86f458bd40cac6U, 0xbd9a3bd23c1a3bd2U, 0xbe5412413de759bbU, 0xbc9a3bd23e06f458U,
  0x3ce759bb3c1a3bd2U, 0xbdc0cac6bde759bbU, 0x3c1a3bd23dc0cac6U, 0x3c1a3bd23dc0cac6U,
  0xbe10981500000000U, 0x3d6759bb3dc0cac6U, 0xbdfaa135be541241U, 0xbe7aa1353de759bbU,
  0xbd1a3bd2bd86f458U, 0x3de759bb3d40cac6U, 0xbde759bb3dad834cU, 0x3d9a3bd2bdfaa135U,
  0x3c9a3bd23d9a3bd2U, 0x3dad834c3de759bbU, 0xbdd412413c1a3bd2U, 0xbe70fd78bc9a3bd2U,
  0x3e4a6e843d1a3bd2U, 0xbe2d834c00000000U, 0xbd86f4583dc0cac6U, 0xbe40cac6bce759bbU,
  0x3e06f4583ce759bbU, 0xbd9a3bd2bc1a3bd2U, 0x3d1a3bd23e2d834cU, 0xbd40cac63e109815U,
  0xbdad834cbe40cac6U, 0x3dfaa1353dc0cac6U, 0x3c9a3bd2bd40cac6U, 0x3c9a3bd200000000U,
  0xbce759bb3e5db5feU, 0xbdc0cac6bd1a3bd2U, 0xbe8222793e9569f3U, 0x3d1a3bd2U,
  0x3ce759bbbd6759bbU, 0x3dfaa1353c9a3bd2U, 0x3d9a3bd2bc9a3bd2U, 0x3de759bbbdc0cac6U,
  0xbe822279bc1a3bd2U, 0xbe3727093c9a3bd2U, 0x3dad834c3dd41241U, 0x3dc0cac63dad834cU,
  0x3e2d834cbe5db5feU, 0x3e23df8fbdc0cac6U, 0xbe822279bd86f458U, 0x3dd4124100000000U,
  0xbd86f458be2d834cU, 0xbd1a3bd23d6759bbU, 0xbce759bb3dd41241U, 0x3c9a3bd2bd40cac6U,
  0x3dd41241bd86f458U, 0x3c9a3bd23d6759bbU, 0x3d1a3bd2bce759bbU, 0xbe1098153dd41241U,
  0xbd40cac6bd1a3bd2U, 0xbc1a3bd23c9a3bd2U, 0xbd86f458bc9a3bd2U, 0x3e2d834cbdd41241U,
  0x3dc0cac6bd40cac6U, 0xbce759bb00000000U, 0x3d86f458bdc0cac6U, 0xbce759bbbd86f458U,
  0xbd6759bb3e109815U, 0x3dad834cbde759bbU, 0xbd9a3bd23d9a3bd2U, 0xbe2d834c3de759bbU,
  0xbd86f4583dfaa135U, 0x3e1a3bd2bde759bbU, 0x3e372709be372709U, 0x3e6759bbbed8e41fU,
  0xbe2d834c3d9a3bd2U, 0xbce759bbbdc0cac6U, 0x3e40cac63d1a3bd2U, 0x3e9569f3be9569f3U,
  0x3d9a3bd2bd6759bbU, 0xbe6759bbbe1a3bd2U, 0x3e23df8f3c1a3bd2U, 0xbdad834cbe23df8fU,
  0xbce759bbbd40cac6U, 0x3e40cac63ef5cf57U, 0x3e70fd78be06f458U, 0xbdfaa1353d6759bbU,
  0x3dfaa135be2d834cU, 0xbd9a3bd23dfaa135U, 0xbe23df8f3e9a3bd2U, 0x3ec0cac6bdad834cU,
  0x3e3727093e9a3bd2U, 0x3e109815bd86f458U, 0xbe5412413e06f458U, 0xbdc0cac6bed8e41fU,
  0x3e7aa135bd40cac6U, 0xbde759bbbd40cac6U, 0xbe8bc636be5db5feU, 0xbe7aa1353d86f458U,
  0x3e909815be23df8fU, 0x3e6759bbbe541241U, 0x3de759bbbd9a3bd2U, 0x3d6759bb3e2d834cU,
  0x3c9a3bd2be23df8fU, 0x3e9569f33eca6e84U, 0xbe9a3bd23ce759bbU, 0xbdd41241bd40cac6U,
  0x3dad834c3de759bbU, 0xbd86f4583dfaa135U, 0xbce759bbbd9a3bd2U, 0x3e109815bde759bbU,
  0xbc9a3bd2bd6759bbU, 0x3d40cac63c9a3bd2U, 0x3d6759bbbe06f458U, 0xbc9a3bd23d9a3bd2U,
  0xbc9a3bd23d40cac6U, 0x3e06f458be109815U, 0xbdfaa1353d40cac6U, 0xbd9a3bd23d1a3bd2U,
  0xbd86f4583e23df8fU, 0x3d40cac6bd9a3bd2U, 0xbdd412413e23df8fU, 0xbd40cac63dd41241U,
  0xbdfaa135bdfaa135U, 0x3e06f4583d9a3bd2U, 0x3c1a3bd2bd86f458U, 0xbe4a6e843e06f458U,
  0x3e23df8f3d40cac6U, 0xbde759bbbe06f458U, 0xbd86f4583e1a3bd2U, 0xbe1a3bd23dc0cac6U,
  0x3e40cac6bd6759bbU, 0xbdc0cac6bd9a3bd2U, 0x3d86f4583dad834cU, 0x3ce759bbbd40cac6U,
  0x3e06f458bdc0cac6U, 0xbdad834cU, 0xbdad834c3d6759bbU, 0xbd86f458bc9a3bd2U,
  0x3d40cac63ce759bbU, 0xbdd41241bce759bbU, 0x3d1a3bd2bd9a3bd2U, 0x3c1a3bd23c9a3bd2U,
  0x3e1a3bd2U, 0x3e4a6e84bc1a3bd2U, 0xbd6759bbbd9a3bd2U, 0xbdc0cac63d6759bbU,
  0x3d1a3bd2bce759bbU, 0xbd86f4583dfaa135U, 0xbd86f458bd6759bbU, 0xbdad834c3e23df8fU,
  0x3e3727093d1a3bd2U, 0xbe06f458bd40cac6U, 0xbd86f4583e23df8fU, 0xbde759bbbc1a3bd2U,
  0x3e2d834cbce759bbU, 0xbd40cac6bc1a3bd2U, 0x3de759bbU, 0x3c9a3bd23e109815U,
  0x3de759bb3d6759bbU, 0xbd40cac63e70fd78U, 0xbe5db5fe00000000U, 0x3dad834cbc9a3bd2U,
  0x3dc0cac6bc1a3bd2U, 0x3de759bbbdc0cac6U, 0x3d6759bbbd9a3bd2U, 0xbdad834c3d1a3bd2U,
  0x3dd412413c1a3bd2U, 0xbd86f4583e109815U, 0xbe3727093d86f458U, 0x3d40cac6bd40cac6U,
  0x3d9a3bd23d1a3bd2U, 0xbce759bbbe40cac6U, 0x3dad834cbe372709U, 0x3e909815bd9a3bd2U,
  0xbe1a3bd23dc0cac6U, 0x3c9a3bd2bd9a3bd2U, 0xbd40cac6be70fd78U, 0x3d6759bb3e1a3bd2U,
  0xbd6759bb3dfaa135U, 0x3d6759bb3d1a3bd2U, 0xbdc0cac6bce759bbU, 0xbce759bb3dad834cU,
  0xbde759bb3d86f458U, 0x3d1a3bd2bd6759bbU, 0x3e372709be06f458U, 0x3e37270900000000U,
  0x3d6759bbbe1a3bd2U, 0xbe1a3bd23ce759bbU, 0xbdfaa1353d1a3bd2U, 0x3dfaa1353e109815U,
  0xbe1a3bd2U, 0xbc9a3bd23d40cac6U, 0xbd9a3bd23d40cac6U, 0x3d6759bb3d6759bbU,
  0xbc1a3bd2bdd41241U, 0x3e5db5febd1a3bd2U, 0xbce759bbbe1a3bd2U, 0x3d86f45800000000U,
  0x3c1a3bd2bd9a3bd2U, 0x3ce759bbbd40cac6U, 0xbd6759bb3c9a3bd2U, 0xbde759bb3dd41241U,
  0x3dd41241be4a6e84U, 0xbe40cac63ce759bbU, 0xbd1a3bd23ce759bbU, 0xbe822279bc1a3bd2U,
  0x3dc0cac63de759bbU, 0x3dad834c3ce759bbU, 0xbdfaa1353e4a6e84U, 0x3d9a3bd2bd1a3bd2U,
  0xbce759bb3dc0cac6U, 0xbc9a3bd2bdfaa135U, 0xbc9a3bd23dc0cac6U, 0xbd40cac63dc0cac6U,
  0x3dc0cac63e372709U, 0x3e06f458bc1a3bd2U, 0x3e86f4583d1a3bd2U, 0xbce759bbbdad834cU,
  0x3c1a3bd2bdc0cac6U, 0x3de759bb00000000U, 0x3e5db5febe06f458U, 0x3d6759bb3e5db5feU,
  0xbe109815bd40cac6U, 0x3e6759bb00000000U, 0xbe2d834c3e5db5feU, 0x3e1a3bd23e06f458U,
  0xbc9a3bd2be23df8fU, 0x3c9a3bd23e372709U, 0xbce759bb3ce759bbU, 0xbce759bb3d86f458U,
  0xbd86f458U, 0xbc9a3bd23d86f458U, 0x3e109815bd6759bbU, 0xbd40cac63d9a3bd2U,
  0xbdd41241be2d834cU, 0xbdad834c3dad834cU, 0xbde759bbbd40cac6U, 0x3e2d834c3e23df8fU,
  0x3e23df8f3e1a3bd2U, 0x3de759bbbe5db5feU, 0xbe822279bd6759bbU, 0x3dfaa1353ce759bbU,
  0x3d1a3bd23dc0cac6U, 0x3c9a3bd23dc0cac6U, 0x3e109815be372709U, 0x3dc0cac6bd9a3bd2U,
  0xbe06f458bd1a3bd2U, 0xbd9a3bd23d1a3bd2U, 0x3dd412413e06f458U, 0x3c1a3bd2bdc0cac6U,
  0xbe06f458bd1a3bd2U, 0x3e37270900000000U, 0xbd9a3bd23d86f458U, 0x3dfaa135bdad834cU,
  0xbd9a3bd200000000U, 0xbe5412413e372709U, 0x3c9a3bd23dc0cac6U, 0x3e1a3bd2bdad834cU,
  0xbdd41241bd6759bbU, 0x3e1a3bd2bd1a3bd2U, 0xbce759bbbdad834cU, 0xbe1098153d40cac6U,
  0x3e06f4583e2d834cU, 0xbc9a3bd2be1a3bd2U, 0x3d86f4583d40cac6U, 0x3e909815be40cac6U,
  0xbce759bbbc9a3bd2U, 0xbe2d834c3c1a3bd2U, 0xbe5db5fe3d86f458U, 0x3dd41241be109815U,
  0x3d40cac63d1a3bd2U, 0xbe40cac6bce759bbU, 0x3de759bb3e109815U, 0xbd6759bbbd86f458U,
  0xbc9a3bd2bc9a3bd2U, 0xbc9a3bd23dad834cU, 0x3d40cac63e6759bbU, 0xbe7aa1353e109815U,
  0x3d1a3bd2bc1a3bd2U, 0xbdfaa135be40cac6U, 0xbd40cac6bd1a3bd2U, 0x3ce759bbbe4a6e84U,
  0x3dad834c3e5db5feU, 0xbc1a3bd23dd41241U, 0xbd6759bb00000000U, 0x3dad834cbc9a3bd2U,
  0x3e23df8fbde759bbU, 0x3d40cac6be70fd78U, 0x3c1a3bd2be23df8fU, 0x3de759bb3e23df8fU,
  0x3d6759bbbe40cac6U, 0x3e5db5fe3dc0cac6U, 0x3c1a3bd23ce759bbU, 0xbe06f4583d86f458U,
  0x3d40cac63c1a3bd2U, 0x3e5412413e372709U, 0x3e2d834c3d1a3bd2U, 0x3e1a3bd23dad834cU,
  0xbde759bbbd40cac6U, 0xbe1098153d1a3bd2U, 0x3e6759bb3d86f458U, 0x3e40cac63de759bbU,
  0x3d40cac6bdad834cU, 0x3d6759bbbdd41241U, 0xbdc0cac63e23df8fU, 0xbd9a3bd23e822279U,
  0xbe06f458bd1a3bd2U, 0xbd6759bb3de759bbU, 0xbdad834c3de759bbU, 0x3c9a3bd2bc1a3bd2U,
  0x3d1a3bd2bd9a3bd2U, 0x3e1098153e109815U, 0xbe23df8fbe06f458U, 0xbe1a3bd23e06f458U,
  0x3d1a3bd2be541241U, 0x3e372709be372709U, 0x3de759bb3e109815U, 0xbdad834c3ce759bbU,
  0x3e1a3bd2bdad834cU, 0xbe06f4583dad834cU, 0xbd9a3bd2bc9a3bd2U, 0x3d6759bb3dad834cU,
  0xbdd412413d6759bbU, 0xbde759bb3d6759bbU, 0xbce759bb3c9a3bd2U, 0x3ce759bb3d9a3bd2U,
  0x3c9a3bd2bce759bbU, 0x3d1a3bd2bd86f458U, 0x3dc0cac6bc1a3bd2U, 0x3dfaa135be109815U,
  0xbe541241be109815U, 0x3d1a3bd2U, 0x3d9a3bd23e372709U, 0x3e23df8fbe541241U,
  0xbe06f4583e23df8fU, 0xbe06f458be109815U, 0x3d40cac6U, 0x3c1a3bd2bd86f458U,
  0xbd86f458bd86f458U, 0x3e8bc6363f109815U, 0x3e372709bd1a3bd2U, 0xbe23df8f3e372709U,
  0x3e5db5febd86f458U, 0x3e109815bd40cac6U, 0xbe1a3bd23e70fd78U, 0x3ce759bbbde759bbU,
  0x3dfaa1353d9a3bd2U, 0x3dc0cac6bd9a3bd2U, 0x3d40cac63d86f458U, 0xbdad834cbe8bc636U,
  0x3e40cac6bce759bbU, 0x3d86f458bd1a3bd2U, 0xbd6759bbbe7aa135U, 0x3c9a3bd23e4a6e84U,
  0x3ce759bbbc1a3bd2U, 0x3e909815bdad834cU, 0x3c9a3bd2bd1a3bd2U, 0xbd1a3bd23d9a3bd2U,
  0x3e1a3bd200000000U, 0x3e86f4583e6759bbU, 0xbe6759bbbc1a3bd2U, 0xbdd41241bce759bbU,
  0x3dfaa1353e70fd78U, 0x3e9a3bd23d6759bbU, 0x3c9a3bd2be109815U, 0x3d86f458be5db5feU,
  0xbde759bb3d40cac6U, 0xbe5db5fe3e40cac6U, 0x3e2d834cbd1a3bd2U, 0xbe1a3bd23ce759bbU,
  0xbd9a3bd23e23df8fU, 0xbe4a6e843d1a3bd2U, 0x3d6759bbbe1a3bd2U, 0xbe9569f33d86f458U,
  0xbdd41241be23df8fU, 0x3dc0cac600000000U, 0x3dfaa1353e909815U, 0x3e2d834c3d1a3bd2U,
  0x3e8222793d86f458U, 0xbd1a3bd23dad834cU, 0x3d6759bb3e541241U, 0xbe6759bbbdd41241U,
  0x3d40cac6be109815U, 0xbdd41241be109815U, 0xbde759bb3d40cac6U, 0x3dd41241bd9a3bd2U,
  0x3d40cac6bd86f458U, 0x3dad834c3d40cac6U, 0xbce759bbbdd41241U, 0x3c1a3bd2bde759bbU,
  0xbd9a3bd2bc1a3bd2U, 0x3d40cac6bdad834cU, 0xbe822279bd86f458U, 0xbe9098153eec2b9aU,
  0x3ec59ca5bde759bbU, 0xbe1098153e2d834cU, 0xbe541241be6759bbU, 0xbed8e41f3d9a3bd2U,
  0x3d1a3bd23dd41241U, 0x3e2d834c3e541241U, 0xbe9a3bd23e109815U, 0x3dd412413ce759bbU,
  0x3d86f4583ce759bbU, 0xbe5db5febeff7314U, 0xbead834c3d1a3bd2U, 0x3ce759bb3e372709U,
  0x3d6759bbU, 0x3c1a3bd2bd1a3bd2U, 0x3e109815bc9a3bd2U, 0xbe5412413ec59ca5U,
  0xbe6759bbbeb2552bU, 0xbdc0cac6bd1a3bd2U, 0x3e40cac6bc1a3bd2U, 0x3dc0cac63e86f458U,
  0xbdfaa135bc9a3bd2U, 0x3e5412413d6759bbU, 0xbd6759bb3eca6e84U, 0x3dad834cbe822279U,
  0xbd40cac6be06f458U, 0xbdc0cac63eb72709U, 0xbd1a3bd23ce759bbU, 0x3dc0cac6be8bc636U,
  0x3ce759bb3dad834cU, 0xbe6759bbbd40cac6U, 0x3eb72709bdd41241U, 0xbd1a3bd23ea8b16eU,
  0xbe7aa135U, 0xbf095d473e6759bbU, 0xbc1a3bd2be2d834cU, 0x3eca6e843e5db5feU,
  0x3e40cac6bdd41241U, 0xbce759bbbee759bbU, 0xbf34be1abe109815U, 0x3e822279bd40cac6U,
  0x3d86f458be7aa135U, 0x3de759bbbce759bbU, 0x3e23df8fbd86f458U, 0x3dad834cbe4a6e84U,
  0xbd6759bb3dc0cac6U, 0xbd1a3bd23e40cac6U, 0xbd6759bbbe40cac6U, 0x3dd412413e109815U,
  0xbe822279be541241U, 0xbde759bbbdad834cU, 0xbce759bb3dad834cU, 0x3d40cac600000000U,
  0x3e3727093e40cac6U, 0x3dfaa135bd1a3bd2U, 0xbd6759bbbdfaa135U, 0x3d40cac63c1a3bd2U,
  0xbdc0cac63dad834cU, 0xbce759bbbd9a3bd2U, 0xbdc0cac63dc0cac6U, 0xbe2d834c3e40cac6U,
  0x3d6759bb3ce759bbU, 0x3e2d834cbdad834cU, 0x3ead834cbe1a3bd2U, 0x3ef0fd78bf130104U,
  0xbe541241bec0cac6U, 0xbe109815bdad834cU, 0x3d1a3bd23c9a3bd2U, 0x3e9f0db1be86f458U,
  0x3c1a3bd2bd86f458U, 0xbe9f0db1be5db5feU, 0x3dfaa1353e9569f3U, 0xbe1a3bd2be9a3bd2U,
  0xbe1a3bd2beb72709U, 0x3dc0cac63f7aa135U, 0x3f06f4583dd41241U, 0xbee759bb3d40cac6U,
  0x3e70fd78be372709U, 0x3e40cac6bd6759bbU, 0xbf095d473e7aa135U, 0x3ecf4062bec0cac6U,
  0x3eca6e843ee287dcU, 0xbce759bbbe40cac6U, 0xbeff73143ea3df8fU, 0x3e4a6e84bebbf8e8U,
  0x3e9098153ce759bbU, 0xbe1a3bd2be9f0db1U, 0xbe109815bf06f458U, 0x3ed8e41fU,
  0x3e6759bb3c9a3bd2U, 0x3efaa135be822279U, 0x3c9a3bd23d86f458U, 0xbe8bc6363e40cac6U,
  0x3e70fd78bdc0cac6U, 0x3ea8b16e3e541241U, 0xbe5412413e40cac6U, 0x3d6759bbbde759bbU,
  0x3e23df8f3dad834cU, 0xbdc0cac63dd41241U, 0x3c1a3bd23d9a3bd2U, 0xbd6759bbbe1a3bd2U,
  0x3c1a3bd2bde759bbU, 0x3c9a3bd23d6759bbU, 0x3e6759bbbdad834cU, 0x3dc0cac63dad834cU,
  0xbe109815bd9a3bd2U, 0xbd1a3bd23e23df8fU, 0x3dd41241bdc0cac6U, 0xbe40cac63dad834cU,
  0x3e23df8f3d86f458U, 0xbe06f458bd40cac6U, 0x3c1a3bd23ce759bbU, 0x3e23df8fbc1a3bd2U,
  0xbd9a3bd200000000U, 0xbe06f458bd9a3bd2U, 0xbd40cac63d9a3bd2U, 0x3c9a3bd23dad834cU,
  0x3d6759bbbd40cac6U, 0x3c9a3bd2bd86f458U, 0x3dad834cbc9a3bd2U, 0x3c9a3bd2bdd41241U,
  0x3d86f458bc9a3bd2U, 0x3dad834cbd1a3bd2U, 0xbce759bbbd6759bbU, 0x3dd41241bc1a3bd2U,
  0xbdfaa135bc9a3bd2U, 0xbd6759bb3dad834cU, 0xbc1a3bd23dd41241U, 0xbdfaa135bdc0cac6U,
  0x3d86f4583e822279U, 0x3d40cac63d6759bbU, 0x3d40cac63d86f458U, 0x3dc0cac6bce759bbU,
  0x3de759bbbd40cac6U, 0xbd9a3bd23dfaa135U, 0x3de759bb3d86f458U, 0x3dad834c3d9a3bd2U,
  0xbd1a3bd23de759bbU, 0xbe06f458bd6759bbU, 0xbe23df8fbc9a3bd2U, 0x3e7aa1353de759bbU,
  0xbdad834c3e5db5feU, 0x3dad834c3d86f458U, 0x3ce759bbbe1a3bd2U, 0xbd6759bb3e4a6e84U,
  0x3dc0cac63d9a3bd2U, 0x3e1a3bd200000000U, 0x3d40cac63dd41241U, 0x3c1a3bd2be822279U,
  0xbd40cac63ea3df8fU, 0x3e8bc6363e372709U, 0x3c1a3bd2bde759bbU, 0x3ce759bb3d9a3bd2U,
  0x3d1a3bd2bce759bbU, 0x3d1a3bd2be109815U, 0xbd40cac6be4a6e84U, 0xbe06f4583e1a3bd2U,
  0xbe70fd783dd41241U, 0x3dd41241be6759bbU, 0x3dfaa1353d1a3bd2U, 0xbc9a3bd2be372709U,
  0xbdc0cac600000000U, 0xbdd412413dd41241U, 0x3e8bc636be2d834cU, 0x3e5db5fe3dfaa135U,
  0x3d6759bb3e23df8fU, 0xbd9a3bd23de759bbU, 0xbd1a3bd23e06f458U, 0xbce759bbbd6759bbU,
  0xbc9a3bd2bd40cac6U, 0x3e109815bdd41241U, 0x3d1a3bd2bd6759bbU, 0xbd9a3bd23ce759bbU,
  0x3e06f4583c9a3bd2U, 0x3e2d834cbe70fd78U, 0x3d40cac63d86f458U, 0x3c9a3bd2be109815U,
  0x3d40cac63de759bbU, 0xbe4a6e84U, 0xbdfaa1353d9a3bd2U, 0x3d40cac6bce759bbU,
  0xbce759bb3d40cac6U, 0xbc9a3bd23d9a3bd2U, 0xbc1a3bd2bdad834cU, 0x3dc0cac6bce759bbU,
  0xbd6759bb3c1a3bd2U, 0x3dfaa135be23df8fU, 0xbe3727093e06f458U, 0xbc9a3bd23dad834cU,
  0x3d40cac6bce759bbU, 0x3dfaa135bd6759bbU, 0xbdfaa135bdc0cac6U, 0x3e2d834c3e7aa135U,
  0xbc9a3bd2bea8b16eU, 0xbdc0cac63dc0cac6U, 0xbea3df8fbdad834cU, 0xbebbf8e83d6759bbU,
  0xbdc0cac6bdd41241U, 0xbd40cac6bce759bbU, 0xbe1a3bd23ea3df8fU, 0xbd6759bb3d40cac6U,
  0xbdfaa1353e372709U, 0xbc9a3bd23dd41241U, 0x3dfaa135be109815U, 0xbe23df8f3ead834cU,
  0x3eb2552b3e4a6e84U, 0x3c1a3bd2be2d834cU, 0x3e06f458bd1a3bd2U, 0xbe372709be372709U,
  0x3e2d834cbde759bbU, 0x3e109815bde759bbU, 0xbe109815bd40cac6U, 0xbd40cac63e5db5feU,
  0x3d9a3bd200000000U, 0xbdfaa135bdad834cU, 0xbc1a3bd23e6759bbU, 0x3e9a3bd23d86f458U,
  0xbe1a3bd2bd86f458U, 0x3e06f4583e5db5feU, 0xbdd412413e4a6e84U, 0x3d9a3bd23d86f458U,
  0x3e2d834c3dfaa135U, 0x3dc0cac63d6759bbU, 0x3dc0cac63e4a6e84U, 0xbc9a3bd23dc0cac6U,
  0xbd86f458be23df8fU, 0xbce759bbbce759bbU, 0x3e5db5fe00000000U, 0x3e5412413d1a3bd2U,
  0x3e4a6e84be372709U, 0x3dc0cac6be4a6e84U, 0xbe23df8fbe541241U, 0x3e6759bb3dad834cU,
  0xbce759bbbe6759bbU, 0xbd9a3bd2bd6759bbU, 0x3d40cac63d1a3bd2U, 0xbd86f458U,
  0xbce759bbbc9a3bd2U, 0xbdad834c3e109815U, 0x3dad834cU, 0xbc9a3bd23d86f458U,
  0xbdc0cac63d86f458U, 0x3d1a3bd2bd40cac6U, 0xbd6759bbbdc0cac6U, 0xbd1a3bd23dad834cU,
  0x3ce759bbbe109815U, 0xbd9a3bd23e23df8fU, 0xbc9a3bd200000000U, 0xbd86f4583de759bbU,
  0xbc1a3bd23ce759bbU, 0x3dfaa135be06f458U, 0x3c9a3bd23d6759bbU, 0x3de759bbbe2d834cU,
  0x3dad834c3d1a3bd2U, 0x3dd41241be40cac6U, 0x3d86f4583d40cac6U, 0x3dd41241be9a3bd2U,
  0xbc9a3bd2be541241U, 0xbc9a3bd2bce759bbU, 0x3d86f4583e40cac6U, 0x3dad834cbd9a3bd2U,
  0xbe6759bb3d86f458U, 0xbdad834cbe822279U, 0x3dfaa1353e06f458U, 0xbc1a3bd2bce759bbU,
  0xbd1a3bd23d1a3bd2U, 0xbc1a3bd23dad834cU, 0x3e1098153d9a3bd2U, 0xbe40cac63d9a3bd2U,
  0xbc9a3bd2bde759bbU, 0xbdd41241be2d834cU, 0xbde759bbbd1a3bd2U, 0x3e70fd78be372709U,
  0x3e4a6e843e6759bbU, 0xbd6759bb00000000U, 0xbe2d834c3e372709U, 0xbc1a3bd2be2d834cU,
  0x3dfaa1353d6759bbU, 0xbe23df8f3c9a3bd2U, 0x3d86f458be2d834cU, 0x3c9a3bd2bce759bbU,
  0x3e1a3bd2be06f458U, 0x3e5db5febe541241U, 0x3dd412413ce759bbU, 0xbdfaa1353e06f458U,
  0x3e109815bc9a3bd2U, 0x3e8bc6363d6759bbU, 0xbe372709be1a3bd2U, 0x3dc0cac6be109815U,
  0x3ce759bb3d9a3bd2U, 0x3e2d834c3c9a3bd2U, 0xbe1a3bd2bdc0cac6U, 0x3dd41241bde759bbU,
  0x3c9a3bd23de759bbU, 0xbd1a3bd23d86f458U, 0x3e4a6e84bdd41241U, 0xbd40cac63d86f458U,
  0x3dc0cac63d9a3bd2U, 0x3c1a3bd23d86f458U, 0x3d40cac6be1a3bd2U, 0xbce759bb3e372709U,
  0x3de759bbbe1a3bd2U, 0x3d1a3bd23d40cac6U, 0x3c1a3bd2bdd41241U, 0xbd86f458be06f458U,
  0xbd40cac63e06f458U, 0x3e1a3bd200000000U, 0xbdc0cac63d6759bbU, 0xbd9a3bd2U,
  0xbc1a3bd2U, 0xbd86f4583dad834cU, 0xbdd412413c1a3bd2U, 0x3dad834c3e109815U,
  0xbdd41241bdd41241U, 0x3d40cac63d1a3bd2U, 0xbdc0cac63d1a3bd2U, 0x3dc0cac6bd6759bbU,
  0xbdc0cac63c1a3bd2U, 0x3e70fd783d1a3bd2U, 0xbe4a6e84bde759bbU, 0xbdad834c3e8bc636U,
  0x3de759bbbdad834cU, 0xbd86f4583e909815U, 0xbe86f4583d1a3bd2U, 0xbf048b683e2d834cU,
  0xbd6759bb3dc0cac6U, 0x3e3727093e86f458U, 0xbce759bb3e541241U, 0x3e40cac6bdd41241U,
  0xbd86f458bc1a3bd2U, 0xbe541241bc1a3bd2U, 0x3c1a3bd23de759bbU, 0xbe5412413e23df8fU,
  0x3d86f4583d1a3bd2U, 0x3e1a3bd2bdfaa135U, 0x3dd412413d40cac6U, 0xbe06f4583e4a6e84U,
  0xbd1a3bd2be70fd78U, 0x3c9a3bd2bce759bbU, 0xbd6759bb00000000U, 0xbd86f4583ea8b16eU,
  0xbe372709bc9a3bd2U, 0xbde759bb3de759bbU, 0xbe3727093eec2b9aU, 0x3e7aa1353d6759bbU,
  0xbe70fd783d86f458U, 0xbde759bb3e822279U, 0xbe8222793e06f458U, 0x3d40cac6bce759bbU,
  0x3dd412413dd41241U, 0xbe23df8fbdc0cac6U, 0x3d86f458be109815U, 0xbdc0cac63e109815U,
  0x3dc0cac63c1a3bd2U, 0x3ce759bbbe6759bbU, 0xbd86f4583ce759bbU, 0xbe06f458bd40cac6U,
  0xbdd41241bdd41241U, 0x3e1a3bd2bd40cac6U, 0x3d6759bb3dc0cac6U, 0xbdc0cac6bde759bbU,
  0xbdc0cac600000000U, 0xbce759bb3e4a6e84U, 0x3dad834cbdfaa135U, 0xbd86f4583d6759bbU,
  0xbdc0cac63de759bbU, 0x3c9a3bd23dad834cU, 0xbdc0cac63c1a3bd2U, 0x3d9a3bd2be40cac6U,
  0x3d86f4583dad834cU, 0x3d1a3bd23c9a3bd2U, 0xbd86f4583dad834cU, 0xbde759bbbe23df8fU,
  0x3dfaa1353e06f458U, 0x3d6759bbbe40cac6U, 0x3ce759bb3c1a3bd2U, 0x3d6759bbbd1a3bd2U,
  0xbdfaa135U, 0x3d1a3bd23ce759bbU, 0xbdfaa1353d9a3bd2U, 0x3de759bbbd86f458U,
  0xbdad834c3d1a3bd2U, 0x3de759bbbc9a3bd2U, 0xbe06f4583d6759bbU, 0xbdfaa135bdd41241U,
  0x3e2d834c3e2d834cU, 0x3ce759bbbe23df8fU, 0x3dad834cbe23df8fU, 0xbce759bbbdd41241U,
  0x3d6759bbbe109815U, 0xbc1a3bd23c9a3bd2U, 0x3dfaa135bdad834cU, 0xbd9a3bd23dd41241U,
  0xbdad834c3d86f458U, 0x3dfaa135bdd41241U, 0xbe40cac6bc9a3bd2U, 0x3e909815be1a3bd2U,
  0xbe2d834c3dc0cac6U, 0xbe1a3bd23c9a3bd2U, 0xbdc0cac6bd9a3bd2U, 0x3d9a3bd23e70fd78U,
  0xbd86f4583d86f458U, 0x3e23df8fbde759bbU, 0x3e5db5febd1a3bd2U, 0x3d9a3bd2bd86f458U,
  0xbe9f0db13dfaa135U, 0x3de759bbbd6759bbU, 0x3e7aa1353d9a3bd2U, 0x3e23df8fbe6759bbU,
  0x3ce759bb00000000U, 0xbdad834c3dc0cac6U, 0x3d9a3bd2be822279U, 0xbe06f458bdfaa135U,
  0xbe23df8f3d9a3bd2U, 0xbe822279bce759bbU, 0x3dd412413d1a3bd2U, 0xbe109815bd86f458U,
  0x3d6759bb3dad834cU, 0x3e372709bdfaa135U, 0xbe4a6e843d9a3bd2U, 0xbdc0cac63d6759bbU,
  0xbdd41241bdc0cac6U, 0x3e23df8fbd40cac6U, 0x3e2d834c3d40cac6U, 0x3de759bb3d1a3bd2U,
  0xbd1a3bd23d86f458U, 0xbd1a3bd2bc1a3bd2U, 0xbd40cac63d40cac6U, 0xbdad834cbc1a3bd2U,
  0xbd9a3bd23dfaa135U, 0xbe2d834c3c9a3bd2U, 0x3d1a3bd23d9a3bd2U, 0xbd40cac6bdd41241U,
  0x3ce759bb3d1a3bd2U, 0x3dc0cac63e1a3bd2U, 0x3de759bbbe109815U, 0xbdd412413d1a3bd2U,
  0x3ce759bb3d1a3bd2U, 0xbd86f458bdd41241U, 0xbd1a3bd23e40cac6U, 0x3d1a3bd2bd86f458U,
  0xbdad834c3d6759bbU, 0x3d1a3bd2bce759bbU, 0xbde759bb3e06f458U, 0x3d40cac6bc9a3bd2U,
  0x3dc0cac6bd1a3bd2U, 0xbe4a6e84bc9a3bd2U, 0xbd1a3bd23e6759bbU, 0xbd86f458bce759bbU,
  0xbd86f4583e40cac6U, 0x3e70fd78bd9a3bd2U, 0x3e1a3bd23de759bbU, 0xbd1a3bd23e40cac6U,
  0xbd1a3bd2bc9a3bd2U, 0x3d86f4583dfaa135U, 0x3d6759bbbdd41241U, 0x3ce759bbbd1a3bd2U,
  0xbe1098153e109815U, 0xbde759bbbe86f458U, 0x3d1a3bd2bd9a3bd2U, 0x3d1a3bd2bd6759bbU,
  0xbe5db5febce759bbU, 0xbde759bb3d1a3bd2U, 0x3c1a3bd2bc9a3bd2U, 0x3e1098153c9a3bd2U,
  0xbe7aa135bdc0cac6U, 0x3e6759bb3ce759bbU, 0x3e3727093c9a3bd2U, 0xbd1a3bd23d40cac6U,
  0xbe4a6e84bde759bbU, 0x3dfaa1353c9a3bd2U, 0x3e2d834c3d40cac6U, 0xbe541241bd9a3bd2U,
  0xbd40cac63d40cac6U, 0xbe3727093e5db5feU, 0x3d40cac6bdad834cU, 0x3e372709bd86f458U,
  0xbea3df8fbde759bbU, 0xbde759bb3d6759bbU, 0x3e109815bd9a3bd2U, 0x3d6759bbbc1a3bd2U,
  0xbc9a3bd2be9f0db1U, 0xbf32552b3c9a3bd2U, 0x3e1a3bd2bdfaa135U, 0x3ec59ca53ea8b16eU,
  0x3eca6e84be372709U, 0x3d40cac6befaa135U, 0xbf130104be40cac6U, 0x3e822279bde759bbU,
  0xbdad834cbe1a3bd2U, 0x3e1098153ce759bbU, 0x3dc0cac63e06f458U, 0x3e23df8fbdad834cU,
  0xbd9a3bd200000000U, 0xbd86f458bdc0cac6U, 0xbe40cac6bdfaa135U, 0xbe70fd78bdc0cac6U,
  0xbe06f458bc9a3bd2U, 0xbdc0cac6be70fd78U, 0xbd1a3bd2bdc0cac6U, 0x3e372709bce759bbU,
  0x3e7aa1353e40cac6U, 0x3d86f4583e9569f3U, 0xbc1a3bd23dfaa135U, 0x3e06f4583e86f458U,
  0xbd9a3bd23eb2552bU, 0x3e40cac63d40cac6U, 0xbce759bb3d40cac6U, 0x3dd412413e109815U,
  0x3e5412413e5db5feU, 0x3ea3df8fbde759bbU, 0x3f06f458bce759bbU, 0x3ebbf8e8bf022279U,
  0xbe541241bee287dcU, 0xbe06f458be2d834cU, 0xbd40cac63e9f0db1U, 0x3f2d834cbeb72709U,
  0xbe40cac6bd9a3bd2U, 0xbdfaa135bef0fd78U, 0x3dad834c3e4a6e84U, 0xbe06f458be9569f3U,
  0xbc9a3bd2be6759bbU, 0x3e4a6e843f99075aU, 0x3f1098153e06f458U, 0xbec59ca53d86f458U,
  0x3e9f0db1bc1a3bd2U, 0xbd9a3bd2be2d834cU, 0xbf06f4583e6759bbU, 0x3f2176a0bf048b68U,
  0x3eca6e843ed41241U, 0xbde759bbbd40cac6U, 0xbf0bc6363e9a3bd2U, 0xbdfaa135beddb5feU,
  0x3ecf4062be7aa135U, 0xbf109815be541241U, 0xbe7aa135bf022279U, 0xbe23df8f3efaa135U,
  0x3e109815bd1a3bd2U, 0x3f1569f3bec0cac6U, 0x3e109815bc9a3bd2U, 0xbce759bb3c9a3bd2U,
  0x3dd41241be70fd78U, 0x3f2176a03e40cac6U, 0xbf0222793e4a6e84U, 0x3d86f458be5db5feU,
  0x3c1a3bd2be70fd78U, 0x3e06f458bdc0cac6U, 0xbe109815bdc0cac6U, 0x3ec0cac63de759bbU,
  0x3d86f4583e822279U, 0xbd1a3bd2bd86f458U, 0xbe86f4583d86f458U, 0x3d86f45800000000U,
  0x3c9a3bd2bc9a3bd2U, 0x3d6759bbbd1a3bd2U, 0xbce759bbbd1a3bd2U, 0xbdc0cac63d6759bbU,
  0xbe1098153dfaa135U, 0x3dad834c3e109815U, 0xbde759bb3d9a3bd2U, 0x3dc0cac6bdd41241U,
  0xbe06f458bc1a3bd2U, 0xbdd412413c9a3bd2U, 0xbce759bb3d86f458U, 0x3dfaa135bc1a3bd2U,
  0x3d6759bb3ce759bbU, 0xbd86f458be109815U, 0x3dad834c3dd41241U, 0xbdad834cbc1a3bd2U,
  0xbdc0cac63dad834cU, 0xbdad834c3dc0cac6U, 0x3c9a3bd23c1a3bd2U, 0xbe06f4583d6759bbU,
  0x3dad834c3e06f458U, 0x3e4a6e84be06f458U, 0x3dad834cbd9a3bd2U, 0x3c9a3bd2bd86f458U,
  0xbe109815be9569f3U, 0x3c1a3bd23e23df8fU, 0xbe5db5fe3dad834cU, 0xbe9f0db13e06f458U,
  0xbc1a3bd23dfaa135U, 0xbe109815be1a3bd2U, 0x3d1a3bd23e9f0db1U, 0xbe6759bbbe23df8fU,
  0x3d40cac6bd86f458U, 0x3de759bb3e7aa135U, 0x3dad834cbd1a3bd2U, 0xbeb2552b3e70fd78U,
  0x3e23df8f3d86f458U, 0xbd40cac6bd40cac6U, 0x3d40cac63e40cac6U, 0x3d40cac6be4a6e84U,
  0x3e2d834c3e372709U, 0xbdad834cbce759bbU, 0xbd40cac63d6759bbU, 0x3c9a3bd23e822279U,
  0xbc1a3bd2be541241U, 0xbe06f458bd9a3bd2U, 0xbe9f0db13d1a3bd2U, 0xbd86f4583e40cac6U,
  0x3e70fd78be2d834cU, 0x3dfaa1353dfaa135U, 0xbc9a3bd23e9569f3U, 0xbde759bb3c9a3bd2U,
  0x3e8222793d6759bbU, 0x3e9569f33e5db5feU, 0xbe372709be40cac6U, 0xbe5412413dc0cac6U,
  0x3d1a3bd23dfaa135U, 0xbe23df8f3d6759bbU, 0x3e70fd783ee287dcU, 0xbed8e41f3de759bbU,
  0xbd86f458beb72709U, 0x3ed8e41fbe9f0db1U, 0xbd86f458bc1a3bd2U, 0x3dc0cac6bdc0cac6U,
  0xbd9a3bd2be822279U, 0x3c1a3bd23dad834cU, 0x3c9a3bd23e5db5feU, 0x3e8bc636be1a3bd2U,
  0x3de759bb3e541241U, 0x3d86f4583e5db5feU, 0xbe9f0db1be8bc636U, 0x3dc0cac63ce759bbU,
  0xbdd41241U, 0xbc1a3bd2bd86f458U, 0xbe5db5febc1a3bd2U, 0x3dc0cac63d9a3bd2U,
  0x3e2d834cbdc0cac6U, 0xbd40cac63e7aa135U, 0x3e2d834cbe541241U, 0xbdad834c3d6759bbU,
  0xbde759bb3e06f458U, 0x3e541241bde759bbU, 0x3e40cac6bdad834cU, 0xbc1a3bd23c1a3bd2U,
  0x3dd41241bd40cac6U, 0xbc1a3bd200000000U, 0x3e23df8f3e4a6e84U, 0x3e541241becf4062U,
  0xbe8222793ee287dcU, 0x3e6759bbbed8e41fU, 0x3f3bf8e83ea3df8fU, 0x3f40cac6bebbf8e8U,
  0x3c1a3bd2be4a6e84U, 0x3dd41241bdad834cU, 0x3ef0fd78bf2fec3cU, 0xbe23df8fbdad834cU,
  0x3d40cac6bd9a3bd2U, 0x3e5db5fe3ead834cU, 0x3e5db5fe3d40cac6U, 0x3ecf4062be7aa135U,
  0xbe70fd78be70fd78U, 0xbde759bb3de759bbU, 0xbe109815be6759bbU, 0x3ec59ca5bdc0cac6U,
  0xbe8bc6363ec0cac6U, 0x3e23df8f3e40cac6U, 0x3e06f4583de759bbU, 0x3dc0cac6bf601eedU,
  0xbe5db5fe3e70fd78U, 0xbe23df8f3dad834cU, 0x3dfaa135bf109815U, 0xbec59ca5bd6759bbU,
  0x3e23df8f3d9a3bd2U, 0x3dfaa135beb72709U, 0x3ea3df8fbf0bc636U, 0x3ea3df8f3d40cac6U,
  0xbe5db5febe2d834cU, 0xbe1a3bd23e23df8fU, 0xbe70fd783d86f458U, 0xbd40cac6bf1a3bd2U,
  0xbd86f458bdfaa135U, 0xbe6759bbbd9a3bd2U, 0xbe1a3bd2be06f458U, 0x3e70fd783dad834cU,
  0x3e5db5febc1a3bd2U, 0xbe23df8fbc1a3bd2U, 0xbce759bbU, 0x3c9a3bd23c9a3bd2U,
  0xbd86f4583d40cac6U, 0xbd6759bb3dd41241U, 0xbc9a3bd2bd40cac6U, 0x3d9a3bd23d6759bbU,
  0x3dad834cbdfaa135U, 0x3dc0cac6bdc0cac6U, 0x3d1a3bd23d40cac6U, 0x3de759bb3dad834cU,
  0xbdc0cac6bd1a3bd2U, 0x3dc0cac6be372709U, 0xbd1a3bd2bd1a3bd2U, 0xbd40cac63ce759bbU,
  0xbd40cac63d86f458U, 0x3dc0cac6bd86f458U, 0xbd6759bbbd40cac6U, 0xbc1a3bd23ce759bbU,
  0x3ce759bb3d40cac6U, 0xbce759bbbd86f458U, 0xbd1a3bd23e109815U, 0x3c9a3bd2bce759bbU,
  0xbc1a3bd2bce759bbU, 0xbd9a3bd23d86f458U, 0x3e70fd78be6759bbU, 0x3e3727093c1a3bd2U,
  0x3e1098153ce759bbU, 0xbe40cac63c9a3bd2U, 0x3e4a6e84U, 0xbe909815be372709U,
  0xbe70fd783d9a3bd2U, 0xbdd41241bd86f458U, 0x3dfaa1353c9a3bd2U, 0x3d40cac6bd86f458U,
  0x3de759bbbc9a3bd2U, 0x3d1a3bd23e9569f3U, 0x3dd412413c9a3bd2U, 0xbe70fd783e4a6e84U,
  0x3d86f4583d40cac6U, 0x3e4a6e84be1a3bd2U, 0xbdc0cac63dd41241U, 0xbdfaa135be06f458U,
  0x3dad834c3ce759bbU, 0xbc1a3bd23e06f458U, 0xbe372709bdad834cU, 0xbd1a3bd23c1a3bd2U,
  0x3e7aa135be1a3bd2U, 0xbde759bb3de759bbU, 0xbe822279bd9a3bd2U, 0xbd1a3bd23dc0cac6U,
  0x3e06f458U, 0xbd86f4583ce759bbU, 0x3d86f4583e23df8fU, 0xbe4a6e84bc1a3bd2U,
  0xbdc0cac6be6759bbU, 0x3e8bc6363e86f458U, 0xbde759bb3e7aa135U, 0xbdd41241bc9a3bd2U,
  0x3d6759bb3e40cac6U, 0x3ee287dcbe822279U, 0xbe8222793d86f458U, 0xbd86f458bdd41241U,
  0xbe6759bb3e6759bbU, 0x3d1a3bd23ee287dcU, 0x3ef0fd783c1a3bd2U, 0xbd9a3bd23c1a3bd2U,
  0xbdc0cac63e7aa135U, 0xbec0cac63d1a3bd2U, 0xbe541241bdfaa135U, 0xbe822279bd9a3bd2U,
  0x3d6759bbbea8b16eU, 0x3e6759bbbce759bbU, 0x3e9a3bd23e4a6e84U, 0xbc1a3bd23e4a6e84U,
  0x3e9a3bd23e541241U, 0x3e1098153e9f0db1U, 0xbc1a3bd23e7aa135U, 0xbe4a6e843ce759bbU,
  0xbde759bbbd9a3bd2U, 0x3d9a3bd2be6759bbU, 0xbe6759bbbe2d834cU, 0xbd1a3bd2be23df8fU,
  0x3c1a3bd2bead834cU, 0x3c1a3bd2be2d834cU, 0xbe06f458be6759bbU, 0xbce759bbbdc0cac6U,
  0xbe23df8fbe909815U, 0xbdfaa135bdc0cac6U, 0xbeca6e843d9a3bd2U, 0xbec0cac63f51a951U,
  0x3eb2552b3e9f0db1U, 0xbdd412413e2d834cU, 0xbe7aa135be5db5feU, 0xbf2fec3c3eec2b9aU,
  0x3d9a3bd23dfaa135U, 0x3e9098153f048b68U, 0xbe6759bbbc1a3bd2U, 0xbd9a3bd23e6759bbU,
  0x3dc0cac63eec2b9aU, 0xbe9a3bd2bf7d0a25U, 0xbed41241bd40cac6U, 0x3eddb5fe3d1a3bd2U,
  0xbe7aa1353e372709U, 0xbdfaa135be372709U, 0x3ee759bbbdad834cU, 0xbf2b1a5d3e9569f3U,
  0xbdfaa135bed41241U, 0x3e06f4583d40cac6U, 0x3e541241bdd41241U, 0x3d40cac63f2fec3cU,
  0xbecf406200000000U, 0x3ec0cac63eb72709U, 0xbd1a3bd23f1ca4c1U, 0x3e2d834cbead834cU,
  0xbdfaa1353dd41241U, 0xbea3df8f3eca6e84U, 0xbde759bb3d9a3bd2U, 0x3de759bbbde759bbU,
  0xbd9a3bd23ea3df8fU, 0xbe86f458bec0cac6U, 0x3e7aa135bd40cac6U, 0xbdd412413eb2552bU,
  0xbc1a3bd23c9a3bd2U, 0x3d1a3bd23e4a6e84U, 0x3d40cac6bc1a3bd2U, 0x3d6759bb3d6759bbU,
  0xbd9a3bd2be1a3bd2U, 0x3dad834c3d6759bbU, 0x3de759bb3c1a3bd2U, 0x3d40cac6bc9a3bd2U,
  0x3c9a3bd23d86f458U, 0x3ce759bb00000000U, 0x3d1a3bd2bc1a3bd2U, 0xbdfaa1353c1a3bd2U,
  0x3e06f4583d1a3bd2U, 0xbdad834cbdd41241U, 0x3d6759bb3e06f458U, 0xbd1a3bd2be109815U,
  0x3ce759bb3e109815U, 0xbdd41241bdc0cac6U, 0x3e06f4583ce759bbU, 0xbd6759bbbd40cac6U,
  0xbd1a3bd23d86f458U, 0xbd40cac63dad834cU, 0xbce759bbbd1a3bd2U, 0x3d6759bbbce759bbU,
  0x3c1a3bd23d40cac6U, 0x3d86f458be1a3bd2U, 0xbdc0cac63d40cac6U, 0x3c9a3bd23dd41241U,
  0xbdfaa1353c9a3bd2U, 0x3e40cac6bc9a3bd2U, 0xbd6759bbbe4a6e84U, 0xbdfaa1353dc0cac6U,
  0x3d6759bb3dfaa135U, 0xbc9a3bd2U, 0x3dc0cac63c9a3bd2U, 0x3d1a3bd2bd1a3bd2U,
  0x3dd412413e109815U, 0xbc1a3bd23e06f458U, 0x3d40cac63c1a3bd2U, 0x3d86f4583d9a3bd2U,
  0x3d1a3bd2be40cac6U, 0x3dad834c3e109815U, 0xbd40cac63de759bbU, 0x3d86f4583d1a3bd2U,
  0x3c9a3bd2bc9a3bd2U, 0x3dfaa135U, 0xbe06f4583dc0cac6U, 0xbdc0cac63e2d834cU,
  0xbd1a3bd2be109815U, 0x3d9a3bd23dc0cac6U, 0xbd9a3bd23d6759bbU, 0xbd40cac6bea3df8fU,
  0x3c1a3bd23d9a3bd2U, 0xbdd41241be23df8fU, 0x3d86f4583d86f458U, 0xbdc0cac6bc1a3bd2U,
  0xbd40cac6U, 0x3d9a3bd23d40cac6U, 0x3c1a3bd2bd1a3bd2U, 0x3de759bb3ce759bbU,
  0xbd6759bbbd40cac6U, 0xbce759bbbd6759bbU, 0x3c9a3bd23d40cac6U, 0x3d6759bbbd1a3bd2U,
  0x3d6759bb3de759bbU, 0xbd86f4583d86f458U, 0x3e3727093e909815U, 0xbd86f458bdad834cU,
  0x3dfaa135be2d834cU, 0x3dd41241be372709U, 0x3e1a3bd2U, 0xbd6759bbbce759bbU,
  0x3d86f458bce759bbU, 0x3dad834cbdd41241U, 0xbdad834c3e23df8fU, 0x3d1a3bd2be7aa135U,
  0xbd9a3bd23e909815U, 0x3d6759bbU, 0xbe06f458bd9a3bd2U, 0x3ce759bbbdd41241U,
  0xbe1098153d6759bbU, 0xbd40cac63c9a3bd2U, 0x3e23df8f3dad834cU, 0xbd86f4583e1a3bd2U,
  0xbdad834cbc9a3bd2U, 0xbce759bb3e2d834cU, 0x3d6759bbbdfaa135U, 0xbd6759bbbce759bbU,
  0x3ce759bb3dfaa135U, 0x3dad834cbdc0cac6U, 0x3d40cac600000000U, 0xbe109815bd9a3bd2U,
  0x3e70fd783d40cac6U, 0xbe109815bdad834cU, 0x3e9569f33d6759bbU, 0x3e23df8fbf0bc636U,
  0xbe4a6e843e1a3bd2U, 0xbc9a3bd2be7aa135U, 0x3e5412413e5db5feU, 0x3f109815be1a3bd2U,
  0xbdad834cbe1a3bd2U, 0xbdad834cbdd41241U, 0x3ea8b16ebead834cU, 0xbe70fd78be109815U,
  0x3e541241bd9a3bd2U, 0x3d6759bb3ee759bbU, 0x3e1a3bd23d86f458U, 0xbe40cac6U,
  0xbd1a3bd200000000U, 0xbd1a3bd23dad834cU, 0xbea8b16e3dc0cac6U, 0x3eec2b9abe70fd78U,
  0xbc1a3bd23e822279U, 0xbd9a3bd2U, 0xbd9a3bd23ec59ca5U, 0x3e541241beddb5feU,
  0x3d1a3bd23d40cac6U, 0x3de759bb3dad834cU, 0x3e8bc636bebbf8e8U, 0xbea3df8f3d40cac6U,
  0x3e70fd78bd6759bbU, 0x3ce759bbbe2d834cU, 0x3d40cac6bdc0cac6U, 0x3dc0cac6bd9a3bd2U,
  0xbd6759bb3d40cac6U, 0x3d6759bb3d1a3bd2U, 0xbd9a3bd2bd40cac6U, 0xbde759bbbe2d834cU,
  0xbc9a3bd23eb72709U, 0x3f2fec3cbe7aa135U, 0xbe1098153e1a3bd2U, 0xbe909815be109815U,
  0xbeb727093d86f458U, 0x3ce759bb3ecf4062U, 0x3eec2b9a3d6759bbU, 0x3d1a3bd23d6759bbU,
  0xbd1a3bd23dfaa135U, 0xbe1a3bd23de759bbU, 0xbde759bb3d40cac6U, 0x3dd41241bd6759bbU,
  0xbe23df8f3d40cac6U, 0xbce759bb3e23df8fU, 0x3dad834c3d86f458U, 0x3ea3df8f3e7aa135U,
  0x3d86f4583ea3df8fU, 0x3e2d834c3ead834cU, 0x3de759bb3dd41241U, 0xbe822279be109815U,
  0xbdc0cac6be541241U, 0xbe1a3bd2bdd41241U, 0xbe2d834cbe1a3bd2U, 0xbdc0cac63c1a3bd2U,
  0x3ce759bb3d9a3bd2U, 0xbd40cac6be1a3bd2U, 0xbdc0cac6be86f458U, 0x3c1a3bd2bd86f458U,
  0xbd1a3bd2be822279U, 0xbe40cac6bdd41241U, 0xbe8222793e23df8fU, 0xbe9098153ef0fd78U,
  0x3e5db5fe3e40cac6U, 0x3e4a6e8400000000U, 0xbdc0cac63c1a3bd2U, 0xbeddb5fe3ebbf8e8U,
  0x3e2d834c3e109815U, 0x3e5db5fe3e9a3bd2U, 0xbe2d834cbe7aa135U, 0xbdc0cac63e7aa135U,
  0x3e3727093e5db5feU, 0xbe9a3bd2bf8bc636U, 0xbef0fd78bd6759bbU, 0x3eca6e8400000000U,
  0xbe8222793e40cac6U, 0x3dd412413e23df8fU, 0x3e9f0db1bead834cU, 0xbe8222793ebbf8e8U,
  0xbeec2b9abef5cf57U, 0xbc9a3bd23dc0cac6U, 0x3eff7314be4a6e84U, 0x3d40cac63e9a3bd2U,
  0xbf048b683d6759bbU, 0x3eca6e843e23df8fU, 0x3e06f4583e86f458U, 0xbe86f458U,
  0xbeca6e843dd41241U, 0xbebbf8e83e40cac6U, 0xbe5db5febd40cac6U, 0x3e1a3bd2be9569f3U,
  0xbe4a6e843e9569f3U, 0xbf022279be909815U, 0x3ec59ca5be06f458U, 0x3dfaa1353e7aa135U,
  0x3dad834c3d9a3bd2U, 0x3d1a3bd200000000U, 0xbc9a3bd2bd40cac6U, 0xbe37270900000000U,
  0xbd6759bbbd6759bbU, 0xbd40cac63e40cac6U, 0x3d40cac6bdd41241U, 0x3dc0cac6be372709U,
  0x3e23df8f3e2d834cU, 0xbce759bb3c9a3bd2U, 0x3de759bbbe06f458U, 0x3c1a3bd2U,
  0x3d86f458bde759bbU, 0x3dd412413c9a3bd2U, 0x3e06f4583de759bbU, 0xbc1a3bd2bd1a3bd2U,
  0xbd9a3bd2bd86f458U, 0x3d1a3bd23c9a3bd2U, 0xbd40cac6be1a3bd2U, 0x3e1a3bd2bd40cac6U,
  0xbd40cac6bd86f458U, 0x3dfaa135bd9a3bd2U, 0xbc1a3bd2bc9a3bd2U, 0x3d40cac63ce759bbU,
  0x3d86f458bde759bbU, 0xbc9a3bd23c9a3bd2U, 0xbdad834c00000000U, 0xbd9a3bd23d86f458U,
  0xbd40cac63e372709U, 0x3d1a3bd2bd6759bbU, 0xbdad834c3dd41241U, 0xbe86f4583e1a3bd2U,
  0x3d1a3bd200000000U, 0xbdad834c3d86f458U, 0x3dc0cac6bce759bbU, 0x3d6759bb3e23df8fU,
  0xbc1a3bd2be23df8fU, 0x3d86f458bde759bbU, 0x3d6759bbU, 0xbc1a3bd23e109815U,
  0xbd9a3bd2bdc0cac6U, 0xbde759bbbe909815U, 0xbe5db5febdfaa135U, 0x3dd412413d9a3bd2U,
  0xbdc0cac6be06f458U, 0x3e5db5febd1a3bd2U, 0x3dd41241bc1a3bd2U, 0xbdd412413e109815U,
  0xbdd41241bdc0cac6U, 0xbdc0cac63de759bbU, 0x3dad834c3d40cac6U, 0x3ce759bb3e70fd78U,
  0xbd6759bb3dad834cU, 0x3dd412413e109815U, 0x3e6759bbbc1a3bd2U, 0x3de759bb00000000U,
  0xbe06f4583c1a3bd2U, 0xbe70fd783d86f458U, 0xbe2d834cU, 0xbce759bbbc9a3bd2U,
  0xbde759bb00000000U, 0xbdc0cac600000000U, 0x3e40cac6be372709U, 0x3d9a3bd23d1a3bd2U,
  0x3dfaa135be6759bbU, 0xbdad834cbdd41241U, 0x3e3727093d6759bbU, 0xbd1a3bd23e06f458U,
  0x3d1a3bd2be06f458U, 0x3c9a3bd2be909815U, 0xbdd412413c9a3bd2U, 0x3e06f4583e40cac6U,
  0xbe541241U, 0x3d40cac6bdc0cac6U, 0xbdc0cac63d6759bbU, 0x3d86f458bdd41241U,
  0xbde759bb3c9a3bd2U, 0xbd6759bb3d6759bbU, 0x3e06f4583ce759bbU, 0xbd40cac6bd86f458U,
  0x3e1a3bd23dad834cU, 0xbdd412413d6759bbU, 0xbdc0cac6bce759bbU, 0xbce759bbbc9a3bd2U,
  0xbd6759bb3e06f458U, 0xbe1098153d6759bbU, 0xbd40cac63dd41241U, 0xbe4a6e843e109815U,
  0x3d9a3bd23ce759bbU, 0xbce759bb3d1a3bd2U, 0x3e1a3bd2bdd41241U, 0xbc9a3bd23c1a3bd2U,
  0xbc9a3bd23d40cac6U, 0xbc1a3bd23de759bbU, 0x3e2d834cbe372709U, 0x3dd41241bde759bbU,
  0xbeb2552bbd6759bbU, 0xbc9a3bd2bce759bbU, 0x3e23df8f3e4a6e84U, 0x3e8bc6363ce759bbU,
  0x3c9a3bd2bdfaa135U, 0xbe1098153c9a3bd2U, 0x3c9a3bd23de759bbU, 0xbdad834c3c1a3bd2U,
  0x3e4a6e84be06f458U, 0x3e5db5fe3e822279U, 0x3e06f4583d40cac6U, 0xbc9a3bd2bd1a3bd2U,
  0x3de759bbbdad834cU, 0xbd40cac6bdfaa135U, 0xbe40cac63e1a3bd2U, 0x3c1a3bd2be86f458U,
  0x3e23df8f3eca6e84U, 0xbdd41241bc1a3bd2U, 0xbde759bbbe2d834cU, 0x3c1a3bd2be86f458U,
  0x3e2d834c3d1a3bd2U, 0xbe5412413dd41241U, 0xbdad834cbe822279U, 0xbe2d834c3e822279U,
  0x3e8222793dfaa135U, 0xbd6759bbU, 0xbd1a3bd23c1a3bd2U, 0xbc9a3bd23e1a3bd2U,
  0xbd1a3bd23dc0cac6U, 0x3e1a3bd23de759bbU, 0xbe541241bdd41241U, 0xbe6759bbbe70fd78U,
  0x3dfaa1353dd41241U, 0x3d86f4583d6759bbU, 0x3d40cac63dd41241U, 0xbe40cac6bd1a3bd2U,
  0x3c9a3bd23de759bbU, 0x3e3727093e109815U, 0x3e7aa1353d9a3bd2U, 0xbdc0cac63d9a3bd2U,
  0x3c1a3bd200000000U, 0xbd9a3bd2bd6759bbU, 0x3d6759bb3dc0cac6U, 0x3de759bbbe2d834cU,
  0x3d6759bbbdfaa135U, 0xbc9a3bd23e1a3bd2U, 0x3c1a3bd2be40cac6U, 0xbc9a3bd23d86f458U,
  0xbdc0cac6be109815U, 0x3c9a3bd23e109815U, 0x0U, 0xbdc0cac63e23df8fU,
  0x3c9a3bd23d9a3bd2U, 0xbde759bbbce759bbU, 0x3dd41241bce759bbU, 0xbe1098153e06f458U,
  0x3e1a3bd2bd86f458U, 0x3c9a3bd2bd9a3bd2U, 0x3dfaa135bdc0cac6U, 0xbd6759bb3ce759bbU,
  0x3e372709bd86f458U, 0xbdc0cac6bc1a3bd2U, 0x3d9a3bd23de759bbU, 0x3dc0cac6bdd41241U,
  0xbdc0cac63c9a3bd2U, 0x3c1a3bd2bd1a3bd2U, 0x3e06f4583e372709U, 0x3e06f458bd40cac6U,
  0x3e2d834c3ce759bbU, 0x3e23df8fbc9a3bd2U, 0x3de759bbbdfaa135U, 0xbdc0cac63d40cac6U,
  0xbe1a3bd23dd41241U, 0x3de759bbbdd41241U, 0xbdad834c3d86f458U, 0x3c9a3bd2be1a3bd2U,
  0xbe1098153e109815U, 0x3d9a3bd23c1a3bd2U, 0x3e6759bbbe23df8fU, 0x3e1a3bd23ce759bbU,
  0x3e1a3bd23e2d834cU, 0xbd86f458bc1a3bd2U, 0x3c9a3bd2bd40cac6U, 0x3ce759bbbe06f458U,
  0xbdfaa1353e1a3bd2U, 0x3e3727093e4a6e84U, 0x3ce759bbbdd41241U, 0xbdd41241bdc0cac6U,
  0x3d6759bbbd1a3bd2U, 0xbd9a3bd2be40cac6U, 0xbdfaa1353c9a3bd2U, 0x3dc0cac6bd1a3bd2U,
  0xbe40cac6be109815U, 0x3d9a3bd2be23df8fU, 0xbd40cac6be06f458U, 0x3dd412413c9a3bd2U,
  0xbc1a3bd2bdd41241U, 0x3dc0cac6bdad834cU, 0x3dfaa1353d86f458U, 0x3dfaa1353dfaa135U,
  0x3ce759bbbd86f458U, 0x3e8bc6363d9a3bd2U, 0xbdad834cbd9a3bd2U, 0xbe23df8fbde759bbU,
  0xbe06f458bd6759bbU, 0x3d1a3bd2bd1a3bd2U, 0xbde759bb3de759bbU, 0xbdd412413d1a3bd2U,
  0xbc9a3bd23e372709U, 0xbdfaa135bdc0cac6U, 0x3c9a3bd2bd1a3bd2U, 0x3dfaa1353dfaa135U,
  0xbc1a3bd2bdfaa135U, 0xbde759bb3e372709U, 0xbdd41241bd40cac6U, 0x3dc0cac63d9a3bd2U,
  0xbdd412413c1a3bd2U, 0xbd9a3bd23d86f458U, 0x3d1a3bd23d86f458U, 0x3dad834cbe1a3bd2U,
  0x3dc0cac600000000U, 0x3d86f458be1a3bd2U, 0xbd1a3bd23ce759bbU, 0x3d1a3bd23d40cac6U,
  0xbdfaa1353c1a3bd2U, 0x3dc0cac63d1a3bd2U, 0x3d1a3bd2U, 0xbd86f458bdfaa135U,
  0xbd1a3bd23d9a3bd2U, 0x3dfaa135bd1a3bd2U, 0x3dd412413d86f458U, 0x3e9569f33dc0cac6U,
  0xbdad834c3c1a3bd2U, 0xbe2d834c3d6759bbU, 0xbce759bbbc1a3bd2U, 0x3e109815bdad834cU,
  0x3d40cac63d9a3bd2U, 0x3dd41241bd6759bbU, 0x3d6759bb3d86f458U, 0x3ce759bbbdd41241U,
  0xbdad834cbe1a3bd2U, 0x3dad834cbdad834cU, 0xbe909815be2d834cU, 0x3dad834c00000000U,
  0xbd86f458bd6759bbU, 0xbe06f458bc1a3bd2U, 0x3d6759bb3e109815U, 0xbd1a3bd2be4a6e84U,
  0xbd6759bb3dd41241U, 0xbc1a3bd2be40cac6U, 0x3e372709be109815U, 0x3d40cac6bd86f458U,
  0x3ce759bb3ce759bbU, 0xbc1a3bd2be541241U, 0x3d86f458U, 0xbc1a3bd23d1a3bd2U,
  0xbe109815bd86f458U, 0x3dfaa135bd40cac6U, 0x3d40cac6U, 0x3e1a3bd2bde759bbU,
  0x3de759bb3dad834cU, 0xbd40cac6bdc0cac6U, 0x3e3727093ed41241U, 0xbe23df8fbdad834cU,
  0x3c9a3bd2be7aa135U, 0x3ea3df8fbdc0cac6U, 0xbe4a6e84be23df8fU, 0xbce759bb3c1a3bd2U,
  0xbce759bbbe2d834cU, 0x3e1a3bd2bd40cac6U, 0xbe40cac63d40cac6U, 0x3e9569f3be1a3bd2U,
  0x3e86f4583e40cac6U, 0xbdad834c3ce759bbU, 0xbe7aa135be5db5feU, 0x3d86f458be109815U,
  0xbd6759bb3c1a3bd2U, 0x3e1a3bd23c9a3bd2U, 0xbe372709be109815U, 0xbc9a3bd23dc0cac6U,
  0x3d9a3bd23e06f458U, 0xbdad834c3e822279U, 0xbdfaa135be541241U, 0x3d1a3bd23e4a6e84U,
  0xbd40cac63e06f458U, 0x3d40cac6be5db5feU, 0xbd6759bb3e06f458U, 0x3ce759bb3e06f458U,
  0x3d40cac6be70fd78U, 0xbdfaa1353e6759bbU, 0x3e06f4583dd41241U, 0x3dfaa135bf2176a0U,
  0xbd86f4583e5db5feU, 0xbc9a3bd2beff7314U, 0x3f048b683e109815U, 0x3f2fec3cbe8bc636U,
  0xbd40cac6bce759bbU, 0xbe06f458be06f458U, 0x3eb72709beff7314U, 0xbce759bb3d9a3bd2U,
  0x3e23df8fbe4a6e84U, 0x3e6759bb3dad834cU, 0x3dfaa1353d86f458U, 0x3e9569f3bee759bbU,
  0xbe372709bdd41241U, 0x3d9a3bd23e9a3bd2U, 0xbe23df8f3ce759bbU, 0x3e8bc636be541241U,
  0xbe1a3bd23ee287dcU, 0xbdad834c3dd41241U, 0x3e06f458bce759bbU, 0x3e1a3bd2bf0e2f26U,
  0xbdad834c3e2d834cU, 0xbce759bb3e372709U, 0x3e1a3bd2bf2b1a5dU, 0xbf0222793e1a3bd2U,
  0x3ce759bb00000000U, 0xbea8b16eU, 0x3d6759bbbf0bc636U, 0x3dc0cac6bde759bbU,
  0xbe23df8fbdc0cac6U, 0x3d9a3bd23d6759bbU, 0xbe9569f33ce759bbU, 0x3e70fd78bead834cU,
  0xbd6759bbbce759bbU, 0x3dad834cbdad834cU, 0x3d40cac6bd1a3bd2U, 0x3d86f4583dad834cU,
  0xbe541241bd9a3bd2U, 0xbc1a3bd23d86f458U, 0xbd9a3bd23dd41241U, 0xbc9a3bd2U,
  0xbc9a3bd23e70fd78U, 0xbe06f458bce759bbU, 0x3c9a3bd23c1a3bd2U, 0x3d6759bbbdc0cac6U,
  0xbd40cac6bdfaa135U, 0x3d40cac6bd6759bbU, 0xbd6759bbbdfaa135U, 0x3dfaa1353e1a3bd2U,
  0xbdad834cbdd41241U, 0x3d9a3bd2bdfaa135U, 0xbd6759bbbe2d834cU, 0xbd1a3bd23c1a3bd2U,
  0xbd9a3bd2bdc0cac6U, 0x3d1a3bd23c1a3bd2U, 0x3dc0cac6bc1a3bd2U, 0x3dad834cbe2d834cU,
  0x3e23df8f3ce759bbU, 0x3ce759bbbdc0cac6U, 0xbe372709bc1a3bd2U, 0x3e23df8f3c9a3bd2U,
  0xbd6759bbbe06f458U, 0x3e1a3bd2bd9a3bd2U, 0xbe06f4583ce759bbU, 0xbd1a3bd2bc9a3bd2U,
  0xbdad834cbd6759bbU, 0x3dad834c3d86f458U, 0xbdc0cac6be1a3bd2U, 0xbe1098153e23df8fU,
  0x3d86f4583d1a3bd2U, 0xbd6759bb3dc0cac6U, 0xbe40cac63e5db5feU, 0xbce759bbbe06f458U,
  0xbdad834cU, 0xbc1a3bd2bd40cac6U, 0x3d9a3bd23d9a3bd2U, 0xbdad834c3e2d834cU,
  0x3d86f458be06f458U, 0x3c1a3bd2bd6759bbU, 0x3e1a3bd2bd40cac6U, 0xbd6759bbbd40cac6U,
  0xbd40cac6bdfaa135U, 0xbd86f458be40cac6U, 0xbde759bb3dd41241U, 0x3dad834c3e7aa135U,
  0x3c1a3bd2bde759bbU, 0x3e40cac6bce759bbU, 0xbe9a3bd200000000U, 0x3e2d834c3d9a3bd2U,
  0x3d6759bbU, 0x3de759bb3ce759bbU, 0xbd1a3bd2bd1a3bd2U, 0xbc1a3bd23dad834cU,
  0x3c9a3bd200000000U, 0x3dd41241bc9a3bd2U, 0xbd40cac63d40cac6U, 0xbc1a3bd23e4a6e84U,
  0x3d1a3bd23dad834cU, 0xbe06f458bd9a3bd2U, 0x3dfaa1353c9a3bd2U, 0xbdad834c3d40cac6U,
  0xbd6759bbbdad834cU, 0x3d6759bbbd86f458U, 0xbdd412413d6759bbU, 0x3ce759bbbd40cac6U,
  0xbe40cac6bd86f458U, 0xbd1a3bd200000000U, 0xbdd412413e4a6e84U, 0x3dd41241be23df8fU,
  0x3e109815bdd41241U, 0xbce759bb3e06f458U, 0xbdc0cac63d40cac6U, 0xbe06f45800000000U,
  0xbd86f458be1a3bd2U, 0xbdad834c3d86f458U, 0x3e5db5fe3dad834cU, 0xbce759bb3dad834cU,
  0xbdc0cac600000000U, 0x3d1a3bd2bc1a3bd2U, 0x3d86f458bc9a3bd2U, 0x3c1a3bd2bdd41241U,
  0xbd6759bb3de759bbU, 0xbd40cac63c9a3bd2U, 0xbd40cac63e109815U, 0x3dfaa13500000000U,
  0xbe40cac6U, 0x3e06f45800000000U, 0x3ce759bbbd6759bbU, 0x3e06f458be9569f3U,
  0xbea3df8f3e7aa135U, 0x3d86f458be40cac6U, 0x3ce759bb3c1a3bd2U, 0x3e8bc6363d40cac6U,
  0xbe40cac6be5db5feU, 0xbe4a6e84bdc0cac6U, 0x3ce759bbbe06f458U, 0x3d86f4583dc0cac6U,
  0x3dfaa135bc9a3bd2U, 0xbdad834c3e40cac6U, 0x3ce759bbbdad834cU, 0x3c9a3bd23c9a3bd2U,
  0xbd1a3bd2bdc0cac6U, 0x3c9a3bd23e06f458U, 0xbe4a6e843de759bbU, 0xbdad834cU,
  0x3d6759bb3dd41241U, 0xbd86f4583d86f458U, 0x3c9a3bd23e06f458U, 0x3d6759bbbef5cf57U,
  0xbdad834c3e40cac6U, 0xbd1a3bd200000000U, 0x3c9a3bd2bed8e41fU, 0xbdd412413e1a3bd2U,
  0x3e86f458bdad834cU, 0x3ebbf8e83ce759bbU, 0x3e2d834cbd40cac6U, 0x3de759bbbce759bbU,
  0xbe6759bbbdad834cU, 0xbdad834c3e1a3bd2U, 0xbc9a3bd2bce759bbU, 0xbe372709bc9a3bd2U,
  0xbd86f4583e4a6e84U, 0x3dfaa1353e40cac6U, 0xbc1a3bd2U, 0xbe1a3bd23dc0cac6U,
  0x3d86f458U, 0x3dd412413dad834cU, 0xbd86f4583e822279U, 0x3e2d834c3e06f458U,
  0xbd40cac63e6759bbU, 0xbd6759bbbc1a3bd2U, 0xbd9a3bd23e109815U, 0x3d40cac6bd86f458U,
  0xbc9a3bd23d1a3bd2U, 0x3de759bbbdfaa135U, 0x3e109815bdfaa135U, 0x3c1a3bd2be1a3bd2U,
  0x3c9a3bd2bce759bbU, 0x3d6759bb3e2d834cU, 0xbd6759bbbd9a3bd2U, 0xbdad834c3dd41241U,
  0x3dc0cac6bdad834cU, 0xbd40cac63dad834cU, 0xbd1a3bd2U, 0x3d9a3bd2bd9a3bd2U,
  0x3c9a3bd23d1a3bd2U, 0xbce759bbbde759bbU, 0x3ce759bb3ce759bbU, 0xbc9a3bd2bd1a3bd2U,
  0x3dc0cac63d86f458U, 0xbd9a3bd2bd9a3bd2U, 0xbdd412413dfaa135U, 0xbdd412413e6759bbU,
  0x3e3727093d9a3bd2U, 0x3e109815be909815U, 0x3d86f4583c1a3bd2U, 0xbd40cac63d6759bbU,
  0xbc9a3bd2bce759bbU, 0x3d1a3bd23d40cac6U, 0x3c1a3bd23c1a3bd2U, 0xbe1a3bd2bce759bbU,
  0xbdd41241bdad834cU, 0xbde759bb3d40cac6U, 0xbde759bbU, 0x3dc0cac6bd86f458U,
  0x3c1a3bd2bd40cac6U, 0x3d86f458bce759bbU, 0x3e23df8fbe06f458U, 0x3d86f4583d1a3bd2U,
  0xbc1a3bd200000000U, 0xbdd41241bd1a3bd2U, 0x3c1a3bd23c1a3bd2U, 0x3d86f4583d6759bbU,
  0x3c9a3bd2bd40cac6U, 0x3e109815bd40cac6U, 0x3e2d834cbe23df8fU, 0xbd86f4583d40cac6U,
  0xbdd41241be109815U, 0xbe1a3bd23de759bbU, 0xbd40cac6bde759bbU, 0x3d1a3bd23dc0cac6U,
  0xbe1a3bd23d9a3bd2U, 0xbdc0cac63d40cac6U, 0x3c9a3bd23ce759bbU, 0x3de759bbbdd41241U,
  0x3ce759bbbd40cac6U, 0x3c1a3bd2bc1a3bd2U, 0xbdd412413e23df8fU, 0xbecf40623d40cac6U,
  0x3c9a3bd2be372709U, 0x3dc0cac6bd9a3bd2U, 0xbd40cac63c1a3bd2U, 0xbe109815be23df8fU,
  0x3d40cac6be1a3bd2U, 0x3c9a3bd2be2d834cU, 0x3e40cac6U, 0x3d86f458be23df8fU,
  0x3e372709be06f458U, 0xbd86f4583e23df8fU, 0xbdd41241be541241U, 0xbe109815bd86f458U,
  0x3e23df8f3d9a3bd2U, 0xbe6759bb3c9a3bd2U, 0x3e3727093ce759bbU, 0xbd86f4583e2d834cU,
  0x3c9a3bd23d1a3bd2U, 0xbce759bbbc1a3bd2U, 0xbd6759bb3d86f458U, 0xbe06f4583dc0cac6U,
  0xbd86f45800000000U, 0x3d40cac63d9a3bd2U, 0xbe3727093dfaa135U, 0x3d40cac6U,
  0xbdfaa1353d86f458U, 0x3d40cac63ce759bbU, 0xbdd412413dfaa135U, 0x3e2d834cbe109815U,
  0x3dc0cac63e70fd78U, 0xbdfaa135bdad834cU, 0x3e8222793e70fd78U, 0x3e9569f33e4a6e84U,
  0x3dfaa135bdfaa135U, 0x3ce759bbbce759bbU, 0xbd40cac6bc9a3bd2U, 0x3e86f458U,
  0x3e1a3bd2bc1a3bd2U, 0x3c1a3bd23d1a3bd2U, 0x3c1a3bd23dad834cU, 0x3e23df8fbdfaa135U,
  0xbe1a3bd2be109815U, 0xbe5412413dad834cU, 0x3d1a3bd2be2d834cU, 0x3d9a3bd2be2d834cU,
  0xbe06f4583e23df8fU, 0xbc9a3bd2bdd41241U, 0xbc9a3bd23c9a3bd2U, 0x3d40cac6be8bc636U,
  0xbea8b16ebdad834cU, 0x3d9a3bd2bd86f458U, 0xbc1a3bd2be40cac6U, 0xbe1a3bd2bdd41241U,
  0x3dfaa135bce759bbU, 0xbde759bbbe4a6e84U, 0x3d6759bbbd9a3bd2U, 0xbc1a3bd23d6759bbU,
  0xbd6759bbbdc0cac6U, 0xbe1a3bd2bdad834cU, 0xbdc0cac63c1a3bd2U, 0x0U,
  0x3dad834c3d40cac6U, 0xbe1098153e4a6e84U, 0xbd40cac63c9a3bd2U, 0xbe86f458be06f458U,
  0xbe23df8fbd86f458U, 0x3ec59ca5bd9a3bd2U, 0x3de759bb3d40cac6U, 0xbc1a3bd23ce759bbU,
  0xbd9a3bd2bde759bbU, 0x3c1a3bd23d40cac6U, 0xbde759bb3d9a3bd2U, 0x3c1a3bd23d6759bbU,
  0xbe1098153d86f458U, 0x3de759bb3dfaa135U, 0xbe1a3bd23dfaa135U, 0xbe2d834c3e109815U,
  0xbdc0cac63dad834cU, 0x3c1a3bd2bdc0cac6U, 0xbe4a6e843d40cac6U, 0x3e40cac63c9a3bd2U,
  0x3e06f458be23df8fU, 0xbe10981500000000U, 0xbdc0cac63dfaa135U, 0xbd9a3bd23d1a3bd2U,
  0xbdad834c3e40cac6U, 0x3dc0cac6be2d834cU, 0x3dad834cU, 0x3de759bbbe1a3bd2U,
  0xbd1a3bd2bd1a3bd2U, 0xbd6759bb3de759bbU, 0xbd6759bb3dc0cac6U, 0x3c9a3bd23e2d834cU,
  0x3dad834c3e5db5feU, 0xbd1a3bd2be7aa135U, 0x3de759bb3e2d834cU, 0x3e06f458U,
  0x3d86f458bce759bbU, 0x3d40cac6bce759bbU, 0xbdd412413d1a3bd2U, 0xbe06f4583dc0cac6U,
  0x3dad834c3dad834cU, 0xbdd41241be1a3bd2U, 0xbde759bb3de759bbU, 0x3eb2552bbe2d834cU,
  0xbe9569f3bd86f458U, 0xbd86f4583e06f458U, 0x3d1a3bd2bdad834cU, 0x3dd41241bd9a3bd2U,
  0xbd1a3bd200000000U, 0xbd86f4583d86f458U, 0x3d9a3bd2bd6759bbU, 0xbce759bbbe109815U,
  0xbce759bb3e4a6e84U, 0x3e9569f3bdad834cU, 0x3e9569f33d40cac6U, 0xbe1a3bd23dfaa135U,
  0xbe5db5febe06f458U, 0x3c9a3bd2be6759bbU, 0xbe109815bde759bbU, 0x3d86f4583e06f458U,
  0xbdc0cac63c9a3bd2U, 0xbe372709bc9a3bd2U, 0xbd9a3bd23de759bbU, 0x3dd41241be8bc636U,
  0xbe109815bee287dcU, 0xbf1f0db13e1a3bd2U, 0x3e23df8fbe9a3bd2U, 0x3f1569f33d6759bbU,
  0x3e9098153dfaa135U, 0xbf130104bec59ca5U, 0xbf1ca4c1be06f458U, 0x3dc0cac63e372709U,
  0x3ce759bbbe23df8fU, 0xbd40cac6be6759bbU, 0xbce759bbbe541241U, 0xbd86f458bdad834cU,
  0xbd9a3bd2bd9a3bd2U, 0x3e06f458be1a3bd2U, 0x3dd412413c1a3bd2U, 0x3dad834c3e06f458U,
  0xbd86f458bdfaa135U, 0x3d6759bbbc9a3bd2U, 0x3d9a3bd2bd86f458U, 0x3c9a3bd200000000U,
  0x3d86f458bc1a3bd2U, 0x3c9a3bd23d86f458U, 0x3e2d834c3e109815U, 0xbce759bbU,
  0x3e372709bce759bbU, 0xbd6759bb3dfaa135U, 0xbde759bb3e1a3bd2U, 0xbc1a3bd23e06f458U,
  0xbd40cac63e1a3bd2U, 0x3ebbf8e83c1a3bd2U, 0x3e909815be8bc636U, 0x3ecf4062bebbf8e8U,
  0xbe9a3bd2bf1a3bd2U, 0xbe9098153f06f458U, 0xbf26487ebe541241U, 0x3d1a3bd2be541241U,
  0x3ce759bb3d6759bbU, 0xbebbf8e8bebbf8e8U, 0xbe40cac63f6c2b9aU, 0xbd40cac6beddb5feU,
  0xbe86f458be822279U, 0x3e1a3bd23f736667U, 0x3f0222793dd41241U, 0xbf4333b63eb2552bU,
  0x3f32552bbd40cac6U, 0x3de759bbbe5db5feU, 0xbe8222793e909815U, 0x3dd41241becf4062U,
  0x3eec2b9a3d9a3bd2U, 0xbce759bb3c9a3bd2U, 0xbf2176a03e23df8fU, 0xbe1098153d1a3bd2U,
  0x3f06f458be9f0db1U, 0xbec59ca5befaa135U, 0xbeec2b9a3dc0cac6U, 0x3eca6e843eff7314U,
  0x3d40cac6be6759bbU, 0x3f1098153c1a3bd2U, 0xbdc0cac63f130104U, 0xbe86f4583e9569f3U,
  0x3e9f0db1bd86f458U, 0x3f23df8f3eb2552bU, 0xbe8222793d6759bbU, 0xbd40cac6bc9a3bd2U,
  0xbd40cac6bd1a3bd2U, 0xbea8b16ebce759bbU, 0x3dc0cac6be372709U, 0x3dad834c3d86f458U,
  0x3d9a3bd2be70fd78U, 0xbe4a6e84be9569f3U, 0xbe822279bc9a3bd2U, 0xbdc0cac6bd40cac6U,
  0xbd1a3bd23c1a3bd2U, 0x3e4a6e84be1a3bd2U, 0x3d9a3bd2bd40cac6U, 0xbdad834cbe06f458U,
  0x3dc0cac63de759bbU, 0xbc1a3bd2bce759bbU, 0x3d6759bb3d86f458U, 0xbdad834c3d1a3bd2U,
  0xbce759bb3d1a3bd2U, 0xbdc0cac6bdfaa135U, 0xbce759bb3e109815U, 0x3e23df8fbd86f458U,
  0x3dc0cac6be1a3bd2U, 0xbdd412413d9a3bd2U, 0x3d86f458bdd41241U, 0xbde759bb3e06f458U,
  0x3d86f4583c1a3bd2U, 0x3e40cac6be2d834cU, 0xbc1a3bd2bd9a3bd2U, 0xbe06f4583d40cac6U,
  0x3dad834c3d9a3bd2U, 0xbd40cac6bd9a3bd2U, 0x3dfaa135bc1a3bd2U, 0x3e6759bbbe2d834cU,
  0xbe541241be1a3bd2U, 0xbdfaa135bd86f458U, 0xbe06f4583d9a3bd2U, 0xbd6759bb00000000U,
  0x3d6759bbbd1a3bd2U, 0xbe70fd78bd1a3bd2U, 0xbdad834c3e9a3bd2U, 0xbd40cac6bdc0cac6U,
  0x3e23df8fbd1a3bd2U, 0x3e1a3bd23ea3df8fU, 0xbce759bbbce759bbU, 0xbd6759bb3dad834cU,
  0x3e2d834cbe372709U, 0x3d86f4583e06f458U, 0xbe5412413dad834cU, 0xbc1a3bd2bc9a3bd2U,
  0x3e2d834c3e86f458U, 0xbdd412413d6759bbU, 0xbe5412413dd41241U, 0x3dfaa135be1a3bd2U,
  0x3e8bc6363c1a3bd2U, 0xbd40cac6be70fd78U, 0xbe541241be822279U, 0x3e23df8fU,
  0x3c9a3bd23d40cac6U, 0x3e822279be06f458U, 0x3e5412413e1a3bd2U, 0x3d86f4583e109815U,
  0xbd6759bb3d40cac6U, 0x3eb2552b3dc0cac6U, 0xbde759bbbdd41241U, 0xbe40cac6be2d834cU,
  0xbd86f458bc9a3bd2U, 0xbdc0cac6be541241U, 0x3e06f458be70fd78U, 0x3e70fd783d6759bbU,
  0x3e541241bd40cac6U, 0xbd9a3bd2be40cac6U, 0xbe2d834cbe2d834cU, 0x3e541241bc9a3bd2U,
  0xbe06f458U, 0x3ce759bb3d86f458U, 0xbd86f458bd86f458U, 0xbdc0cac63e7aa135U,
  0xbce759bbbde759bbU, 0x3dc0cac63dad834cU, 0xbdd412413e06f458U, 0x3ce759bbbdfaa135U,
  0xbd1a3bd23e1a3bd2U, 0xbe1a3bd2bc1a3bd2U, 0xbd86f458bd1a3bd2U, 0xbc1a3bd23dc0cac6U,
  0x3dc0cac6bc9a3bd2U, 0xbdfaa135bd1a3bd2U, 0xbc1a3bd23dd41241U, 0x3d86f4583ce759bbU,
  0x3c1a3bd2be372709U, 0xbde759bb3e40cac6U, 0x3d1a3bd2bc1a3bd2U, 0xbc9a3bd2bc9a3bd2U,
  0x3e06f458bdd41241U, 0x3e2d834cbe40cac6U, 0x3e70fd78be372709U, 0x3e9a3bd23ce759bbU,
  0x3d1a3bd2bf0e2f26U, 0xbe5db5fe3eb72709U, 0xbf109815bd86f458U, 0xbe9a3bd2be23df8fU,
  0x3dd412413e109815U, 0xbc9a3bd2be06f458U, 0xbc1a3bd23f130104U, 0xbc9a3bd2be7aa135U,
  0x3d6759bbbd40cac6U, 0xbc1a3bd23e9a3bd2U, 0xbc9a3bd2be06f458U, 0xbec59ca53e40cac6U,
  0x3f0222793e06f458U, 0xbc1a3bd2bde759bbU, 0x3d86f4583dc0cac6U, 0xbde759bbbe70fd78U,
  0x3e86f458bc1a3bd2U, 0xbd1a3bd2bdad834cU, 0xbe109815bd86f458U, 0xbd40cac63e7aa135U,
  0x3e1a3bd2be5db5feU, 0xbec59ca53c1a3bd2U, 0xbdd41241bd6759bbU, 0x3e2d834c3e541241U,
  0x3e40cac63dad834cU, 0x3e86f4583d1a3bd2U, 0xbc9a3bd23e9f0db1U, 0xbe8bc6363e70fd78U,
  0x3e6759bbbe109815U, 0x3e86f4583e909815U, 0xbdfaa1353d40cac6U, 0xbc1a3bd23e23df8fU,
  0xbe86f458bec0cac6U, 0xbf109815bc9a3bd2U, 0x3dd41241be9a3bd2U, 0x3f23df8f3ea3df8fU,
  0x3eb2552bbd6759bbU, 0xbe6759bbbec0cac6U, 0xbf459ca5bdc0cac6U, 0x3c1a3bd2bd40cac6U,
  0x3c9a3bd2be1a3bd2U, 0xbce759bbbd86f458U, 0xbde759bb3c9a3bd2U, 0x3ce759bbbc1a3bd2U,
  0x3d6759bbbe23df8fU, 0x3d40cac63d9a3bd2U, 0xbd1a3bd2bd6759bbU, 0xbe40cac63c1a3bd2U,
  0xbe372709be06f458U, 0xbd86f458be1a3bd2U, 0xbe372709be2d834cU, 0x3e9a3bd23ce759bbU,
  0xbce759bb3dad834cU, 0x3e5412413e372709U, 0x3e5412413dfaa135U, 0x3d1a3bd23e06f458U,
  0x3e7aa1353e9a3bd2U, 0x3e8222793d6759bbU, 0x3d1a3bd23e40cac6U, 0x3dfaa1353ea3df8fU,
  0x3e3727093e40cac6U, 0x3ed412413c9a3bd2U, 0x3f022279be7aa135U, 0x3efaa135beca6e84U,
  0xbf048b68bf23df8fU, 0xbe06f4583e23df8fU, 0xbe23df8fbd40cac6U, 0x3d86f458bed8e41fU,
  0xbe5412413e86f458U, 0xbed41241be8bc636U, 0x3e23df8f3f4333b6U, 0xbd40cac6beca6e84U,
  0xbec59ca5U, 0x3dd412413f97d2e3U, 0x3ed8e41fbd1a3bd2U, 0xbf34be1a3e23df8fU,
  0x3f3e61d7be372709U, 0xbce759bbbe40cac6U, 0xbec0cac63ee287dcU, 0x3ee759bbbed8e41fU,
  0x3f06f4583efaa135U, 0xbe70fd78be06f458U, 0xbeff73143e2d834cU, 0x3c9a3bd2be06f458U,
  0x3f541241be70fd78U, 0xbf130104be822279U, 0xbea8b16ebeb72709U, 0x3c9a3bd23f26487eU,
  0x3eb2552bbde759bbU, 0x3f095d47be372709U, 0x3dfaa1353e8bc636U, 0xbe9569f33ea3df8fU,
  0x3f1569f3be6759bbU, 0x3f26487e3e9a3bd2U, 0xbead834c3d6759bbU, 0xbe2d834c3de759bbU,
  0x3de759bbU, 0x3dfaa135be06f458U, 0xbe23df8fbc1a3bd2U, 0x3d6759bbbe7aa135U,
  0xbd6759bb3de759bbU, 0xbdd41241bc9a3bd2U, 0xbc1a3bd23d86f458U, 0xbce759bb3dad834cU,
  0x3dc0cac63e5db5feU, 0xbde759bbbc1a3bd2U, 0x3c1a3bd2U, 0xbd6759bb3dfaa135U,
  0x3e06f458bd9a3bd2U, 0x3d6759bbbdd41241U, 0x3e1a3bd23e109815U, 0x3d40cac63d1a3bd2U,
  0xbd40cac6bd1a3bd2U, 0xbe2d834cbe23df8fU, 0xbdc0cac63de759bbU, 0x3d86f4583d40cac6U,
  0xbe06f458bdd41241U, 0x3c1a3bd23e06f458U, 0xbdc0cac63dd41241U, 0xbdfaa1353dc0cac6U,
  0x3dc0cac6bd86f458U, 0xbc9a3bd23e06f458U, 0xbd86f458bd6759bbU, 0xbc1a3bd2bc1a3bd2U,
  0xbe23df8f3e06f458U, 0xbce759bbbce759bbU, 0xbde759bb3dd41241U, 0xbe06f4583e822279U,
  0x3e109815bd86f458U, 0x3c9a3bd23e2d834cU, 0xbe541241bdd41241U, 0xbdc0cac6bd6759bbU,
  0xbd40cac63d86f458U, 0x3d40cac63d9a3bd2U, 0xbdad834c3c9a3bd2U, 0xbdad834c3d86f458U,
  0x3d9a3bd23e1a3bd2U, 0xbe1a3bd2be7aa135U, 0xbd6759bb3e23df8fU, 0x3dad834c3dfaa135U,
  0x3dad834c3dad834cU, 0x3c9a3bd23c9a3bd2U, 0x3e1098153de759bbU, 0xbe2d834cbd9a3bd2U,
  0xbd6759bbbdfaa135U, 0xbdfaa1353d40cac6U, 0x3e1a3bd2bdd41241U, 0xbce759bb3dad834cU,
  0x3d9a3bd23e5db5feU, 0x3e1a3bd23ce759bbU, 0xbe06f4583ec0cac6U, 0x3d1a3bd2bdfaa135U,
  0x3de759bb3d86f458U, 0xbe2d834cbde759bbU, 0xbce759bb3dd41241U, 0xbdc0cac63dd41241U,
  0x3d6759bbbd40cac6U, 0xbd9a3bd23d1a3bd2U, 0xbd86f458bce759bbU, 0xbe23df8f3e2d834cU,
  0xbdd41241U, 0xbdd412413e109815U, 0x3e6759bbbd9a3bd2U, 0x3e4a6e843d86f458U,
  0x3e1098153d40cac6U, 0xbd86f458be6759bbU, 0x3dfaa135bdad834cU, 0x3dc0cac63dc0cac6U,
  0x3d6759bbU, 0xbc1a3bd23d86f458U, 0x3d6759bbbd9a3bd2U, 0xbd86f4583d9a3bd2U,
  0x3de759bbbd86f458U, 0xbd1a3bd2bdd41241U, 0xbd1a3bd23c1a3bd2U, 0x3d86f458bd40cac6U,
  0x3e06f4583e06f458U, 0xbc9a3bd2U, 0xbe2d834c3d6759bbU, 0xbd1a3bd2U,
  0xbdad834cbd86f458U, 0x3ce759bb3e6759bbU, 0xbe2d834cbc1a3bd2U, 0x3e1a3bd23ce759bbU,
  0x3c9a3bd2bdd41241U, 0x3c1a3bd2bd86f458U, 0x3e1a3bd2bd1a3bd2U, 0xbdfaa135bdad834cU,
  0xbdad834c3e372709U, 0x3d6759bbbdc0cac6U, 0xbc9a3bd23c1a3bd2U, 0xbce759bb3ce759bbU,
  0xbd9a3bd2bd6759bbU, 0x3d40cac63dd41241U, 0xbe86f458be23df8fU, 0xbe40cac6bc9a3bd2U,
  0xbe8222793d9a3bd2U, 0xbce759bbbdd41241U, 0x3dfaa135bc1a3bd2U, 0x3e06f458bea8b16eU,
  0x3e06f4583de759bbU, 0xbd9a3bd23e6759bbU, 0xbd6759bbbd6759bbU, 0xbce759bb3d40cac6U,
  0x3d6759bb3ce759bbU, 0x3dd412413de759bbU, 0x3ce759bb3e109815U, 0xbd40cac6bdad834cU,
  0x3e109815bdad834cU, 0x3c9a3bd23c9a3bd2U, 0x3c9a3bd2bdc0cac6U, 0xbd40cac6bd86f458U,
  0x3e06f458bdd41241U, 0xbe70fd783d9a3bd2U, 0xbdad834c3e2d834cU, 0xbd6759bb3dd41241U,
  0xbd1a3bd23e1a3bd2U, 0xbd9a3bd23d6759bbU, 0x3e23df8f3ce759bbU, 0xbe372709bdad834cU,
  0xbdad834cU, 0x3d9a3bd23ce759bbU, 0x3dd412413c1a3bd2U, 0x3c1a3bd200000000U,
  0xbc9a3bd23e372709U, 0x3eec2b9a3d40cac6U, 0xbe372709bdd41241U, 0xbdad834cbd6759bbU,
  0xbdfaa1353dd41241U, 0xbe23df8f3ea3df8fU, 0x3f048b683e06f458U, 0x3c1a3bd2bdad834cU,
  0x3d9a3bd23e70fd78U, 0xbc9a3bd23c1a3bd2U, 0x3d40cac6bde759bbU, 0x3d86f4583ce759bbU,
  0xbdc0cac6bd40cac6U, 0x3dd412413c9a3bd2U, 0xbdd41241U, 0xbe1098153d9a3bd2U,
  0x3dad834c3d86f458U, 0xbdd412413e1a3bd2U, 0x3d40cac63de759bbU, 0xbde759bbbe4a6e84U,
  0x3d40cac63d1a3bd2U, 0x3de759bbbdd41241U, 0x3d9a3bd23c1a3bd2U, 0x3c1a3bd2bd86f458U,
  0x3d9a3bd2bd9a3bd2U, 0xbd86f4583d1a3bd2U, 0xbc1a3bd2bd9a3bd2U, 0x3d9a3bd23c9a3bd2U,
  0x3de759bbbdfaa135U, 0x3c9a3bd2bc9a3bd2U, 0xbd86f458bce759bbU, 0xbec0cac63eca6e84U,
  0x3e8bc6363e40cac6U, 0x3d9a3bd2be372709U, 0xbe5db5febe8bc636U, 0xbe9098153dfaa135U,
  0xbd40cac6bde759bbU, 0x3e2d834c3ea3df8fU, 0xbe23df8fbe109815U, 0x3d9a3bd23e2d834cU,
  0xbce759bb3ea8b16eU, 0xbe4a6e84bf2b1a5dU, 0xbe06f4583d1a3bd2U, 0x3e9569f3bce759bbU,
  0xbdc0cac6bd9a3bd2U, 0xbd9a3bd2bdad834cU, 0x3e7aa135be372709U, 0xbec59ca53e822279U,
  0xbde759bbbf109815U, 0xbdc0cac6U, 0x3e5db5febe06f458U, 0xbd1a3bd23e541241U,
  0xbea8b16ebd86f458U, 0x3e23df8f3dfaa135U, 0x3dfaa1353e5db5feU, 0x3e1a3bd2be372709U,
  0xbe5db5febde759bbU, 0xbde759bb3d9a3bd2U, 0xbeb2552b3ce759bbU, 0xbce759bbbe109815U,
  0xbd6759bb3e8bc636U, 0xbeec2b9abead834cU, 0x3e7aa135bdad834cU, 0x3d86f4583e8bc636U,
  0x3d86f4583dc0cac6U, 0x3d40cac6bdc0cac6U, 0xbd40cac6bce759bbU, 0x3ce759bbbe4a6e84U,
  0x3d1a3bd23d9a3bd2U, 0xbd40cac600000000U, 0x3d6759bbbdc0cac6U, 0x3d6759bbbd40cac6U,
  0xbc1a3bd23e541241U, 0x3dad834cbde759bbU, 0xbc1a3bd23c9a3bd2U, 0xbc1a3bd2bdc0cac6U,
  0xbdfaa1353e1a3bd2U, 0x3e06f45800000000U, 0xbe2d834c3dfaa135U, 0x3d1a3bd2bd86f458U,
  0x3de759bb3d1a3bd2U, 0x3d9a3bd2bd1a3bd2U, 0xbe40cac600000000U, 0xbce759bb3c9a3bd2U,
  0xbdad834c3ce759bbU, 0x3d1a3bd23c9a3bd2U, 0xbe06f4583d86f458U, 0xbd86f4583dad834cU,
  0xbe1098153dd41241U, 0x3d40cac63d6759bbU, 0xbe06f4583dc0cac6U, 0x3dad834cbd1a3bd2U,
  0xbd40cac6bd1a3bd2U, 0x3d9a3bd2bc1a3bd2U, 0xbce759bbbdc0cac6U, 0x3c9a3bd23dc0cac6U,
  0xbd86f4583e822279U, 0xbe5db5fe3e5db5feU, 0xbd1a3bd23d1a3bd2U, 0xbd86f45800000000U,
  0xbd9a3bd23dad834cU, 0xbc1a3bd23e372709U, 0xbdd41241be5db5feU, 0x3e2d834c3dd41241U,
  0x3c9a3bd23dd41241U, 0x3d40cac6be909815U, 0xbe2d834cbe2d834cU, 0x3d86f458be40cac6U,
  0xbe541241bd9a3bd2U, 0x3d40cac63e1a3bd2U, 0x3e5db5febdfaa135U, 0x3dc0cac63e372709U,
  0xbd6759bbbde759bbU, 0xbd6759bb3d6759bbU, 0x3de759bbbe40cac6U, 0x3c9a3bd23e4a6e84U,
  0xbdd412413e2d834cU, 0x3c9a3bd23ce759bbU, 0x3d1a3bd23d9a3bd2U, 0xbd86f458bd86f458U,
  0x3d86f4583dd41241U, 0xbe3727093e23df8fU, 0x3d6759bbU, 0xbe1a3bd2bc9a3bd2U,
  0xbdad834cbdc0cac6U, 0xbe6759bb3c9a3bd2U, 0xbd6759bb3ce759bbU, 0xbd6759bb3dd41241U,
  0xbe40cac6bdfaa135U, 0xbe1a3bd23c9a3bd2U, 0x3e109815bde759bbU, 0x3d1a3bd23dad834cU,
  0x3dc0cac6be40cac6U, 0xbdd41241be40cac6U, 0xbe8222793d9a3bd2U, 0x3d40cac63e1a3bd2U,
  0x3d1a3bd23e2d834cU, 0x3d1a3bd2be6759bbU, 0x3e372709U, 0xbdad834cbde759bbU,
  0x3dd412413c9a3bd2U, 0x3d9a3bd23dfaa135U, 0xbe06f4583dfaa135U, 0x3d1a3bd2U,
  0xbdfaa1353c9a3bd2U, 0xbde759bbbdd41241U, 0x3e06f458bce759bbU, 0x3e1a3bd2bd86f458U,
  0xbdc0cac6bce759bbU, 0x3d86f45800000000U, 0xbdd412413d40cac6U, 0x3ce759bbbc9a3bd2U,
  0xbdd412413dc0cac6U, 0x3d86f4583ce759bbU, 0x3c1a3bd2bd86f458U, 0xbd40cac63dad834cU,
  0xbc1a3bd2bd6759bbU, 0x3c9a3bd2U, 0x3e109815bd9a3bd2U, 0xbdfaa135be1a3bd2U,
  0xbe4a6e84be6759bbU, 0x3e23df8f3c9a3bd2U, 0xbd40cac6bdd41241U, 0x3e2d834c3c9a3bd2U,
  0xbe06f45800000000U, 0xbd9a3bd2be372709U, 0xbce759bb3ea8b16eU, 0xbe5db5febd6759bbU,
  0xbce759bbbe909815U, 0xbc1a3bd23de759bbU, 0xbce759bbbdd41241U, 0xbce759bb3d40cac6U,
  0x3e4a6e84bea3df8fU, 0x3ce759bbbdad834cU, 0xbe3727093e1a3bd2U, 0xbd40cac6U,
  0x3e40cac6bdc0cac6U, 0xbe5db5fe3c1a3bd2U, 0xbdfaa1353d9a3bd2U, 0x3e23df8fbdd41241U,
  0x3e8bc636be23df8fU, 0xbdc0cac6bde759bbU, 0xbde759bbbc1a3bd2U, 0xbd1a3bd23e9569f3U,
  0x3d1a3bd23c1a3bd2U, 0x3e5db5febd9a3bd2U, 0x3dad834cbd40cac6U, 0xbde759bb3e541241U,
  0x3e1a3bd23d86f458U, 0x3e1a3bd23dd41241U, 0xbc1a3bd2be40cac6U, 0xbe8222793c9a3bd2U,
  0x3dc0cac63dd41241U, 0x3ce759bb3dd41241U, 0xbce759bb3d9a3bd2U, 0xbe6759bb3ce759bbU,
  0xbe06f458U, 0x3e8bc6363d6759bbU, 0x3e6759bb3d9a3bd2U, 0x3d86f458U,
  0x3d9a3bd23ce759bbU, 0x3d1a3bd2bd86f458U, 0xbd86f4583d1a3bd2U, 0xbc1a3bd23ce759bbU,
  0xbdfaa1353d9a3bd2U, 0x3de759bb3d86f458U, 0xbde759bbbdd41241U, 0xbe4a6e84bc9a3bd2U,
  0x3dc0cac600000000U, 0xbd1a3bd23e06f458U, 0xbd6759bb3de759bbU, 0x3dad834c00000000U,
  0xbc1a3bd23c1a3bd2U, 0x3e06f458bd86f458U, 0x3c9a3bd2bdfaa135U, 0x3e06f458bc1a3bd2U,
  0x3ce759bbbdad834cU, 0xbd40cac6bd1a3bd2U, 0xbd1a3bd23d40cac6U, 0x3c9a3bd23d1a3bd2U,
  0x3d86f45800000000U, 0x3c1a3bd200000000U, 0x3d1a3bd23d40cac6U, 0xbe1a3bd2bc9a3bd2U,
  0x3d6759bb3ce759bbU, 0x3e109815be909815U, 0x3c9a3bd2bd1a3bd2U, 0x3e86f4583e2d834cU,
  0x3c9a3bd23ce759bbU, 0x3c9a3bd2be822279U, 0x3d40cac6bdd41241U, 0xbe2d834c3c1a3bd2U,
  0x3ce759bbbe6759bbU, 0xbe1098153e2d834cU, 0xbdad834cbdc0cac6U, 0x3c1a3bd2bd40cac6U,
  0xbdc0cac6bd9a3bd2U, 0xbdad834c3d86f458U, 0xbd86f4583e2d834cU, 0x3e2d834c3d40cac6U,
  0x3dc0cac6bce759bbU, 0xbd86f4583e109815U, 0xbde759bbbe23df8fU, 0xbe109815be5db5feU,
  0x3d6759bb3d1a3bd2U, 0x3d40cac63e23df8fU, 0x3de759bbbd86f458U, 0xbe06f458bdfaa135U,
  0xbe4a6e84bdad834cU, 0xbe1a3bd2bd6759bbU, 0x3c9a3bd2be86f458U, 0x3de759bbbd6759bbU,
  0xbde759bbbde759bbU, 0xbd9a3bd23e23df8fU, 0xbdfaa1353d9a3bd2U, 0xbe23df8fU,
  0xbd9a3bd2bd86f458U, 0xbee759bb3d1a3bd2U, 0x3e909815be109815U, 0x3e86f4583e5db5feU,
  0x3e541241bc9a3bd2U, 0xbdc0cac6be9569f3U, 0xbe9f0db13dd41241U, 0x3dad834c3e70fd78U,
  0x3d86f458bdd41241U, 0xbd9a3bd2bce759bbU, 0x3de759bb3dc0cac6U, 0x3e109815be2d834cU,
  0xbd40cac6U, 0xbe1a3bd23d9a3bd2U, 0x3e1a3bd2bd86f458U, 0xbdd41241bce759bbU,
  0xbdc0cac63e1a3bd2U, 0xbd9a3bd23d1a3bd2U, 0xbce759bbU, 0x3dad834cbc1a3bd2U,
  0x3dc0cac63c1a3bd2U, 0xbe1098153d9a3bd2U, 0x3e06f458bce759bbU, 0x3d40cac63c1a3bd2U,
  0x3c9a3bd2bde759bbU, 0xbd40cac6bce759bbU, 0xbe2d834c3de759bbU, 0xbe5412413e23df8fU,
  0xbc9a3bd23e372709U, 0x3de759bbbd1a3bd2U, 0x3e9a3bd2be23df8fU, 0x3e1a3bd2be9a3bd2U,
  0xbde759bbbe9569f3U, 0xbd9a3bd23d6759bbU, 0x3dad834c3e6759bbU, 0x3dad834cbea8b16eU,
  0x3e23df8f3d40cac6U, 0xbe8bc636be1a3bd2U, 0x3e4a6e843e4a6e84U, 0xbdad834cbe40cac6U,
  0xbdc0cac6be909815U, 0x3e3727093f372709U, 0x3e9f0db1bce759bbU, 0xbe8222793e4a6e84U,
  0x3e40cac6be23df8fU, 0x3e109815bc1a3bd2U, 0xbe5db5fe3dad834cU, 0x3e9a3bd2be40cac6U,
  0x3e6759bb3ed8e41fU, 0xbd6759bbbce759bbU, 0xbead834c3e4a6e84U, 0xbd86f458be1a3bd2U,
  0x3ea3df8fbe06f458U, 0xbe7aa135bd9a3bd2U, 0xbe4a6e84bec59ca5U, 0x3d6759bb3dc0cac6U,
  0x3d86f4583c9a3bd2U, 0x3e2d834cbd86f458U, 0x3e5db5fe3d6759bbU, 0xbce759bb3e06f458U,
  0x3e7aa135bdd41241U, 0x3eddb5fe3e9a3bd2U, 0xbe70fd78bd9a3bd2U, 0x3dfaa135be541241U,
  0x3c9a3bd23e1a3bd2U, 0xbdc0cac6bce759bbU, 0x3dd412413e6759bbU, 0xbe1a3bd23ce759bbU,
  0xbd9a3bd23c9a3bd2U, 0x3e541241be06f458U, 0x3e40cac6be1a3bd2U, 0xbc1a3bd23d40cac6U,
  0xbc1a3bd2bd9a3bd2U, 0x3dd41241bd40cac6U, 0x3dd41241bdd41241U, 0xbdc0cac6bdad834cU,
  0x3e23df8f3d9a3bd2U, 0xbd9a3bd2bd86f458U, 0xbe06f4583e06f458U, 0x3d9a3bd2bdad834cU,
  0xbdad834c3d9a3bd2U, 0xbd6759bbU, 0x3e1a3bd23d1a3bd2U, 0xbd86f458bdd41241U,
  0xbdad834c3e40cac6U, 0xbce759bbbd40cac6U, 0x3d6759bbbc1a3bd2U, 0xbe40cac63dfaa135U,
  0x3e4a6e84bc9a3bd2U, 0xbe06f4583c1a3bd2U, 0x3e2d834cbd6759bbU, 0xbdc0cac63ce759bbU,
  0x3de759bbbd1a3bd2U, 0xbd40cac6bce759bbU, 0x3ce759bb3e40cac6U, 0xbe06f458bea8b16eU,
  0xbc9a3bd23dc0cac6U, 0xbc1a3bd2be23df8fU, 0x3e40cac63e6759bbU, 0x3e2d834cbde759bbU,
  0x3dad834cbc1a3bd2U, 0x3c1a3bd2bde759bbU, 0x3e1a3bd2bdc0cac6U, 0x3c9a3bd23e4a6e84U,
  0x3e822279be23df8fU, 0xbdd412413d6759bbU, 0x3c1a3bd2bce759bbU, 0x3d40cac6be9569f3U,
  0x3d40cac6bd6759bbU, 0xbd1a3bd23e541241U, 0xbd86f458bdad834cU, 0x3d86f458bdad834cU,
  0xbd40cac63e5db5feU, 0x3d9a3bd23d86f458U, 0x3e40cac600000000U, 0x3dd41241be541241U,
  0xbc9a3bd23d40cac6U, 0x3e1098153dad834cU, 0x3d86f458bea8b16eU, 0xbe5db5fe3c9a3bd2U,
  0x3e372709bd9a3bd2U, 0xbd40cac6bce759bbU, 0x3e1a3bd2be541241U, 0x3dd41241bdd41241U,
  0xbdad834cbe23df8fU, 0x3e06f458bd86f458U, 0xbd40cac6be372709U, 0xbdad834cbe909815U,
  0x3e6759bb3e372709U, 0x3d40cac6bdad834cU, 0xbd40cac63dad834cU, 0xbde759bbbe70fd78U,
  0x3ce759bbbe8bc636U, 0x3ead834c00000000U, 0x3d40cac63c1a3bd2U, 0xbe06f458bd6759bbU,
  0xbce759bb3e40cac6U, 0xbd86f458bd40cac6U, 0xbd40cac63e06f458U, 0x3d1a3bd2bdc0cac6U,
  0xbdd412413ce759bbU, 0xbdad834c3e4a6e84U, 0x3dfaa135bd40cac6U, 0xbdd412413e372709U,
  0x3d6759bbbd86f458U, 0xbdd412413d9a3bd2U, 0xbd86f458bc9a3bd2U, 0x3ce759bbbd1a3bd2U,
  0x3e23df8fbd6759bbU, 0xbdd41241be1a3bd2U, 0xbd1a3bd23e372709U, 0xbd1a3bd2bce759bbU,
  0xbc1a3bd23d6759bbU, 0x3c1a3bd2bc1a3bd2U, 0x3e06f458bd40cac6U, 0x3d40cac6bd6759bbU,
  0x3dd41241be109815U, 0xbe5412413dad834cU, 0xbce759bb3e2d834cU, 0xbdc0cac63dc0cac6U,
  0x3e9569f3U, 0xbdfaa135bd86f458U, 0x3e9569f3bd1a3bd2U, 0x3de759bbbc1a3bd2U,
  0xbdd41241bdfaa135U, 0xbce759bbbd6759bbU, 0x3dc0cac6bebbf8e8U, 0xbc9a3bd23e541241U,
  0x3e4a6e84U, 0x3dc0cac6be9569f3U, 0xbe1098153e372709U, 0x3e70fd78be7aa135U,
  0xbe2d834cbdd41241U, 0xbc1a3bd23d86f458U, 0x3d9a3bd2be109815U, 0x3dfaa1353e4a6e84U,
  0xbe1a3bd23de759bbU, 0x3dad834cbe06f458U, 0x3e54124100000000U, 0x3e06f458be109815U,
  0xbdad834c3e5db5feU, 0x3de759bb3dd41241U, 0x3e40cac6bd6759bbU, 0xbdfaa135bd6759bbU,
  0xbe23df8fbe1a3bd2U, 0xbd86f458bde759bbU, 0xbc9a3bd2be5db5feU, 0x3e06f4583dc0cac6U,
  0xbe06f4583d86f458U, 0xbe5db5febc9a3bd2U, 0xbd86f458bce759bbU, 0xbd9a3bd2bdd41241U,
  0x3dad834cbe06f458U, 0xbd86f45800000000U, 0x3e1a3bd2bd86f458U, 0x3dad834cbd6759bbU,
  0xbce759bb3ce759bbU, 0x3ce759bbbe8bc636U, 0xbd9a3bd2bd1a3bd2U, 0xbd1a3bd2be109815U,
  0xbd1a3bd2U, 0x3de759bb3c9a3bd2U, 0xbd9a3bd2bd40cac6U, 0xbd86f4583e109815U,
  0x3d86f4583c1a3bd2U, 0x3e23df8fbdd41241U, 0xbdd412413e2d834cU, 0xbdd412413c1a3bd2U,
  0xbdc0cac6bd6759bbU, 0xbde759bbbe06f458U, 0x3e40cac63e1a3bd2U, 0x3dc0cac6bc1a3bd2U,
  0x3dd41241be2d834cU, 0x3dad834cbd9a3bd2U, 0x3d6759bbbd9a3bd2U, 0x3ce759bbbe06f458U,
  0x3e06f4583c9a3bd2U, 0xbd1a3bd2bd9a3bd2U, 0x3d6759bbbd40cac6U, 0xbe2d834c3e06f458U,
  0xbdad834c3ce759bbU, 0x3dc0cac6U, 0xbc9a3bd2bde759bbU, 0x3e06f458be23df8fU,
  0x3c1a3bd2bd86f458U, 0xbdc0cac63dd41241U, 0x3d40cac6U, 0x3e23df8fbdad834cU,
  0x3d40cac63e06f458U, 0xbce759bbbde759bbU, 0x3d1a3bd2bce759bbU, 0x3d1a3bd2bd9a3bd2U,
  0xbc9a3bd2bd9a3bd2U, 0x3d1a3bd23dc0cac6U, 0x3dfaa135bce759bbU, 0xbe70fd78bc9a3bd2U,
  0x3d9a3bd2bde759bbU, 0x3c9a3bd23dd41241U, 0xbe40cac63d1a3bd2U, 0x3dc0cac6bd9a3bd2U,
  0x3e4a6e843c1a3bd2U, 0xbe23df8fbc9a3bd2U, 0xbce759bb3d6759bbU, 0x3d6759bb3ce759bbU,
  0x3c1a3bd23d1a3bd2U, 0xbe7aa1353d9a3bd2U, 0xbce759bb00000000U, 0xbce759bb3e1a3bd2U,
  0x3e541241bc9a3bd2U, 0x3dfaa135bc9a3bd2U, 0xbd86f4583ce759bbU, 0xbe06f4583d86f458U,
  0x3d40cac63ce759bbU, 0x3dad834c3e4a6e84U, 0xbde759bb3c9a3bd2U, 0xbd1a3bd200000000U,
  0x3d86f458beb72709U, 0xbf2d834c3e7aa135U, 0x3e70fd78bce759bbU, 0x3e9569f33e109815U,
  0x3ecf4062be70fd78U, 0xbe372709bead834cU, 0xbed41241be541241U, 0x3d86f4583de759bbU,
  0x3e9a3bd2be86f458U, 0x3c1a3bd23d86f458U, 0x3ce759bb3e9569f3U, 0x3e70fd78bd40cac6U,
  0x3d9a3bd23e7aa135U, 0xbe372709bd6759bbU, 0xbe372709be822279U, 0xbdad834cbce759bbU,
  0xbde759bbbebbf8e8U, 0xbe4a6e84be9f0db1U, 0xbc1a3bd2be5db5feU, 0x3d1a3bd23e06f458U,
  0x3e1098153e40cac6U, 0x3e4a6e843e7aa135U, 0x3d6759bbbd6759bbU, 0x3e4a6e84U,
  0x3dfaa1353e5db5feU, 0x3d1a3bd23d86f458U, 0x3dd412413e909815U, 0x3d9a3bd23e822279U,
  0x3d86f4583d1a3bd2U, 0x3ea8b16e3dad834cU, 0x3e86f4583d1a3bd2U, 0x3eb72709bf372709U,
  0xbf095d47be5db5feU, 0xbd1a3bd2be6759bbU, 0x3ea3df8f3e40cac6U, 0x3f23df8fbec59ca5U,
  0xbe7aa135bc9a3bd2U, 0xbe70fd78bee759bbU, 0x3dfaa1353e23df8fU, 0xbde759bbbebbf8e8U,
  0x3c9a3bd2beec2b9aU, 0x3e6759bb3f6c2b9aU, 0x3ef0fd783c9a3bd2U, 0xbeb72709be70fd78U,
  0x3e9f0db1be40cac6U, 0x3d6759bb3dd41241U, 0xbf06f4583dd41241U, 0x3f2176a0befaa135U,
  0x3e6759bb3ec59ca5U, 0xbd86f458bd40cac6U, 0xbeca6e843d6759bbU, 0x3c1a3bd2beddb5feU,
  0x3ead834cbde759bbU, 0xbed41241bde759bbU, 0x3c9a3bd2bee287dcU, 0xbde759bb3ee759bbU,
  0x3ea3df8fbde759bbU, 0x3e822279beddb5feU, 0x3dc0cac63d9a3bd2U, 0xbe1098153e4a6e84U,
  0x3e2d834cbe6759bbU, 0x3eca6e843e8bc636U, 0xbe6759bb3d9a3bd2U, 0x3d6759bbbeb2552bU,
  0xbde759bb3e40cac6U, 0x3c9a3bd2bd86f458U, 0xbdad834c3dfaa135U, 0xbdad834c3de759bbU,
  0xbce759bbbe109815U, 0x3e2d834c3d9a3bd2U, 0x3d6759bb3c9a3bd2U, 0xbd9a3bd2be372709U,
  0x3dd41241U, 0xbe23df8fU, 0xbce759bb3e372709U, 0xbc9a3bd2be109815U,
  0xbd86f4583dc0cac6U, 0xbe23df8f3e40cac6U, 0xbd40cac6be40cac6U, 0x3e109815bdc0cac6U,
  0x3d86f458bd9a3bd2U, 0x3de759bb3d1a3bd2U, 0x3d86f45800000000U, 0xbd1a3bd23c1a3bd2U,
  0x3d40cac600000000U, 0x3d86f458bd6759bbU, 0xbce759bbbd40cac6U, 0xbc9a3bd23c1a3bd2U,
  0xbde759bb3dfaa135U, 0xbc9a3bd23ce759bbU, 0xbd6759bb3c9a3bd2U, 0x3c1a3bd23e1a3bd2U,
  0xbe06f458U, 0xbdad834c3e1a3bd2U, 0x3ce759bb00000000U, 0x3d1a3bd2bdc0cac6U,
  0xbe1a3bd23dc0cac6U, 0xbdfaa135bdd41241U, 0x3e3727093d40cac6U, 0x3e822279bd9a3bd2U,
  0x3dad834c3dad834cU, 0x3e1a3bd2bc9a3bd2U, 0x3dad834cbe40cac6U, 0xbe06f4583dfaa135U,
  0x3ce759bb3d9a3bd2U, 0xbdc0cac6bd1a3bd2U, 0xbe5db5fe3d40cac6U, 0x3e1a3bd2be23df8fU,
  0xbe70fd783ce759bbU, 0x3d40cac63ce759bbU, 0x3d86f4583d6759bbU, 0xbc1a3bd23c1a3bd2U,
  0xbde759bb3dc0cac6U, 0x3d86f4583e4a6e84U, 0x3dc0cac6bdad834cU, 0xbe23df8fbe909815U,
  0xbde759bb3e06f458U, 0x3e8bc6363d1a3bd2U, 0xbdd41241be06f458U, 0xbdd412413dc0cac6U,
  0x3e2d834cbc1a3bd2U, 0xbd86f458be4a6e84U, 0x3dfaa135bd6759bbU, 0x3e1098153e2d834cU,
  0xbd1a3bd2be109815U, 0xbce759bbbd86f458U, 0xbd6759bb3c1a3bd2U, 0xbdd41241bdd41241U,
  0x3ce759bbbe06f458U, 0xbe23df8fbe109815U, 0x3dc0cac6bde759bbU, 0xbc1a3bd2bd40cac6U,
  0x3c1a3bd23e372709U, 0x3d40cac6be1a3bd2U, 0xbe109815be06f458U, 0xbde759bbbd1a3bd2U,
  0xbce759bbbc1a3bd2U, 0x3e06f458bde759bbU, 0x3d1a3bd2bd40cac6U, 0x3d86f458be1a3bd2U,
  0xbd1a3bd23d6759bbU, 0x3dfaa135bdfaa135U, 0x3e06f4583c9a3bd2U, 0x3e06f458bdc0cac6U,
  0xbdad834c3dc0cac6U, 0xbdfaa135bd86f458U, 0x3de759bbbe2d834cU, 0xbce759bb3dd41241U,
  0xbe2d834c3de759bbU, 0x3c1a3bd23c9a3bd2U, 0xbd86f4583d9a3bd2U, 0x3e06f45800000000U,
  0xbd40cac6bdd41241U, 0x3c9a3bd23d86f458U, 0xbc9a3bd23c9a3bd2U, 0x3d40cac6bc9a3bd2U,
  0x3dad834cbd1a3bd2U, 0x3ce759bbbdc0cac6U, 0x3e23df8fbdfaa135U, 0x3dc0cac6bd86f458U,
  0x3d86f458bd40cac6U, 0x3e4a6e84bc9a3bd2U, 0xbde759bb3e2d834cU, 0x3d9a3bd2be5db5feU,
  0x3d40cac6bce759bbU, 0x3dfaa1353c1a3bd2U, 0xbc9a3bd2be06f458U, 0x3ce759bb3de759bbU,
  0xbe3727093dd41241U, 0x3dd412413e541241U, 0x3de759bb3dd41241U, 0xbe5db5fe3de759bbU,
  0x3c9a3bd23d1a3bd2U, 0x3de759bb3e109815U, 0xbde759bbbc1a3bd2U, 0xbd40cac6be5db5feU,
  0x3e3727093e1a3bd2U, 0x3c1a3bd2bd9a3bd2U, 0x3e1a3bd23e06f458U, 0xbe7aa135bce759bbU,
  0x3e5412413ce759bbU, 0xbe1098153dad834cU, 0x3e541241be541241U, 0x3d6759bb3dd41241U,
  0x3dad834c3d9a3bd2U, 0xbdad834c3ce759bbU, 0xbde759bb3de759bbU, 0x3dad834c3d6759bbU,
  0x3dfaa135bdad834cU, 0xbe23df8f3dfaa135U, 0x3dd41241be23df8fU, 0x3d40cac63e372709U,
  0x3e372709be2d834cU, 0xbe5412413e372709U, 0x3e5412413d9a3bd2U, 0x3e3727093e372709U,
  0x3e9f0db1bdc0cac6U, 0x3d1a3bd2be86f458U, 0xbe70fd783c1a3bd2U, 0x3e3727093e109815U,
  0x3e6759bbbd9a3bd2U, 0x3d86f458be06f458U, 0xbdad834c3e4a6e84U, 0x3dd41241be9569f3U,
  0x3d1a3bd23e6759bbU, 0x3ce759bb3dfaa135U, 0xbdd41241be109815U, 0x3d40cac6be06f458U,
  0x3d86f458be23df8fU, 0xbd9a3bd2be06f458U, 0x3de759bb3c1a3bd2U, 0x3d9a3bd23d40cac6U,
  0x3e109815bc1a3bd2U, 0xbd6759bb3d1a3bd2U, 0xbce759bbbe06f458U, 0xbdad834c3de759bbU,
  0x3d40cac6bd40cac6U, 0x3c9a3bd23d40cac6U, 0xbe1a3bd23dd41241U, 0x3c9a3bd23d6759bbU,
  0x3c9a3bd2bce759bbU, 0x3e2d834cbdfaa135U, 0x3e822279bdc0cac6U, 0x3e5db5febeb72709U,
  0xbe822279bd40cac6U, 0xbe2d834cbe822279U, 0x3d6759bb3d40cac6U, 0x3eb72709be9569f3U,
  0x3ce759bb3e06f458U, 0xbea3df8fbe109815U, 0x3e70fd783e1a3bd2U, 0x3dc0cac6be822279U,
  0xbc9a3bd2be372709U, 0x3ecf40623f06f458U, 0x3e9f0db1bd40cac6U, 0xbdd41241be06f458U,
  0x3e7aa135bd6759bbU, 0xbe541241be2d834cU, 0xbe822279bc9a3bd2U, 0x3ec0cac6bed41241U,
  0xbc1a3bd23ec0cac6U, 0xbdd412413ce759bbU, 0xbe4a6e843c9a3bd2U, 0x3d6759bbbe8bc636U,
  0x3e1a3bd2bde759bbU, 0xbea3df8fbdad834cU, 0xbe1a3bd2bee759bbU, 0xbe23df8f3d6759bbU,
  0x3e86f4583d40cac6U, 0x3e4a6e84be40cac6U, 0x3e541241bdc0cac6U, 0xbd86f4583c1a3bd2U,
  0x3d40cac6bd9a3bd2U, 0x3eb727093e6759bbU, 0xbe909815bdd41241U, 0x3e40cac6be40cac6U,
  0xbe2d834cbe5db5feU, 0xbe9569f3bdd41241U, 0x3d9a3bd23ce759bbU, 0x3e1a3bd2bd86f458U,
  0x3de759bb3e1a3bd2U, 0xbdad834cbe5db5feU, 0xbd40cac6bc9a3bd2U, 0x3d6759bb3c9a3bd2U,
  0xbdad834cbe372709U, 0xbc9a3bd23d9a3bd2U, 0x3dad834cbc1a3bd2U, 0x3e06f458bdfaa135U,
  0xbc9a3bd2be1a3bd2U, 0x3e23df8f3d1a3bd2U, 0xbd86f4583e06f458U, 0x3e372709bdfaa135U,
  0xbd9a3bd23dfaa135U, 0x3dd41241be06f458U, 0xbdd41241bdfaa135U, 0x3d6759bbbdc0cac6U,
  0x3c9a3bd2bce759bbU, 0x3c9a3bd23ce759bbU, 0xbde759bb3dd41241U, 0x3ce759bbbd9a3bd2U,
  0x3ce759bb3d6759bbU, 0xbd1a3bd2U, 0x3ce759bbbd1a3bd2U, 0xbd40cac6bc9a3bd2U,
  0xbd9a3bd23e40cac6U, 0x3d1a3bd2bdd41241U, 0x3d1a3bd2bd6759bbU, 0x3c1a3bd23dad834cU,
  0xbe109815be9a3bd2U, 0xbe5412413e40cac6U, 0xbef0fd78be5db5feU, 0x3c1a3bd2bd9a3bd2U,
  0x3d86f4583e23df8fU, 0xbce759bbbdd41241U, 0xbde759bb3ea8b16eU, 0xbce759bbbeb72709U,
  0xbdd41241bd6759bbU, 0x3d6759bb3ef5cf57U, 0xbd9a3bd2bc9a3bd2U, 0xbee287dc3e1a3bd2U,
  0x3e9569f3bd6759bbU, 0xbd1a3bd2bd86f458U, 0xbde759bb3e06f458U, 0x3e23df8fbdfaa135U,
  0x3ec0cac63dad834cU, 0xbe23df8f3d86f458U, 0xbead834cbd86f458U, 0xbc9a3bd23e86f458U,
  0x3e40cac6bce759bbU, 0xbe7aa135bc9a3bd2U, 0xbe1a3bd23d1a3bd2U, 0x3c1a3bd23e5db5feU,
  0x3d40cac63d86f458U, 0x3e5412413d86f458U, 0xbdad834c3e9569f3U, 0xbde759bb3c9a3bd2U,
  0x3e7aa1353c9a3bd2U, 0x3dc0cac6bce759bbU, 0xbc9a3bd2bd9a3bd2U, 0xbd86f4583d86f458U,
  0xbe109815be4a6e84U, 0x3e4a6e8400000000U, 0xbe2d834cbdc0cac6U, 0x3e2d834c3d1a3bd2U,
  0x3d40cac63dc0cac6U, 0xbd1a3bd200000000U, 0xbd40cac6bc9a3bd2U, 0x3d40cac63d86f458U,
  0x3e372709be06f458U, 0xbdad834c3c1a3bd2U, 0xbc1a3bd2bce759bbU, 0xbd40cac63e1a3bd2U,
  0xbd40cac6bd1a3bd2U, 0x3dad834cbd9a3bd2U, 0x3dd412413dad834cU, 0x3e23df8fbe06f458U,
  0x3e1098153dc0cac6U, 0xbdd41241be109815U, 0x3c1a3bd2bdd41241U, 0xbdad834cbc9a3bd2U,
  0x3de759bbbd40cac6U, 0xbc1a3bd2bd1a3bd2U, 0x3d86f45800000000U, 0xbde759bbbd40cac6U,
  0x3dc0cac63dd41241U, 0x3dc0cac6bde759bbU, 0x3c1a3bd2be1a3bd2U, 0x0U,
  0xbd6759bb3dd41241U, 0xbd1a3bd23c1a3bd2U, 0x3c9a3bd2bd9a3bd2U, 0xbdc0cac63d1a3bd2U,
  0xbdad834cbd40cac6U, 0xbde759bb3e109815U, 0xbed41241bce759bbU, 0xbee287dc3ce759bbU,
  0x3dd412413e06f458U, 0xbe06f45800000000U, 0x3e1a3bd2U, 0xbce759bbbe06f458U,
  0xbce759bb3e2d834cU, 0xbc1a3bd2bde759bbU, 0x3d86f458be372709U, 0xbe9f0db13e541241U,
  0x3dd412413c1a3bd2U, 0x3d40cac6be5db5feU, 0x3e5db5febce759bbU, 0xbe06f458bd1a3bd2U,
  0x3d9a3bd2bd9a3bd2U, 0x3c9a3bd23d40cac6U, 0x3d9a3bd2bc9a3bd2U, 0xbe5412413ecf4062U,
  0x3e06f458bd6759bbU, 0xbe06f4583c1a3bd2U, 0xbe6759bb3e9f0db1U, 0x3de759bbbd86f458U,
  0x3dfaa1353e4a6e84U, 0x3d86f4583dc0cac6U, 0xbdc0cac63dad834cU, 0x3d9a3bd2bdd41241U,
  0xbc9a3bd2bd9a3bd2U, 0x3c9a3bd23d9a3bd2U, 0xbd1a3bd2bdfaa135U, 0x3d6759bb3d1a3bd2U,
  0x3e06f458be23df8fU, 0x3dc0cac63dc0cac6U, 0xbd86f458be4a6e84U, 0x3e2d834cbdd41241U,
  0x3e372709bd9a3bd2U, 0xbde759bbbe1a3bd2U, 0xbde759bbU, 0xbc1a3bd23de759bbU,
  0xbe23df8fbc9a3bd2U, 0xbd86f4583d9a3bd2U, 0x3ce759bb3d1a3bd2U, 0xbdd412413d9a3bd2U,
  0x3d86f4583c1a3bd2U, 0x3e23df8f3d40cac6U, 0x3c9a3bd23dd41241U, 0xbd86f4583ce759bbU,
  0xbc9a3bd2bdfaa135U, 0x3d9a3bd2be1a3bd2U, 0xbce759bbbd6759bbU, 0x3d6759bbbe06f458U,
  0x3dc0cac6bd86f458U, 0xbd40cac63d40cac6U, 0x3d86f458bd9a3bd2U, 0xbdc0cac63d9a3bd2U,
  0xbd1a3bd2U, 0xbce759bb3d1a3bd2U, 0xbd6759bb3d9a3bd2U, 0xbce759bb3c1a3bd2U,
  0xbdc0cac63d40cac6U, 0xbce759bb3c9a3bd2U, 0x3dfaa135bd86f458U, 0x3e1a3bd23c1a3bd2U,
  0xbdad834cbe8bc636U, 0xbe1a3bd23e372709U, 0x3c1a3bd2bd9a3bd2U, 0x3c9a3bd2be5db5feU,
  0xbdd412413d86f458U, 0xbc1a3bd2bdad834cU, 0x3d86f4583e109815U, 0xbce759bb3d1a3bd2U,
  0xbe6759bbbd86f458U, 0x3dad834c00000000U, 0x3dad834cbe06f458U, 0xbe1a3bd23e06f458U,
  0xbd86f458bd40cac6U, 0xbc9a3bd23e06f458U, 0xbc1a3bd23dd41241U, 0x3e40cac600000000U,
  0x3dd412413e70fd78U, 0x3dc0cac63e1a3bd2U, 0xbd1a3bd2U, 0xbe40cac6be1a3bd2U,
  0x3dc0cac63e1a3bd2U, 0xbd6759bbbe06f458U, 0xbd1a3bd2be40cac6U, 0x3c1a3bd23dfaa135U,
  0x3e4a6e84bdad834cU, 0x3d40cac6bd9a3bd2U, 0x3d9a3bd23e5db5feU, 0x3d9a3bd2bd40cac6U,
  0x3d40cac6be40cac6U, 0x3d40cac600000000U, 0x3d1a3bd2bd1a3bd2U, 0xbd40cac6bdc0cac6U,
  0x3e70fd783e2d834cU, 0x3e23df8f3e1a3bd2U, 0x3e8222793eff7314U, 0xbeec2b9a3d9a3bd2U,
  0xbc1a3bd2bf06f458U, 0x3eb2552bbe1a3bd2U, 0x3e5db5fe3d1a3bd2U, 0xbd86f4583ce759bbU,
  0x3ea8b16ebd86f458U, 0x3e8222793e9569f3U, 0x3e9f0db13eddb5feU, 0x3ed412413e7aa135U,
  0x3e9098153eca6e84U, 0xbe3727093d9a3bd2U, 0x3d40cac6be6759bbU, 0xbc1a3bd2be2d834cU,
  0x3d9a3bd2be86f458U, 0xbde759bbbe2d834cU, 0x3d86f458be4a6e84U, 0x3e06f4583e6759bbU,
  0x3d40cac63c1a3bd2U, 0x3d6759bbbc1a3bd2U, 0x3d9a3bd23dd41241U, 0x3e1a3bd2bd1a3bd2U,
  0x3de759bb3c1a3bd2U, 0xbde759bb3dad834cU, 0x3d1a3bd23de759bbU, 0xbdad834c3c9a3bd2U,
  0x3c9a3bd23c1a3bd2U, 0xbe9098153e9a3bd2U, 0xbd1a3bd23e2d834cU, 0x3d6759bbbf26487eU,
  0xbe1098153ee759bbU, 0x3e909815bf0bc636U, 0x3f4cd7733ea8b16eU, 0x3f459ca5bd86f458U,
  0xbe6759bbbe06f458U, 0xbe109815be372709U, 0x3e822279bf2b1a5dU, 0x3d40cac63dfaa135U,
  0x3dc0cac6be5db5feU, 0x3e6759bb3ce759bbU, 0x3dfaa1353dc0cac6U, 0x3eddb5febf130104U,
  0xbf048b68be23df8fU, 0xbe23df8f3e9f0db1U, 0xbe6759bbbdfaa135U, 0x3eff7314bdfaa135U,
  0xbe9a3bd23eb2552bU, 0xbd40cac6bd86f458U, 0x3e5db5fe00000000U, 0x3e40cac6bf2fec3cU,
  0xbe9098153de759bbU, 0x3e40cac63dc0cac6U, 0x3eca6e84bf2b1a5dU, 0xbed8e41fbe2d834cU,
  0x3e3727093dfaa135U, 0xbe86f458beca6e84U, 0x3e06f458bf2b1a5dU, 0x3e06f4583ce759bbU,
  0xbed41241bd6759bbU, 0xbe822279bdad834cU, 0xbe541241be109815U, 0x3e109815beca6e84U,
  0xbdfaa1353ce759bbU, 0x3e822279be6759bbU, 0xbe86f458be8bc636U, 0xbc9a3bd2bea8b16eU,
  0xbe9a3bd23e9569f3U, 0xbd86f4583eff7314U, 0x3ec0cac63e06f458U, 0xbd6759bbbd40cac6U,
  0xbce759bb3eb2552bU, 0xbec0cac6bd86f458U, 0xbe5db5febea8b16eU, 0xbe909815be2d834cU,
  0xbde759bbbe822279U, 0x3e909815be1a3bd2U, 0x3e9098153eb72709U, 0x3dfaa1353d9a3bd2U,
  0x3e9a3bd23e06f458U, 0x3e8bc6363e5db5feU, 0x3dad834c3e109815U, 0xbe9569f3bd9a3bd2U,
  0x3d1a3bd23d9a3bd2U, 0xbe541241bde759bbU, 0xbe372709be2d834cU, 0x3d1a3bd2bd40cac6U,
  0xbe1a3bd2bde759bbU, 0xbe9569f3bdd41241U, 0xbc9a3bd2bdad834cU, 0x3dd41241bebbf8e8U,
  0xbe40cac6be541241U, 0xbde759bbbd9a3bd2U, 0xbe9569f33e23df8fU, 0xbee759bb3f23df8fU,
  0x3ed412413d6759bbU, 0x3de759bb3de759bbU, 0xbe86f458be8bc636U, 0xbf26487e3f0bc636U,
  0x3e40cac63dad834cU, 0x3e9569f33e70fd78U, 0xbecf4062bd40cac6U, 0x3dad834c3e23df8fU,
  0xbe1098153ec59ca5U, 0xbe109815bf4333b6U, 0xbee287dcbd86f458U, 0x3d1a3bd23e372709U,
  0x3ce759bb3e23df8fU, 0xbc1a3bd2be1a3bd2U, 0x3f022279bea8b16eU, 0xbeec2b9a3ef0fd78U,
  0xbd1a3bd2bef0fd78U, 0xbce759bbbe109815U, 0x3e86f458bd9a3bd2U, 0x3d6759bb3f480594U,
  0xbebbf8e83de759bbU, 0x3e8bc636bd6759bbU, 0x3f1ca4c1U, 0x3e86f458be06f458U,
  0xbe70fd783d1a3bd2U, 0xbed8e41f3eb2552bU, 0xbd9a3bd23dfaa135U, 0x3d86f458bd9a3bd2U,
  0xbe06f4583dfaa135U, 0xbecf4062bdad834cU, 0x3e3727093d1a3bd2U, 0x3dc0cac63e6759bbU,
  0x3e9569f33e5db5feU, 0x3f109815bd1a3bd2U, 0x3d1a3bd23ead834cU, 0xbf40cac6bd6759bbU,
  0xbee759bbbe909815U, 0x3f1569f33e822279U, 0x3f23df8f3d1a3bd2U, 0x3d86f4583e1a3bd2U,
  0x3d6759bb3e23df8fU, 0x3e5412413e541241U, 0xbe40cac63e7aa135U, 0x3e3727093e4a6e84U,
  0x3e06f4583c1a3bd2U, 0xbde759bb3e6759bbU, 0x3e3727093d40cac6U, 0x3d40cac63d6759bbU,
  0xbde759bbbce759bbU, 0x3ce759bb3e5db5feU, 0x3e109815bde759bbU, 0xbe9f0db13c1a3bd2U,
  0x3ce759bbbe109815U, 0x3c1a3bd2bde759bbU, 0xbe23df8f3ce759bbU, 0xbe4a6e84bc1a3bd2U,
  0x3dd41241bdd41241U, 0xbe06f4583d40cac6U, 0xbd40cac6be109815U, 0xbce759bbbc1a3bd2U,
  0xbe9569f3U, 0xbead834c3e4a6e84U, 0xbf0222793e909815U, 0xbeff73143e5db5feU,
  0x3e70fd783f6c2b9aU, 0x3e822279be9a3bd2U, 0x3f06f4583e40cac6U, 0x3d86f4583e7aa135U,
  0x3d6759bbbc9a3bd2U, 0x3ead834c3e372709U, 0x3d40cac6bf7aa135U, 0xbd9a3bd23ef5cf57U,
  0x3e70fd783d6759bbU, 0xbdfaa135bf8828cfU, 0xbe6759bb3dc0cac6U, 0x3f6759bbbf0e2f26U,
  0xbf1ca4c13d1a3bd2U, 0x3e4a6e84U, 0x3e9f0db1beb72709U, 0xbe9098153e822279U,
  0xbf1f0db1bd86f458U, 0x3e70fd783e372709U, 0x3f3727093dad834cU, 0x3e4a6e84be23df8fU,
  0xbf4a6e8400000000U, 0x3ed8e41f3ead834cU, 0x3f17d2e3be6759bbU, 0xbe5db5febecf4062U,
  0xbd9a3bd23e7aa135U, 0xbef0fd78bd1a3bd2U, 0x3c9a3bd2bef0fd78U, 0x3ef0fd78bea3df8fU,
  0xbf2176a03e109815U, 0xbf34be1abe7aa135U, 0x3e8222793c9a3bd2U, 0xbd1a3bd2be9a3bd2U,
  0xbc9a3bd23dfaa135U, 0x3dc0cac63c9a3bd2U, 0xbc1a3bd23d6759bbU, 0x3e40cac6bdad834cU,
  0x3ce759bb3ce759bbU, 0x3e5db5fe3d1a3bd2U, 0x3d9a3bd23e06f458U, 0xbd9a3bd2bd6759bbU,
  0xbdfaa1353c9a3bd2U, 0xbd1a3bd23c9a3bd2U, 0xbd6759bb3d86f458U, 0x3d40cac6bd40cac6U,
  0xbc1a3bd23c1a3bd2U, 0xbd86f4583dc0cac6U, 0x3e4a6e843c9a3bd2U, 0xbd6759bb3de759bbU,
  0xbdfaa135bde759bbU, 0x3dd41241bc9a3bd2U, 0xbce759bbbe109815U, 0xbd40cac63e1a3bd2U,
  0xbd40cac6bd9a3bd2U, 0xbe1098153dd41241U, 0x3d9a3bd23dc0cac6U, 0x3e1a3bd2be2d834cU,
  0x3dc0cac6bdd41241U, 0xbdd412413d40cac6U, 0x3e372709bde759bbU, 0xbd40cac63ce759bbU,
  0x3d6759bb3d40cac6U, 0x3d9a3bd2bdd41241U, 0x3c9a3bd23d9a3bd2U, 0xbe5412413d1a3bd2U,
  0x3d86f4583e70fd78U, 0xbe1a3bd23d6759bbU, 0x3e1a3bd2bd9a3bd2U, 0xbce759bbbe40cac6U,
  0xbd1a3bd23d9a3bd2U, 0xbd9a3bd2bd86f458U, 0x3e109815be5db5feU, 0x3d6759bb3d40cac6U,
  0x3ce759bbbdad834cU, 0xbd1a3bd2be86f458U, 0x3d6759bb3c9a3bd2U, 0x3dc0cac6bd6759bbU,
  0xbe1a3bd23d6759bbU, 0x3e06f4583d86f458U, 0xbdfaa1353c9a3bd2U, 0x3dc0cac63e23df8fU,
  0xbe86f4583dc0cac6U, 0xbe5db5febd1a3bd2U, 0x3dc0cac6be109815U, 0x3e06f458bd1a3bd2U,
  0x3e1a3bd2U, 0x3de759bb3d40cac6U, 0x3ea8b16e3d1a3bd2U, 0xbdfaa135bde759bbU,
  0x3d40cac63d6759bbU, 0xbd9a3bd2bd6759bbU, 0xbde759bbbde759bbU, 0x3d86f458bce759bbU,
  0xbe3727093c9a3bd2U, 0xbe2d834cbe109815U, 0xbd6759bbbdfaa135U, 0xbd40cac6be541241U,
  0x3c9a3bd2bce759bbU, 0x3e70fd78bdd41241U, 0xbe40cac63dc0cac6U, 0xbdad834cbe86f458U,
  0xbdd41241bd1a3bd2U, 0xbd1a3bd23e5db5feU, 0xbc1a3bd23e70fd78U, 0xbe70fd783d1a3bd2U,
  0x3d1a3bd2bd6759bbU, 0xbd40cac63ce759bbU, 0x3d6759bbbc1a3bd2U, 0xbd6759bbbc1a3bd2U,
  0x3d1a3bd23d6759bbU, 0xbdad834c3c1a3bd2U, 0xbdd412413e109815U, 0xbd6759bbbd9a3bd2U,
  0x3d1a3bd2bd6759bbU, 0xbe2d834cbc1a3bd2U, 0x3d9a3bd23e372709U, 0xbd1a3bd23dad834cU,
  0x3ce759bbbc9a3bd2U, 0x3d9a3bd2bd86f458U, 0xbd86f458bc1a3bd2U, 0xbc9a3bd23dfaa135U,
  0x3dc0cac6be1a3bd2U, 0x0U, 0x3d86f458bc9a3bd2U, 0x3e06f458bdfaa135U,
  0x3d1a3bd2be109815U, 0xbd6759bb3dc0cac6U, 0xbe23df8f3e23df8fU, 0xbe2d834c3e1a3bd2U,
  0x3e6759bb3de759bbU, 0x3c1a3bd2bde759bbU, 0x3e2d834c3dc0cac6U, 0xbd86f4583e7aa135U,
  0xbde759bbbd40cac6U, 0x3dfaa1353e7aa135U, 0xbe109815U, 0xbde759bb3e23df8fU,
  0x3e1098153e372709U, 0xbdd41241be822279U, 0xbdc0cac6be109815U, 0x3d6759bb3d9a3bd2U,
  0xbe5412413d86f458U, 0xbdfaa1353e541241U, 0xbc9a3bd2be2d834cU, 0xbe1a3bd23c1a3bd2U,
  0xbd1a3bd2be5db5feU, 0x3e23df8fbe06f458U, 0x3d9a3bd2bd6759bbU, 0xbdd412413e1a3bd2U,
  0xbdc0cac6bc1a3bd2U, 0x3dc0cac63dad834cU, 0x3d9a3bd23ea3df8fU, 0xbd1a3bd2bd1a3bd2U,
  0xbe06f4583d1a3bd2U, 0xbd6759bb3c1a3bd2U, 0x3d1a3bd2be06f458U, 0x3e3727093ce759bbU,
  0x3d86f4583d86f458U, 0xbe70fd78bd86f458U, 0x3e23df8f3d9a3bd2U, 0xbdfaa1353e372709U,
  0x3b47a773bd09431fU, 0x3ce09c61bd09431fU, 0xbc15bd96bc47a773U, 0x3c799150bc15bd96U,
  0x3b47a7733c47a773U, 0x3b47a7733c47a773U, 0xbcaeb285bcc7a773U, 0xbbc7a773bc15bd96U,
  0x3c47a7733c15bd96U, 0x3c15bd963c15bd96U, 0xbb47a7733caeb285U, 0xbd2eb285U,
  0xbc47a7733e2556abU, 0x3bc7a77300000000U, 0xbc799150bc15bd96U, 0x3c95bd963c15bd96U,
  0x3c47a773bc95bd96U, 0xbc95bd963b47a773U, 0xbb47a773bd609c61U, 0x3b47a773bd89431fU,
  0x3d5421ea3b47a773U, 0xbbc7a7733c95bd96U, 0xbc15bd96bc15bd96U, 0xbbc7a7733bc7a773U,
  0x3c7991503c95bd96U, 0x3bc7a773bbc7a773U, 0x3bc7a7733c799150U, 0xbbc7a773bc95bd96U,
  0x0U, 0x3b47a7733b47a773U, 0x3b47a773bd9bfad2U, 0x3bc7a7733c15bd96U,
  0x3c47a773bc95bd96U, 0xbd3b2cfc3d09431fU, 0xbb47a773bbc7a773U, 0xbc47a7733ce09c61U,
  0x3bc7a77300000000U, 0x3cf991503d2eb285U, 0xbc7991503e1bfad2U, 0xbcf99150bd09431fU,
  0xbc7991503b47a773U, 0x3d22380dbce09c61U, 0xbb47a7733bc7a773U, 0xbd15bd963da2380dU,
  0x3c47a7733e4de4afU, 0xbe09431f3c95bd96U, 0x3ce09c613caeb285U, 0xbd3b2cfcbc95bd96U,
  0x3d609c6100000000U, 0x3d2eb285bc95bd96U, 0xbbc7a773bb47a773U, 0x3caeb285bce09c61U,
  0xbcaeb285bc799150U, 0x3caeb2853b47a773U, 0x3caeb2853d6d16d9U, 0xbbc7a773bc47a773U,
  0xbbc7a7733c47a773U, 0xbce09c613bc7a773U, 0xbc95bd963de6d99dU, 0xbc95bd963c799150U,
  0x3caeb2853cf99150U, 0x3daeb285bcf99150U, 0x3d09431fbd609c61U, 0xbc7991503c799150U,
  0xbbc7a773bbc7a773U, 0xbce09c61bc15bd96U, 0xbbc7a7733d09431fU, 0xbc15bd96bc799150U,
  0xbc7991503c799150U, 0x3bc7a7733c95bd96U, 0xbce09c61bce09c61U, 0x3bc7a773bb47a773U,
  0x3ce09c613bc7a773U, 0xbb47a7733bc7a773U, 0x3b47a773bdbb2cfcU, 0xbc15bd96bb47a773U,
  0xbc15bd96bd8305e3U, 0xbe0305e33c15bd96U, 0x3c15bd96bc47a773U, 0xbbc7a773bb47a773U,
  0x3c799150bc47a773U, 0x3bc7a773bbc7a773U, 0x3c95bd96bb47a773U, 0x3bc7a773bd9bfad2U,
  0x3dffce8bbc47a773U, 0x3ce09c61bb47a773U, 0xbcaeb2853d09431fU, 0x3bc7a773bcaeb285U,
  0x3c15bd963c47a773U, 0x3c47a773bbc7a773U, 0xbde6d99dU, 0x3caeb285bd2eb285U,
  0xbbc7a7733b47a773U, 0x3d5421ea3bc7a773U, 0x3d2eb2853dc16a37U, 0xbb47a7733bc7a773U,
  0xbb47a773bd6d16d9U, 0xbdaeb2853b47a773U, 0x3c15bd96bc47a773U, 0xbc7991503c15bd96U,
  0x3b47a7733cc7a773U, 0xbb47a773bb47a773U, 0x3c799150bcc7a773U, 0xbc95bd96bd09431fU,
  0xbc15bd963b47a773U, 0x3c47a773bbc7a773U, 0x3bc7a7733d95bd96U, 0x3c15bd96bd89431fU,
  0xbc95bd963d5421eaU, 0x3d6d16d9bcc7a773U, 0xbc15bd963b47a773U, 0xbcc7a77300000000U,
  0xbd8f805b3d15bd96U, 0xbd15bd963c47a773U, 0xbce09c613c47a773U, 0xbc15bd96bd8305e3U,
  0x3b47a7733c95bd96U, 0xbc7991503bc7a773U, 0xbb47a7733c799150U, 0xbc7991503cc7a773U,
  0x3b47a7733caeb285U, 0x3bc7a773bc15bd96U, 0x3c15bd963d47a773U, 0x3b47a7733caeb285U,
  0x3c95bd96bc47a773U, 0xbbc7a773bc799150U, 0x3d89431fbcc7a773U, 0xbbc7a7733bc7a773U,
  0x3c47a773bd3b2cfcU, 0xbe18dc34bcf99150U, 0xbc15bd96bc95bd96U, 0xbc95bd96bce09c61U,
  0xbcc7a773bbc7a773U, 0xbc15bd96bcf99150U, 0x3d15bd96bcf99150U, 0xbbc7a7733c95bd96U,
  0x3c15bd96bcc7a773U, 0xbcaeb2853c95bd96U, 0xbc47a7733d6d16d9U, 0xbce09c61U,
  0x3b47a773bd22380dU, 0x3e0c61bd3c47a773U, 0xbc15bd96bc95bd96U, 0x3cc7a7733c799150U,
  0xbc95bd963d09431fU, 0xbcaeb2853caeb285U, 0xbb47a773bbc7a773U, 0xbc15bd963d09431fU,
  0xbdc7a7733b47a773U, 0xbcc7a773bc15bd96U, 0xbce09c61bcaeb285U, 0x3c15bd96bc47a773U,
  0x3cf99150bc15bd96U, 0x3caeb285bc15bd96U, 0xbbc7a7733d609c61U, 0xbbc7a773U,
  0x3c15bd96bcf99150U, 0xbc95bd96bc15bd96U, 0xbce09c61bd3b2cfcU, 0x3caeb285bcc7a773U,
  0xbc15bd963d8305e3U, 0xbb47a7733d47a773U, 0xbbc7a7733bc7a773U, 0x3b47a7733c15bd96U,
  0x3c15bd96bce09c61U, 0xbc47a7733c15bd96U, 0x3c47a773bd6d16d9U, 0xbbc7a7733c15bd96U,
  0xbb47a773bb47a773U, 0x3b47a77300000000U, 0xbcaeb285bd6d16d9U, 0xbc47a7733d22380dU,
  0x3bc7a773bdaeb285U, 0x3d799150bc95bd96U, 0xbc47a77300000000U, 0xbc95bd96bbc7a773U,
  0x3dd421eabc799150U, 0x3c15bd96bc47a773U, 0x3c47a7733d09431fU, 0xbcaeb285bd89431fU,
  0x3dc7a7733b47a773U, 0x3c799150bb47a773U, 0x3bc7a773U, 0xbc15bd96bb47a773U,
  0xbc7991503caeb285U, 0xbc47a773bbc7a773U, 0xbbc7a7733cf99150U, 0x3c47a7733bc7a773U,
  0x3caeb285U, 0xbbc7a7733bc7a773U, 0xbb47a7733d9bfad2U, 0xbc799150U,
  0xbbc7a773be0c61bdU, 0xbd609c61bd22380dU, 0xbb47a773bc47a773U, 0x3c7991503bc7a773U,
  0xbc15bd96bc95bd96U, 0x3c7991503b47a773U, 0xbd8305e33d89431fU, 0xbbc7a773U,
  0x3caeb285bbc7a773U, 0xbd09431fbb47a773U, 0x3b47a7733de6d99dU, 0x3bc7a7733bc7a773U,
  0x3df99150U, 0x3c95bd963b47a773U, 0xbc47a773bc15bd96U, 0x3c47a7733c15bd96U,
  0xbe380e5e3d22380dU, 0xbc79915000000000U, 0x3bc7a773bd22380dU, 0xbc15bd963e0305e3U,
  0xbe0f805b3c799150U, 0xbc15bd96bc799150U, 0xbcf99150bce09c61U, 0x3cc7a773bc15bd96U,
  0x3c15bd96bd22380dU, 0x3d09431fbbc7a773U, 0xbbc7a773bdffce8bU, 0xbce09c61bbc7a773U,
  0x3bc7a773bc15bd96U, 0xbdf35414bb47a773U, 0x3d9bfad2be929ef8U, 0xbbc7a77300000000U,
  0x3b47a773bce09c61U, 0xbc95bd963c15bd96U, 0xbcc7a773bbc7a773U, 0xbc47a7733caeb285U,
  0xbc15bd96bcc7a773U, 0xbc95bd96bcc7a773U, 0xbcc7a773bcf99150U, 0x3c15bd963c799150U,
  0x3bc7a7733c799150U, 0xbc79915000000000U, 0x3ce09c613db4efc0U, 0x3bc7a7733d47a773U,
  0xbc799150be09431fU, 0x3e2eb285bd47a773U, 0xbc47a773bcc7a773U, 0x3ce09c613caeb285U,
  0xbdd421ea3c95bd96U, 0xbd2eb2853bc7a773U, 0xbc15bd963c15bd96U, 0xbcaeb285bd2eb285U,
  0x3ce09c613caeb285U, 0xbc7991503bc7a773U, 0xbcc7a773bd3b2cfcU, 0x3bc7a7733bc7a773U,
  0xbc47a7733ce09c61U, 0x3bc7a773bc95bd96U, 0xbbc7a773bd22380dU, 0xbcf991503bc7a773U,
  0xbb47a773bc47a773U, 0xbe2556ab3caeb285U, 0x3df99150bb47a773U, 0x3cc7a773bc799150U,
  0xbce09c61bd89431fU, 0x3db4efc0bd8305e3U, 0xbc7991503d799150U, 0xbcaeb285bbc7a773U,
  0xbd609c61bd3b2cfcU, 0xbd15bd96bd3b2cfcU, 0x3d15bd96be34efc0U, 0x3c15bd963d2eb285U,
  0x3d09431f3d2eb285U, 0xbd15bd963cc7a773U, 0x3caeb285bd5421eaU, 0x3c7991503c95bd96U,
  0xbc47a773be6d16d9U, 0x3d3b2cfcbd5421eaU, 0xbc95bd963b47a773U, 0x3d8f805b3d8f805bU,
  0x3df35414bcc7a773U, 0xbd09431f3c47a773U, 0xbc15bd963b47a773U, 0xbd47a773be8f805bU,
  0xbe51034c3cc7a773U, 0xbcc7a7733bc7a773U, 0xbcf99150bd5421eaU, 0x3d22380dbd22380dU,
  0x3caeb285bd9bfad2U, 0x3bc7a773bd09431fU, 0x3c7991503e1bfad2U, 0x3bc7a773bcc7a773U,
  0xbc15bd96bc47a773U, 0x3e2556ab3ce09c61U, 0x3dffce8bbe9d8a21U, 0x3d09431f00000000U,
  0x3caeb2853d609c61U, 0xbd9bfad2bc799150U, 0xbcaeb285bb47a773U, 0x3c7991503bc7a773U,
  0xbbc7a773bcf99150U, 0xbc15bd96bc47a773U, 0xbb47a773be4de4afU, 0x3c7991503c95bd96U,
  0xbc79915000000000U, 0xbcc7a7733cc7a773U, 0xbbc7a773bd609c61U, 0xbbc7a773bdbb2cfcU,
  0x3b47a773be5a5f26U, 0x3d09431fbcaeb285U, 0xbc95bd96bc47a773U, 0x3c95bd96bc15bd96U,
  0xbd3b2cfc3d09431fU, 0xbb47a7733cf99150U, 0xbc15bd96bbc7a773U, 0xbbc7a773bc799150U,
  0x3e0624813c799150U, 0xbc47a7733bc7a773U, 0xbbc7a773bc95bd96U, 0x3bc7a7733c47a773U,
  0x3c47a7733bc7a773U, 0x3bc7a773bbc7a773U, 0xbb47a773bdf99150U, 0x3cc7a7733b47a773U,
  0xbc47a773bb47a773U, 0xbd09431f3c95bd96U, 0x3ded16d93daeb285U, 0xbc47a773U,
  0xbbc7a7733de09c61U, 0x3bc7a7733b47a773U, 0x3c95bd96bce09c61U, 0x3c47a7733bc7a773U,
  0x3c7991503d22380dU, 0x3caeb2853d15bd96U, 0xbdc16a373e15bd96U, 0xbc95bd96bd47a773U,
  0xbd09431f3bc7a773U, 0x3d2eb285bd15bd96U, 0x3bc7a7733df99150U, 0x3b47a7733cf99150U,
  0x3b47a773bd15bd96U, 0xbe0c61bd3caeb285U, 0x3d09431f3ce09c61U, 0xbce09c613bc7a773U,
  0x3d7991503d15bd96U, 0x3c95bd963cf99150U, 0xbcaeb285bc15bd96U, 0x3cf991503d47a773U,
  0xbdf35414bd22380dU, 0x3b47a773bc95bd96U, 0x3cc7a7733c15bd96U, 0xbce09c613d15bd96U,
  0xbc799150bd5421eaU, 0xbc47a7733d09431fU, 0x3c47a773bd2eb285U, 0x3d3b2cfc3d09431fU,
  0xbbc7a7733caeb285U, 0x3d89431fbcf99150U, 0xbd609c613c47a773U, 0xbd2eb2853ce09c61U,
  0xbbc7a7733d22380dU, 0xbe2875493ce09c61U, 0x3cc7a7733c95bd96U, 0x3ce09c613c47a773U,
  0x3c7991503c95bd96U, 0x3caeb2853cf99150U, 0x3c95bd96be47a773U, 0xbc47a773bcaeb285U,
  0xbce09c61bb47a773U, 0x3d15bd96bbc7a773U, 0xbcc7a7733c15bd96U, 0xbd09431fbe09431fU,
  0xbbc7a7733b47a773U, 0x3e062481bbc7a773U, 0x3cf99150bb47a773U, 0xbd09431fbd15bd96U,
  0x3e0c61bd3bc7a773U, 0x3ce09c61bc47a773U, 0x3b47a7733d47a773U, 0x3ce09c61bdffce8bU,
  0x3ded16d9bcc7a773U, 0x3d2eb285bcc7a773U, 0x3c95bd963c799150U, 0xbcf9915000000000U,
  0xbc47a7733c47a773U, 0xbcaeb2853d22380dU, 0xbbc7a7733e129ef8U, 0x3c15bd96U,
  0xbc47a7733cc7a773U, 0x3dffce8b3b47a773U, 0x3c47a7733ded16d9U, 0xbcc7a7733c799150U,
  0x3c15bd96bd89431fU, 0xbded16d93cc7a773U, 0x3b47a773bb47a773U, 0xbc7991503c95bd96U,
  0x3b47a773U, 0x3c15bd96bc95bd96U, 0xbb47a773bd09431fU, 0xbc95bd96bc15bd96U,
  0xbc15bd963c799150U, 0xbc47a773U, 0xbc15bd963e2b93e7U, 0xbd799150U,
  0xbbc7a7733daeb285U, 0x3e8305e33c799150U, 0xbb47a7733c799150U, 0xbc15bd9600000000U,
  0xbe15bd963d09431fU, 0xbc15bd963cf99150U, 0x3b47a773bc15bd96U, 0x3b47a773bc799150U,
  0xbe18dc343c799150U, 0x3c47a7733cc7a773U, 0x3c15bd963c799150U, 0xbc47a7733c15bd96U,
  0xbc799150U, 0xbb47a7733bc7a773U, 0xbc7991503de09c61U, 0xbc7991503bc7a773U,
  0xbbc7a773U, 0xbd95bd96bbc7a773U, 0xbd8f805bbe416a37U, 0xbc47a7733ce09c61U,
  0x3b47a77300000000U, 0xbc47a7733cf99150U, 0x3bc7a773bc799150U, 0x3c47a773bc15bd96U,
  0x3cc7a7733caeb285U, 0x3cc7a7733cf99150U, 0x3bc7a7733dda5f26U, 0xbc15bd96bbc7a773U,
  0x3b47a773bc799150U, 0x3c15bd96bcc7a773U, 0x3bc7a7733d95bd96U, 0x3cc7a7733ce09c61U,
  0xbc47a773bd8305e3U, 0x3d22380d3c799150U, 0x3c95bd963c95bd96U, 0xbd15bd96bc15bd96U,
  0xbd8305e3bcc7a773U, 0x3caeb285bb47a773U, 0xbb47a7733c15bd96U, 0x3c47a7733ce09c61U,
  0xbda87549bb47a773U, 0x3b47a7733c15bd96U, 0x3b47a7733caeb285U, 0xbbc7a77300000000U,
  0xbcc7a773bb47a773U, 0xbc7991503c47a773U, 0xbb47a773bd09431fU, 0x3c15bd963bc7a773U,
  0x3bc7a7733cc7a773U, 0xbd799150bc15bd96U, 0xbd799150U, 0xbce09c613c799150U,
  0xbc47a7733e862481U, 0x3e66d99d3d3b2cfcU, 0xbb47a773bc799150U, 0x3caeb285bb47a773U,
  0x3caeb2853c799150U, 0xbc7991503b47a773U, 0xbce09c61be4488d5U, 0x3bc7a773bbc7a773U,
  0xbc7991503c47a773U, 0x3c47a773bc47a773U, 0x3b47a7733c15bd96U, 0x3c7991503d9bfad2U,
  0xbc15bd96bd799150U, 0x3d89431f3c799150U, 0xbc47a773U, 0xbb47a773bb47a773U,
  0x3e7354143c47a773U, 0xbc47a7733cc7a773U, 0xbc95bd96bb47a773U, 0xbe5421eaU,
  0x3e8624813d15bd96U, 0x3caeb285U, 0x3b47a7733bc7a773U, 0xbcf991503caeb285U,
  0xbc799150bda87549U, 0x3bc7a773U, 0xbc15bd96bdc7a773U, 0xbd8f805b3ce09c61U,
  0xbc799150bbc7a773U, 0xbd3b2cfc3c799150U, 0xbde09c613e0f805bU, 0x3b47a773bc15bd96U,
  0x3bc7a773be062481U, 0xbe2b93e7bcc7a773U, 0xbbc7a7733c47a773U, 0x3c47a7733b47a773U,
  0xbd15bd96bc47a773U, 0xbc47a773bd3b2cfcU, 0x3cf991503ce09c61U, 0x3bc7a7733cf99150U,
  0x3cf99150bb47a773U, 0xbd22380d3cc7a773U, 0xbc95bd963d47a773U, 0x3caeb285bcf99150U,
  0x3bc7a773bdc7a773U, 0x3dbb2cfc3c15bd96U, 0xbcaeb285bc15bd96U, 0x3d15bd963c15bd96U,
  0xbe22380d3d15bd96U, 0xbd15bd963cc7a773U, 0xbc79915000000000U, 0xbcaeb285bc95bd96U,
  0xbdaeb2853c47a773U, 0xbcf991503ce09c61U, 0xbcc7a773bcf99150U, 0x3c799150bb47a773U,
  0x3c799150bcaeb285U, 0x3c47a773bc95bd96U, 0x3c799150bd22380dU, 0x3c799150bcf99150U,
  0xbc15bd96bc799150U, 0xbce09c613c799150U, 0x3c47a773bcc7a773U, 0x3cf99150bc15bd96U,
  0xbb47a7733e062481U, 0x3ea3c75c3c95bd96U, 0xbb47a773bc799150U, 0xbcc7a7733c799150U,
  0x3c15bd963c799150U, 0x3c7991503c95bd96U, 0xbd22380d3e3e4b9aU, 0xbce09c61U,
  0xbc47a773bc47a773U, 0x3d22380dbc15bd96U, 0xbc15bd96bdc16a37U, 0x3b47a7733e18dc34U,
  0xbbc7a773bd6d16d9U, 0xbe3b2cfc3b47a773U, 0x3c15bd963c15bd96U, 0xbcaeb285bbc7a773U,
  0xbc7991503bc7a773U, 0x3cc7a7733b47a773U, 0x3bc7a7733ce09c61U, 0x3c47a7733e7672b2U,
  0xbe0305e3bbc7a773U, 0xbcaeb285bcc7a773U, 0x3cf991503b47a773U, 0xbc799150U,
  0xbb47a773bd09431fU, 0xbb47a7733ce09c61U, 0xbe129ef8U, 0xbc95bd963bc7a773U,
  0x3cc7a7733caeb285U, 0xbdd421eabc799150U, 0xbded16d9bdda5f26U, 0xbc15bd9600000000U,
  0xbb47a7733d09431fU, 0x3d9bfad23ce09c61U, 0x3caeb285bc47a773U, 0x3b47a77300000000U,
  0x3c7991503c799150U, 0xbb47a7733b47a773U, 0x3b47a7733c15bd96U, 0xbbc7a773bbc7a773U,
  0xbc95bd963b47a773U, 0x3d09431fbce09c61U, 0x3bc7a773bd3b2cfcU, 0xbb47a7733c15bd96U,
  0xbc799150bdc7a773U, 0xbd799150bc15bd96U, 0x3ce09c61bc15bd96U, 0xbc799150bb47a773U,
  0xbc15bd96bc799150U, 0xbb47a77300000000U, 0x3b47a7733c15bd96U, 0x3c95bd96bc47a773U,
