
/**
  ******************************************************************************
  * @file    network_data.c
  * @author  AST Embedded Analytics Research Platform
  * @date    Thu Mar 17 11:46:05 2022
  * @brief   AI Tool Automatic Code Generator for Embedded NN computing
  ******************************************************************************
  * @attention
  *
  * Copyright (c) 2021 STMicroelectronics.
  * All rights reserved.
  *
  * This software is licensed under terms that can be found in the LICENSE file
  * in the root directory of this software component.
  * If no LICENSE file comes with this software, it is provided AS-IS.
  ******************************************************************************
  */
#include "network_data.h"
#include "ai_platform_interface.h"

AI_API_DECLARE_BEGIN

AI_ALIGNED(32)
const ai_u64 s_network_network_weights_array_u64[ 5082 ] = {
  0x0U, 0x0U, 0x0U, 0x0U,
  0x0U, 0x0U, 0x0U, 0x0U,
  0x0U, 0x0U, 0x0U, 0x0U,
  0x0U, 0x0U, 0x0U, 0x0U,
  0x0U, 0x0U, 0x0U, 0x0U,
  0x0U, 0x0U, 0x0U, 0x0U,
  0x0U, 0x0U, 0x0U, 0x0U,
  0x0U, 0x0U, 0x0U, 0x0U,
  0x0U, 0x0U, 0x0U, 0x0U,
  0x0U, 0x0U, 0x0U, 0x0U,
  0x0U, 0x0U, 0x0U, 0x0U,
  0x0U, 0x0U, 0x0U, 0x0U,
  0x0U, 0x0U, 0x0U, 0x0U,
  0x0U, 0x0U, 0x0U, 0x0U,
  0x0U, 0x0U, 0x0U, 0x0U,
  0x0U, 0x0U, 0x0U, 0x0U,
  0x0U, 0x0U, 0x0U, 0x0U,
  0x0U, 0x0U, 0x0U, 0x0U,
  0x0U, 0x0U, 0x0U, 0x0U,
  0x0U, 0x3e0eab0000000000U, 0x3dcf19423e921e9fU, 0x0U,
  0x0U, 0x0U, 0x0U, 0x0U,
  0x0U, 0x0U, 0x0U, 0x0U,
  0x0U, 0x0U, 0x0U, 0x0U,
  0x0U, 0x0U, 0x0U, 0x0U,
  0x0U, 0xbb134529bb134529U, 0xbc381673bb134529U, 0xbb134529bb134529U,
  0xbb934529bb934529U, 0xbb134529bb134529U, 0x0U, 0x0U,
  0x0U, 0x0U, 0x0U, 0x0U,
  0x0U, 0x0U, 0x0U, 0x0U,
  0x0U, 0x0U, 0x0U, 0x0U,
  0x0U, 0x0U, 0x0U, 0x0U,
  0x0U, 0x0U, 0x0U, 0x0U,
  0x0U, 0x0U, 0x0U, 0x0U,
  0x0U, 0x0U, 0x0U, 0x0U,
  0x0U, 0x0U, 0x0U, 0x0U,
  0x0U, 0x0U, 0x0U, 0x0U,
  0x0U, 0x0U, 0x0U, 0x0U,
  0x0U, 0x0U, 0x0U, 0x0U,
  0x0U, 0x0U, 0x0U, 0x0U,
  0x0U, 0x0U, 0x0U, 0x0U,
  0x0U, 0x0U, 0x0U, 0x0U,
  0x0U, 0x0U, 0x0U, 0x0U,
  0x0U, 0x0U, 0x0U, 0x0U,
  0x0U, 0x0U, 0x0U, 0x0U,
  0x0U, 0x0U, 0x0U, 0x0U,
  0x0U, 0x0U, 0x0U, 0x0U,
  0x0U, 0x0U, 0x0U, 0x0U,
  0x0U, 0x0U, 0x0U, 0x0U,
  0x0U, 0x0U, 0x0U, 0x0U,
  0x0U, 0x0U, 0x0U, 0x0U,
  0x0U, 0x0U, 0x0U, 0x0U,
  0x0U, 0x0U, 0x0U, 0x0U,
  0x0U, 0x0U, 0x0U, 0x0U,
  0x0U, 0x0U, 0x0U, 0x0U,
  0x0U, 0x0U, 0x0U, 0x0U,
  0x0U, 0x0U, 0x0U, 0x0U,
  0x0U, 0x0U, 0x0U, 0x0U,
  0x0U, 0x0U, 0x0U, 0x0U,
  0x0U, 0x0U, 0x0U, 0x0U,
  0x0U, 0x0U, 0x0U, 0x0U,
  0x0U, 0x0U, 0x0U, 0x0U,
  0x0U, 0x0U, 0x0U, 0x0U,
  0x0U, 0x0U, 0x0U, 0x0U,
  0x0U, 0x0U, 0x0U, 0x0U,
  0x0U, 0x0U, 0x0U, 0x0U,
  0x0U, 0x0U, 0x0U, 0x0U,
  0x0U, 0x0U, 0x0U, 0x0U,
  0x0U, 0x0U, 0x0U, 0x0U,
  0x0U, 0xbd00dc8400000000U, 0xbc381673bcef5063U, 0x0U,
  0x0U, 0x0U, 0x0U, 0x0U,
  0x0U, 0x3d25adce00000000U, 0x3b9345293b134529U, 0x3c5ce7be3b134529U,
  0x3c5ce7be3c5ce7beU, 0x3cca7f18U, 0x3d4a7f183b134529U, 0x3b1345293b134529U,
  0x3b1345293b134529U, 0x3d414ac63d134529U, 0x3b1345293b134529U, 0x3cef50633b134529U,
  0x3bdce7be3d25adceU, 0x3bdce7be3c934529U, 0x3d661c103b934529U, 0x3d1c797c3c5ce7beU,
  0x3bdce7be3b934529U, 0x3c9345293c80dc84U, 0x3cdce7be3d1c797cU, 0x3cca7f183cdce7beU,
  0x3b1345293bdce7beU, 0x3b134529U, 0x0U, 0x0U,
  0x0U, 0x0U, 0x0U, 0x0U,
  0x0U, 0x0U, 0x0U, 0x0U,
  0x0U, 0x0U, 0x0U, 0x0U,
  0x0U, 0x0U, 0x0U, 0x0U,
  0x0U, 0x0U, 0x0U, 0x0U,
  0x0U, 0x0U, 0x0U, 0x0U,
  0x0U, 0x0U, 0x0U, 0x0U,
  0x0U, 0x0U, 0x0U, 0x0U,
  0x0U, 0x0U, 0x0U, 0x0U,
  0x0U, 0x0U, 0x0U, 0x0U,
  0x0U, 0x0U, 0x0U, 0x0U,
  0x0U, 0x0U, 0x0U, 0x0U,
  0x0U, 0x0U, 0x0U, 0x0U,
  0x0U, 0x0U, 0x0U, 0x0U,
  0x0U, 0x0U, 0x0U, 0x0U,
  0x0U, 0x0U, 0x0U, 0x0U,
  0x0U, 0x0U, 0x0U, 0x0U,
  0x0U, 0x0U, 0x0U, 0x0U,
  0x0U, 0x0U, 0x0U, 0x0U,
  0x0U, 0x0U, 0x0U, 0x0U,
  0x0U, 0x0U, 0x0U, 0x0U,
  0x0U, 0x0U, 0x0U, 0x0U,
  0x0U, 0x0U, 0x0U, 0x0U,
  0x0U, 0x0U, 0x0U, 0x0U,
  0x0U, 0x0U, 0x0U, 0x0U,
  0x0U, 0x0U, 0x0U, 0x0U,
  0x0U, 0x0U, 0x0U, 0x0U,
  0x0U, 0x0U, 0x0U, 0x0U,
  0x0U, 0x0U, 0x0U, 0x0U,
  0x0U, 0x0U, 0x0U, 0x0U,
  0x0U, 0x0U, 0x0U, 0x0U,
  0x0U, 0x0U, 0x0U, 0x0U,
  0x0U, 0x0U, 0x0U, 0x0U,
  0x0U, 0x0U, 0x0U, 0x0U,
  0x0U, 0x0U, 0x0U, 0x0U,
  0x0U, 0x0U, 0x0U, 0x0U,
  0x0U, 0x0U, 0x0U, 0x0U,
  0x0U, 0x0U, 0x0U, 0x0U,
  0x0U, 0x0U, 0x0U, 0x0U,
  0x0U, 0x0U, 0x0U, 0x0U,
  0x0U, 0x0U, 0x0U, 0x0U,
  0x0U, 0x0U, 0x0U, 0x0U,
  0x0U, 0x0U, 0x0U, 0x0U,
  0x0U, 0x0U, 0x0U, 0x0U,
  0x0U, 0x0U, 0x0U, 0x0U,
  0x0U, 0x0U, 0x0U, 0x0U,
  0x0U, 0x0U, 0x0U, 0x0U,
  0x0U, 0x0U, 0x0U, 0x0U,
  0x0U, 0x0U, 0x0U, 0x0U,
  0x0U, 0x0U, 0x0U, 0x0U,
  0x0U, 0x0U, 0x0U, 0x0U,
  0x0U, 0x0U, 0x0U, 0x0U,
  0x0U, 0x0U, 0x0U, 0x0U,
  0x0U, 0x0U, 0x0U, 0x0U,
  0x0U, 0x0U, 0x0U, 0x0U,
  0x0U, 0x0U, 0x0U, 0x0U,
  0x0U, 0xbc93452900000000U, 0xbb134529bc80dc84U, 0x0U,
  0x0U, 0x0U, 0x0U, 0x0U,
  0x0U, 0x0U, 0x3b1345293b134529U, 0x3b1345293d381673U,
  0x3b9345293b134529U, 0x3cb81673U, 0x3c381673U, 0x3c3816733d00dc84U,
  0x3c9345293b934529U, 0x3b1345293b134529U, 0x3d00dc843ca5adceU, 0x3c80dc843bdce7beU,
  0x3c5ce7be3bdce7beU, 0x3d1c797c3c934529U, 0x3c80dc843b934529U, 0x3bdce7be3d2ee221U,
  0x3c5ce7be3bdce7beU, 0x3d00dc843cdce7beU, 0x3cb816733c80dc84U, 0x3bdce7be3c934529U,
  0x3b1345293b934529U, 0x0U, 0x0U, 0x0U,
  0x0U, 0x0U, 0x0U, 0x0U,
  0x0U, 0x0U, 0x0U, 0x0U,
  0x0U, 0x0U, 0x0U, 0x0U,
  0x0U, 0x0U, 0x0U, 0x0U,
  0x0U, 0x0U, 0x0U, 0x0U,
  0x3ca5adce3c80dc84U, 0x3c80dc843c934529U, 0x3cef50633c5ce7beU, 0x3c9345293c5ce7beU,
  0x3c5ce7be3cb81673U, 0x3c9345293b134529U, 0x3cca7f1800000000U, 0x3c3816733c5ce7beU,
  0x3c934529U, 0x0U, 0x0U, 0x3b13452900000000U,
  0x0U, 0xbe661c10bb134529U, 0xbb134529be27fae3U, 0x0U,
  0x0U, 0x3bdce7be00000000U, 0x0U, 0x3bdce7be3b134529U,
  0x0U, 0x3bdce7be00000000U, 0x3b13452900000000U, 0x3b93452900000000U,
  0x3b1345293b134529U, 0x3b13452900000000U, 0x3b1345293b934529U, 0x3b134529U,
  0x3b1345293bdce7beU, 0x3b93452900000000U, 0x3b1345293b934529U, 0x3b9345293b134529U,
  0x3b9345293b134529U, 0x3b1345293b134529U, 0x3b1345293b134529U, 0x3b1345293b134529U,
  0x3b9345293b134529U, 0x3b9345293b134529U, 0x3bdce7be3b934529U, 0x3b9345293b134529U,
  0x3c1345293b934529U, 0x3b1345293bdce7beU, 0x3b9345293c134529U, 0x3b1345293c381673U,
  0x3bdce7beU, 0x3c1345293c934529U, 0x3c80dc843bdce7beU, 0x3d00dc843bdce7beU,
  0x3ca5adce3b934529U, 0x3bdce7be3c934529U, 0x3c5ce7be3d134529U, 0x3ca5adce3c5ce7beU,
  0x3c3816733cca7f18U, 0x3c9345293c934529U, 0x3c5ce7be3c80dc84U, 0x3ca5adce3c5ce7beU,
  0x3c381673U, 0x3b1345293c381673U, 0x3c5ce7be3b134529U, 0x3c80dc843c934529U,
  0x3c80dc843c381673U, 0x3bdce7be3ca5adceU, 0x3ca5adce3c5ce7beU, 0x3bdce7be3ca5adceU,
  0xbcef5063bc80dc84U, 0xbc381673bc80dc84U, 0xbcb81673bc934529U, 0xbcef5063bc5ce7beU,
  0xbcef5063bca5adceU, 0xbc5ce7bebc5ce7beU, 0xbcb81673bc381673U, 0xbcb81673bc5ce7beU,
  0xbb134529bc134529U, 0x3d00dc8400000000U, 0x3c134529U, 0x3d13452900000000U,
  0x3c381673U, 0xbdca7f1800000000U, 0xbcb81673bd9c797cU, 0x0U,
  0x3c5ce7be3c934529U, 0x3bdce7be3b934529U, 0x3c5ce7be3c5ce7beU, 0x3c3816733b934529U,
  0x3c1345293c381673U, 0x3c381673U, 0x3b1345293c134529U, 0x3bdce7be00000000U,
  0x3bdce7be3b134529U, 0x0U, 0x3c134529U, 0x3b9345293b134529U,
  0x3b1345293c5ce7beU, 0x3b1345293b134529U, 0x3b1345293bdce7beU, 0x3b1345293c381673U,
  0x3c5ce7be3b134529U, 0x3b1345293b134529U, 0x3b9345293b134529U, 0x3b9345293bdce7beU,
  0x3b1345293c381673U, 0x3b1345293c134529U, 0x3b1345293b134529U, 0x3c3816733c134529U,
  0x3cca7f183c80dc84U, 0x3d00dc843cca7f18U, 0x3cef50633cef5063U, 0x3cdce7be3cca7f18U,
  0x3d1345293d2ee221U, 0x3c5ce7beU, 0x0U, 0xbca5adcebcb81673U,
  0xbc5ce7bebc934529U, 0xbc934529bcdce7beU, 0xbcb81673bcdce7beU, 0xbca5adcebc934529U,
  0xbca5adcebcdce7beU, 0xbc381673bc934529U, 0xbbdce7bebcef5063U, 0xbcb81673bc5ce7beU,
  0xbcb81673bcdce7beU, 0xbcef5063bc5ce7beU, 0xbca5adcebc80dc84U, 0xbc934529bc934529U,
  0xbb934529bc381673U, 0xbc80dc84bc5ce7beU, 0xbcdce7bebcdce7beU, 0xbc934529bc80dc84U,
  0x0U, 0x0U, 0x0U, 0x0U,
  0x0U, 0x0U, 0x0U, 0x0U,
  0x0U, 0x0U, 0x0U, 0x0U,
  0x0U, 0x0U, 0x0U, 0x0U,
  0x0U, 0x0U, 0x0U, 0x0U,
  0x0U, 0x0U, 0x0U, 0x0U,
  0x0U, 0x0U, 0x0U, 0x0U,
  0x0U, 0x0U, 0x0U, 0x0U,
  0x0U, 0x0U, 0x0U, 0x0U,
  0x0U, 0x0U, 0x0U, 0x0U,
  0x0U, 0x0U, 0x0U, 0x0U,
  0x0U, 0x0U, 0x0U, 0x0U,
  0x0U, 0x0U, 0x0U, 0x0U,
  0x0U, 0x0U, 0x0U, 0x0U,
  0x0U, 0x0U, 0x0U, 0x0U,
  0x0U, 0x0U, 0x0U, 0x0U,
  0x0U, 0x0U, 0x0U, 0x0U,
  0x0U, 0x0U, 0x0U, 0x0U,
  0x0U, 0x0U, 0x0U, 0x0U,
  0x0U, 0xbe134529bb134529U, 0xbe381673be4f1942U, 0x0U,
  0x0U, 0x0U, 0x0U, 0x0U,
  0x0U, 0x0U, 0x0U, 0x0U,
  0x0U, 0x0U, 0x0U, 0x0U,
  0x0U, 0x0U, 0x0U, 0x3b13452900000000U,
  0x3b1345293b134529U, 0x3b1345293b134529U, 0x3b1345293b134529U, 0x3bdce7be3b134529U,
  0x3b13452900000000U, 0x3b134529U, 0x0U, 0x0U,
  0x0U, 0x0U, 0x0U, 0x0U,
  0x0U, 0x0U, 0x0U, 0x0U,
  0x0U, 0x0U, 0x0U, 0x0U,
  0x0U, 0x0U, 0x0U, 0x0U,
  0x0U, 0x0U, 0x0U, 0x0U,
  0x0U, 0x0U, 0x0U, 0x0U,
  0x0U, 0x0U, 0x0U, 0x0U,
  0x0U, 0x0U, 0x0U, 0x0U,
  0x0U, 0x0U, 0x0U, 0x0U,
  0x0U, 0x0U, 0x0U, 0x0U,
  0x0U, 0x0U, 0x0U, 0x0U,
  0x0U, 0x0U, 0x0U, 0x0U,
  0x0U, 0x0U, 0x0U, 0x0U,
  0x0U, 0x0U, 0x0U, 0x0U,
  0x0U, 0x0U, 0x0U, 0x0U,
  0x0U, 0x0U, 0x0U, 0x0U,
  0x0U, 0x0U, 0x0U, 0x0U,
  0x0U, 0x0U, 0x0U, 0x0U,
  0x0U, 0x0U, 0x0U, 0x0U,
  0x0U, 0x0U, 0x0U, 0x0U,
  0x0U, 0x0U, 0x0U, 0x0U,
  0x0U, 0x0U, 0x0U, 0x0U,
  0x0U, 0x0U, 0x0U, 0x0U,
  0x0U, 0x0U, 0x0U, 0x0U,
  0x0U, 0x0U, 0x0U, 0x0U,
  0x0U, 0x0U, 0x0U, 0x0U,
  0x0U, 0x0U, 0x0U, 0x0U,
  0x0U, 0x0U, 0x0U, 0x0U,
  0x0U, 0x0U, 0x0U, 0x0U,
  0x0U, 0x0U, 0x0U, 0x0U,
  0x0U, 0x0U, 0x0U, 0x0U,
  0x0U, 0x0U, 0x0U, 0x0U,
  0x0U, 0x0U, 0x0U, 0x0U,
  0x0U, 0x0U, 0x0U, 0x0U,
  0x0U, 0x0U, 0x0U, 0x0U,
  0x0U, 0x0U, 0x0U, 0x0U,
  0x0U, 0x0U, 0x0U, 0x0U,
  0x0U, 0x0U, 0x0U, 0x0U,
  0x0U, 0x0U, 0x0U, 0x0U,
  0x0U, 0x0U, 0x0U, 0x0U,
  0x0U, 0x0U, 0x0U, 0x0U,
  0x0U, 0x0U, 0x0U, 0x0U,
  0x0U, 0x0U, 0x0U, 0x0U,
  0x0U, 0x0U, 0x0U, 0x0U,
  0x0U, 0x0U, 0x0U, 0x0U,
  0x0U, 0x0U, 0x0U, 0x0U,
  0x0U, 0x0U, 0x0U, 0x0U,
  0x0U, 0x0U, 0x0U, 0x0U,
  0x0U, 0x0U, 0x0U, 0x0U,
  0x0U, 0x0U, 0x0U, 0x0U,
  0x0U, 0x0U, 0x0U, 0x0U,
  0x0U, 0x0U, 0x0U, 0x0U,
  0x0U, 0x0U, 0x0U, 0x0U,
  0x0U, 0x0U, 0x0U, 0x0U,
  0x0U, 0x0U, 0x0U, 0x0U,
  0x0U, 0x0U, 0x0U, 0x0U,
  0x0U, 0x0U, 0x0U, 0x0U,
  0x0U, 0x0U, 0x0U, 0x0U,
  0x0U, 0x0U, 0x0U, 0x0U,
  0x0U, 0x0U, 0x0U, 0x0U,
  0x0U, 0x0U, 0x0U, 0x0U,
  0x0U, 0x0U, 0x0U, 0x0U,
  0x0U, 0x0U, 0x0U, 0x0U,
  0x0U, 0x0U, 0x0U, 0x0U,
  0x0U, 0x0U, 0x0U, 0x0U,
  0x0U, 0x0U, 0x0U, 0x0U,
  0x0U, 0x0U, 0x0U, 0x0U,
  0x0U, 0x0U, 0x0U, 0x0U,
  0x0U, 0x0U, 0x0U, 0x0U,
  0x0U, 0x0U, 0x0U, 0x0U,
  0x3b1345293b134529U, 0x3b1345293b934529U, 0x3b1345293b934529U, 0x3b1345293b134529U,
  0x3c1345293b934529U, 0x3c134529U, 0x3b13452900000000U, 0x3b1345293b134529U,
  0x3c5ce7beU, 0xbe312f3500000000U, 0xbbdce7bebe414ac6U, 0xbe560080bbdce7beU,
  0xbe337c4aU, 0x3e4ccc2d00000000U, 0x3d661c103e27fae3U, 0x0U,
  0x0U, 0x0U, 0x0U, 0x0U,
  0x0U, 0x0U, 0x0U, 0x0U,
  0x0U, 0x0U, 0x0U, 0x0U,
  0x0U, 0x0U, 0x0U, 0x0U,
  0x0U, 0x0U, 0x0U, 0x0U,
  0x0U, 0x0U, 0x0U, 0x0U,
  0x0U, 0x0U, 0x0U, 0x0U,
  0x0U, 0x3b13452900000000U, 0x0U, 0x3b1345293b134529U,
  0x0U, 0x3c381673U, 0x3b1345293b134529U, 0x3b1345293b134529U,
  0x3b1345293b134529U, 0x3b1345293b134529U, 0x3b1345293b134529U, 0x3b1345293b134529U,
  0x3b1345293b134529U, 0x3b93452900000000U, 0x3b1345293b134529U, 0x3bdce7be3b134529U,
  0x3c1345293c5ce7beU, 0x3b1345293b134529U, 0x3bdce7be3b134529U, 0x3b9345293bdce7beU,
  0x0U, 0x0U, 0x0U, 0x0U,
  0x0U, 0x0U, 0x0U, 0x0U,
  0x0U, 0x0U, 0x0U, 0x0U,
  0x0U, 0x0U, 0x0U, 0x0U,
  0x0U, 0x0U, 0x0U, 0x0U,
  0x0U, 0x0U, 0x0U, 0x0U,
  0x0U, 0x0U, 0x0U, 0x0U,
  0x0U, 0x0U, 0x0U, 0x0U,
  0x0U, 0x0U, 0x0U, 0x0U,
  0x0U, 0x0U, 0x0U, 0x0U,
  0x0U, 0x0U, 0x0U, 0x0U,
  0x0U, 0x0U, 0x0U, 0x0U,
  0x0U, 0x0U, 0x0U, 0x0U,
  0x0U, 0x0U, 0x0U, 0x0U,
  0x0U, 0x0U, 0x0U, 0x0U,
  0x0U, 0x0U, 0x0U, 0x0U,
  0x0U, 0x0U, 0x0U, 0x0U,
  0x0U, 0x0U, 0x0U, 0x0U,
  0x0U, 0x0U, 0x0U, 0x0U,
  0x0U, 0xbe1c797c00000000U, 0xbd8a10d6be921e9fU, 0x0U,
  0x0U, 0x0U, 0x0U, 0x0U,
  0x0U, 0x0U, 0x0U, 0x0U,
  0x0U, 0x0U, 0x0U, 0x0U,
  0x0U, 0x0U, 0x0U, 0x0U,
  0x0U, 0x0U, 0x0U, 0x0U,
  0x0U, 0x0U, 0x0U, 0x0U,
  0x0U, 0x0U, 0x0U, 0x0U,
  0x0U, 0x0U, 0x0U, 0x0U,
  0x0U, 0x0U, 0x0U, 0x0U,
  0x0U, 0x0U, 0x0U, 0x0U,
  0x0U, 0x0U, 0x0U, 0x0U,
  0x0U, 0x0U, 0x0U, 0x0U,
  0x0U, 0x0U, 0x0U, 0x0U,
  0x0U, 0x0U, 0x0U, 0x0U,
  0x0U, 0x0U, 0x0U, 0x0U,
  0x0U, 0x0U, 0x0U, 0x0U,
  0x0U, 0x0U, 0x0U, 0x0U,
  0x0U, 0x0U, 0x0U, 0x0U,
  0x0U, 0x0U, 0x0U, 0x0U,
  0x0U, 0x0U, 0x0U, 0x0U,
  0x0U, 0x0U, 0x0U, 0x0U,
  0x0U, 0x0U, 0x0U, 0x0U,
  0x0U, 0x0U, 0x0U, 0x0U,
  0x0U, 0x0U, 0x0U, 0x0U,
  0x0U, 0x0U, 0x0U, 0x0U,
  0x0U, 0x0U, 0x0U, 0x0U,
  0x0U, 0x0U, 0x0U, 0x0U,
  0x0U, 0x0U, 0x0U, 0x0U,
  0x0U, 0x0U, 0x0U, 0x0U,
  0x0U, 0x0U, 0x0U, 0x0U,
  0x0U, 0x0U, 0x0U, 0x0U,
  0x0U, 0x0U, 0x0U, 0x0U,
  0x0U, 0x0U, 0x0U, 0x0U,
  0x0U, 0x0U, 0x0U, 0x0U,
  0x0U, 0x0U, 0x0U, 0x0U,
  0x0U, 0x0U, 0x0U, 0x0U,
  0x0U, 0x0U, 0x0U, 0x0U,
  0x0U, 0x0U, 0x0U, 0x0U,
  0x0U, 0x0U, 0x0U, 0x0U,
  0x0U, 0x0U, 0x0U, 0x0U,
  0x0U, 0x0U, 0x0U, 0x0U,
  0x0U, 0x0U, 0x0U, 0x0U,
  0x0U, 0x0U, 0x0U, 0x0U,
  0x0U, 0x0U, 0x0U, 0x0U,
  0x0U, 0x0U, 0x0U, 0x0U,
  0x0U, 0x0U, 0x0U, 0x0U,
  0x0U, 0x0U, 0x0U, 0x0U,
  0x0U, 0x0U, 0x0U, 0x0U,
  0x0U, 0x0U, 0x0U, 0x0U,
  0x0U, 0x0U, 0x0U, 0x0U,
  0x0U, 0x0U, 0x0U, 0x0U,
  0x0U, 0x0U, 0x0U, 0x0U,
  0x0U, 0x0U, 0x0U, 0x0U,
  0x0U, 0x0U, 0x0U, 0x0U,
  0x0U, 0x0U, 0x0U, 0x0U,
  0x0U, 0x0U, 0x0U, 0x0U,
  0x0U, 0x0U, 0x0U, 0x0U,
  0x0U, 0x0U, 0x0U, 0x0U,
  0x0U, 0x0U, 0x0U, 0x0U,
  0x0U, 0x0U, 0x0U, 0x0U,
  0x0U, 0x0U, 0x0U, 0x0U,
  0x0U, 0x0U, 0x0U, 0x0U,
  0x0U, 0x0U, 0x0U, 0x0U,
  0x0U, 0x0U, 0x0U, 0x0U,
  0x0U, 0x0U, 0x0U, 0x0U,
  0x0U, 0x0U, 0x0U, 0x0U,
  0x0U, 0x0U, 0x0U, 0x0U,
  0x0U, 0x0U, 0x0U, 0x0U,
  0x0U, 0x0U, 0x0U, 0x0U,
  0x0U, 0x0U, 0x0U, 0x0U,
  0x0U, 0x0U, 0x0U, 0x0U,
  0x0U, 0x0U, 0x0U, 0x0U,
  0x0U, 0x0U, 0x0U, 0x0U,
  0x0U, 0x0U, 0x0U, 0x0U,
  0x0U, 0x0U, 0x0U, 0x0U,
  0x0U, 0x0U, 0x0U, 0x0U,
  0x0U, 0x0U, 0x0U, 0x0U,
  0x0U, 0x0U, 0x0U, 0x0U,
  0x0U, 0x0U, 0x0U, 0x0U,
  0x0U, 0x3ca5adce00000000U, 0x3b9345293ca5adceU, 0x0U,
  0x0U, 0x0U, 0x0U, 0x0U,
  0x0U, 0xbb13452900000000U, 0xbca5adcebbdce7beU, 0xbc38167300000000U,
  0xbc134529bc381673U, 0xbd1c797c00000000U, 0xbb134529bb134529U, 0xbcb81673bbdce7beU,
  0xbcef5063bb134529U, 0xbb934529bb134529U, 0xbc934529bca5adceU, 0xbc5ce7bebc134529U,
  0xbb134529bc134529U, 0xbd0a10d6U, 0xbb134529bd2ee221U, 0xbb934529bc134529U,
  0xbd8eab00bbdce7beU, 0xbca5adcebc134529U, 0xbd00dc84bbdce7beU, 0xbd25adcebc80dc84U,
  0xbb934529bbdce7beU, 0xbb134529U, 0x0U, 0x0U,
  0x0U, 0x0U, 0x0U, 0x0U,
  0x0U, 0x0U, 0x0U, 0x0U,
  0x0U, 0x0U, 0x0U, 0x0U,
  0x0U, 0x0U, 0x0U, 0x0U,
  0x0U, 0x0U, 0x0U, 0x0U,
  0x0U, 0x0U, 0x0U, 0x0U,
  0x0U, 0x0U, 0x0U, 0x0U,
  0x0U, 0x0U, 0x0U, 0x0U,
  0x0U, 0x0U, 0x0U, 0x0U,
  0x0U, 0x0U, 0x0U, 0x0U,
  0x0U, 0x0U, 0x0U, 0x0U,
  0x0U, 0x0U, 0x0U, 0x0U,
  0x0U, 0x0U, 0x0U, 0x0U,
  0x0U, 0x0U, 0x0U, 0x0U,
  0x0U, 0x0U, 0x0U, 0x0U,
  0x0U, 0x0U, 0x0U, 0x0U,
  0x0U, 0x0U, 0x0U, 0x0U,
  0x0U, 0x0U, 0x0U, 0x0U,
  0x0U, 0x0U, 0x0U, 0x0U,
  0x0U, 0x0U, 0x0U, 0x0U,
  0x0U, 0x0U, 0x0U, 0x0U,
  0x0U, 0x0U, 0x0U, 0x0U,
  0x0U, 0x0U, 0x0U, 0x0U,
  0x0U, 0x0U, 0x0U, 0x0U,
  0x0U, 0x0U, 0x0U, 0x0U,
  0x0U, 0x0U, 0x0U, 0x0U,
  0x0U, 0x0U, 0x0U, 0x0U,
  0x0U, 0x0U, 0x0U, 0x0U,
  0x0U, 0x0U, 0x0U, 0x0U,
  0x0U, 0x0U, 0x0U, 0x0U,
  0x0U, 0x0U, 0x0U, 0x0U,
  0x0U, 0x0U, 0x0U, 0x0U,
  0x0U, 0x0U, 0x0U, 0x0U,
  0x0U, 0x0U, 0x0U, 0x0U,
  0x0U, 0x0U, 0x0U, 0x0U,
  0x0U, 0x0U, 0x0U, 0x0U,
  0x0U, 0x0U, 0x0U, 0x0U,
  0x0U, 0x0U, 0x0U, 0x0U,
  0x0U, 0x0U, 0x0U, 0x0U,
  0x0U, 0x0U, 0x0U, 0x0U,
  0x0U, 0x0U, 0x0U, 0x0U,
  0x0U, 0x0U, 0x0U, 0x0U,
  0x0U, 0x0U, 0x0U, 0x0U,
  0x0U, 0x0U, 0x0U, 0x0U,
  0x0U, 0x0U, 0x0U, 0x0U,
  0x0U, 0x0U, 0x0U, 0x0U,
  0x0U, 0x0U, 0x0U, 0x0U,
  0x0U, 0x0U, 0x0U, 0x0U,
  0x0U, 0x0U, 0x0U, 0x0U,
  0x0U, 0x0U, 0x0U, 0x0U,
  0x0U, 0x0U, 0x0U, 0x0U,
  0x0U, 0x0U, 0x0U, 0x0U,
  0x0U, 0x0U, 0x0U, 0x0U,
  0x0U, 0x0U, 0x0U, 0x0U,
  0x0U, 0x0U, 0x0U, 0x0U,
  0x0U, 0x0U, 0x0U, 0x0U,
  0x0U, 0x0U, 0x0U, 0x0U,
  0x0U, 0x0U, 0x0U, 0x0U,
  0x0U, 0x0U, 0x0U, 0x0U,
  0x0U, 0x0U, 0x0U, 0x0U,
  0x0U, 0x0U, 0x0U, 0x0U,
  0x0U, 0x0U, 0x0U, 0x0U,
  0x0U, 0x0U, 0x0U, 0x0U,
  0x0U, 0x0U, 0x0U, 0x0U,
  0x0U, 0x0U, 0x0U, 0x0U,
  0x0U, 0x0U, 0x0U, 0x0U,
  0x0U, 0x0U, 0x0U, 0x0U,
  0x0U, 0x0U, 0x0U, 0x0U,
  0x0U, 0x0U, 0x0U, 0x0U,
  0x0U, 0x0U, 0x0U, 0x0U,
  0x0U, 0x0U, 0x0U, 0x0U,
  0x0U, 0x0U, 0x0U, 0x0U,
  0x0U, 0xbe584d94bb134529U, 0xbd414ac6be7884b5U, 0xbb134529U,
  0x0U, 0x0U, 0x0U, 0x0U,
  0x0U, 0x0U, 0x0U, 0x0U,
  0x0U, 0x0U, 0x0U, 0x0U,
  0x0U, 0x0U, 0x0U, 0x0U,
  0x0U, 0x0U, 0x0U, 0x0U,
  0x3b1345293b134529U, 0x3b13452900000000U, 0x0U, 0x0U,
  0x0U, 0x3b1345293b134529U, 0x3b1345293b134529U, 0x0U,
  0x0U, 0x0U, 0x0U, 0x0U,
  0x0U, 0x0U, 0x0U, 0x0U,
  0x0U, 0x0U, 0x0U, 0x0U,
  0x0U, 0x0U, 0x0U, 0x0U,
  0x0U, 0x0U, 0x0U, 0x0U,
  0x0U, 0x0U, 0x0U, 0x0U,
  0x0U, 0x0U, 0x0U, 0x0U,
  0x0U, 0x0U, 0x0U, 0x0U,
  0x0U, 0x0U, 0x0U, 0x0U,
  0x0U, 0x0U, 0x0U, 0x0U,
  0x0U, 0x0U, 0x0U, 0x0U,
  0x0U, 0x0U, 0x0U, 0x0U,
  0x0U, 0x0U, 0x0U, 0x0U,
  0x0U, 0x0U, 0x0U, 0x0U,
  0x0U, 0x0U, 0x0U, 0x0U,
  0x0U, 0x0U, 0x0U, 0x0U,
  0x0U, 0x0U, 0x0U, 0x0U,
  0x0U, 0x0U, 0x0U, 0x0U,
  0x0U, 0x0U, 0x0U, 0x0U,
  0x0U, 0x0U, 0x0U, 0x0U,
  0x0U, 0x0U, 0x0U, 0x0U,
  0x0U, 0x0U, 0x0U, 0x0U,
  0x0U, 0x0U, 0x0U, 0x0U,
  0x0U, 0x0U, 0x0U, 0x0U,
  0x0U, 0x0U, 0x0U, 0x0U,
  0x0U, 0x0U, 0x0U, 0x0U,
  0x0U, 0x0U, 0x0U, 0x0U,
  0x0U, 0x0U, 0x0U, 0x0U,
  0x0U, 0x0U, 0x0U, 0x0U,
  0x0U, 0x0U, 0x0U, 0x0U,
  0x0U, 0x0U, 0x0U, 0x0U,
  0x0U, 0x0U, 0x0U, 0x0U,
  0x0U, 0x0U, 0x0U, 0x0U,
  0x0U, 0x0U, 0x0U, 0x0U,
  0x0U, 0x0U, 0x0U, 0x0U,
  0x0U, 0x0U, 0x0U, 0x0U,
  0x0U, 0x0U, 0x0U, 0x0U,
  0xbe88ae4f3a1565c4U, 0xb806be20ba817fb3U, 0xba96e5c4bd217982U, 0x3adb91953a8007a4U,
  0x3e187badbd11a293U, 0x3a9a7c183bccdcbbU, 0xbaaec5c73e880597U, 0x3acc8c713a9fd3b1U,
  0xbc1b4f0bb9c33f58U, 0x3e85e204baac88b0U, 0xb9804bedba5f3730U, 0xba0397aeba217baeU,
  0x3a95ec8a3d0c236bU, 0x3b13ea15b98bf626U, 0x3e831398ba7a70deU, 0xbac108dcb99a0b71U,
  0x0U, 0x0U, 0x0U, 0x0U,
  0x0U, 0x0U, 0x0U, 0x0U,
  0x0U, 0x0U, 0x0U, 0x0U,
  0x0U, 0x0U, 0x0U, 0x0U,
  0x0U, 0x0U, 0x0U, 0x0U,
  0x0U, 0x0U, 0x0U, 0x0U,
  0x0U, 0x0U, 0x0U, 0x0U,
  0x0U, 0x0U, 0x0U, 0x0U,
  0x0U, 0x0U, 0x0U, 0x0U,
  0x0U, 0x0U, 0x0U, 0x0U,
  0x0U, 0x0U, 0x0U, 0x0U,
  0x0U, 0x0U, 0x0U, 0x0U,
  0x0U, 0x0U, 0x0U, 0x0U,
  0x0U, 0x0U, 0x0U, 0x0U,
  0x0U, 0x0U, 0x0U, 0x0U,
  0x0U, 0x0U, 0x0U, 0x0U,
  0x0U, 0x0U, 0xbceb1499U, 0x0U,
  0xbceb1499U, 0xbe9cb866U, 0x0U, 0x0U,
  0x0U, 0x0U, 0x0U, 0x0U,
  0x3e1cb866U, 0x0U, 0x0U, 0x0U,
  0x0U, 0x0U, 0x0U, 0x0U,
  0x3dc3e680U, 0x3ebf00bcU, 0x0U, 0x0U,
  0x0U, 0x0U, 0x0U, 0x0U,
  0xbdb04f73U, 0x0U, 0x0U, 0x0U,
  0x0U, 0x0U, 0x0U, 0x0U,
  0x0U, 0x0U, 0x0U, 0x0U,
  0x0U, 0x0U, 0x0U, 0x0U,
  0x0U, 0x0U, 0x0U, 0x0U,
  0x0U, 0x0U, 0x0U, 0x0U,
  0x0U, 0x0U, 0x0U, 0x0U,
  0x0U, 0x0U, 0x0U, 0x0U,
  0x0U, 0x0U, 0x0U, 0x0U,
  0x0U, 0x0U, 0x0U, 0x0U,
  0x0U, 0x0U, 0x0U, 0x0U,
  0x0U, 0x0U, 0x0U, 0x0U,
  0x0U, 0x0U, 0x0U, 0x0U,
  0x0U, 0x0U, 0xbea19e29U, 0x0U,
  0x0U, 0x0U, 0x0U, 0x0U,
  0x0U, 0x0U, 0x0U, 0x0U,
  0x0U, 0x0U, 0x0U, 0x0U,
  0x0U, 0x0U, 0x0U, 0x0U,
  0x0U, 0x0U, 0x0U, 0x0U,
  0x0U, 0x0U, 0x0U, 0x0U,
  0x0U, 0x0U, 0x0U, 0x0U,
  0xbe6b149900000000U, 0x0U, 0x0U, 0x0U,
  0x3dfeaba600000000U, 0x0U, 0x0U, 0x0U,
  0x0U, 0x3d6b149900000000U, 0x0U, 0x0U,
  0x0U, 0x0U, 0x3dd77d8c00000000U, 0x0U,
  0x0U, 0x0U, 0x0U, 0x0U,
  0x0U, 0x0U, 0x0U, 0x0U,
  0xbf9b7ef500000000U, 0x0U, 0x0U, 0x0U,
  0x0U, 0x0U, 0x0U, 0x0U,
  0x0U, 0x0U, 0x3e7eaba6U, 0x0U,
  0x3ceb1499U, 0x0U, 0x0U, 0x0U,
  0x0U, 0x0U, 0x0U, 0x0U,
  0xbd43e680U, 0x0U, 0x0U, 0x0U,
  0x0U, 0x0U, 0x0U, 0x0U,
  0x0U, 0x0U, 0x0U, 0x0U,
  0x0U, 0x0U, 0x0U, 0x0U,
  0x0U, 0x0U, 0x0U, 0x0U,
  0x0U, 0x0U, 0x0U, 0x0U,
  0x3d6b1499U, 0x3ea19e29U, 0x0U, 0x0U,
  0x0U, 0x0U, 0x0U, 0x0U,
  0xbe12ece0U, 0x0U, 0x0U, 0x0U,
  0x0U, 0x0U, 0x0U, 0x0U,
  0x0U, 0x0U, 0x0U, 0x0U,
  0x0U, 0x0U, 0x0U, 0x0U,
  0x0U, 0x0U, 0x0U, 0x0U,
  0x0U, 0x0U, 0x0U, 0x0U,
  0x0U, 0x0U, 0x0U, 0x0U,
  0x0U, 0x0U, 0x0U, 0x0U,
  0x0U, 0x0U, 0x0U, 0x0U,
  0x0U, 0x0U, 0x0U, 0x0U,
  0x0U, 0x0U, 0x0U, 0x0U,
  0x0U, 0x0U, 0x0U, 0x0U,
  0x0U, 0x0U, 0x0U, 0x0U,
  0x0U, 0x0U, 0x0U, 0x0U,
  0x0U, 0x0U, 0x0U, 0x0U,
  0x0U, 0x0U, 0x0U, 0x0U,
  0x0U, 0x0U, 0x0U, 0x0U,
  0x3d9cb86600000000U, 0x0U, 0x0U, 0x0U,
  0xbdfeaba600000000U, 0x0U, 0xbe577d8cU, 0x0U,
  0x0U, 0xbdeb149900000000U, 0x0U, 0x0U,
  0x0U, 0x0U, 0xbc1cb86600000000U, 0x0U,
  0x0U, 0x0U, 0x0U, 0x0U,
  0x0U, 0x0U, 0x0U, 0x0U,
  0x0U, 0x0U, 0x0U, 0x0U,
  0x0U, 0x0U, 0x0U, 0x0U,
  0x0U, 0x0U, 0x0U, 0x0U,
  0x0U, 0x0U, 0x0U, 0x0U,
  0x0U, 0x0U, 0x0U, 0x0U,
  0x0U, 0x0U, 0x0U, 0x0U,
  0x0U, 0x0U, 0x0U, 0x0U,
  0x0U, 0x0U, 0x0U, 0x0U,
  0x0U, 0x0U, 0x0U, 0x0U,
  0x0U, 0x0U, 0x0U, 0x0U,
  0xbc1cb86600000000U, 0x0U, 0x0U, 0x0U,
  0x3eab69b000000000U, 0x0U, 0x3d1cb866U, 0x0U,
  0x0U, 0x3ceb149900000000U, 0x0U, 0x0U,
  0x0U, 0x0U, 0x3e43e68000000000U, 0x0U,
  0x3deb149900000000U, 0x0U, 0x0U, 0x0U,
  0xbdfeaba600000000U, 0x0U, 0xbe4db206U, 0x0U,
  0x0U, 0xbd9cb86600000000U, 0x0U, 0x0U,
  0x0U, 0x0U, 0xbc9cb86600000000U, 0x0U,
  0x0U, 0x0U, 0x0U, 0x0U,
  0x3e4db206U, 0x3e97d2a3U, 0x0U, 0x0U,
  0x0U, 0x0U, 0x0U, 0x0U,
  0xbc9cb866U, 0x0U, 0x0U, 0x0U,
  0x0U, 0x0U, 0x0U, 0x0U,
  0x0U, 0x0U, 0x0U, 0x0U,
  0x0U, 0x0U, 0x0U, 0x0U,
  0x0U, 0x0U, 0x0U, 0x0U,
  0x0U, 0x0U, 0x0U, 0x0U,
  0x0U, 0x0U, 0x0U, 0x0U,
  0x0U, 0x0U, 0x0U, 0x0U,
  0x0U, 0x0U, 0x0U, 0x0U,
  0xbc1cb86600000000U, 0x0U, 0x0U, 0x0U,
  0x3eab69b000000000U, 0x0U, 0x0U, 0x0U,
  0x0U, 0x3e09215900000000U, 0x0U, 0x0U,
  0x0U, 0x0U, 0x3dc3e68000000000U, 0x0U,
  0x0U, 0x0U, 0x0U, 0x0U,
  0x0U, 0x0U, 0x0U, 0x0U,
  0x0U, 0x0U, 0x0U, 0x0U,
  0x0U, 0x0U, 0x0U, 0x0U,
  0x0U, 0x0U, 0x0U, 0x0U,
  0x0U, 0x0U, 0x0U, 0x0U,
  0x0U, 0x0U, 0x0U, 0x0U,
  0x0U, 0x0U, 0x0U, 0x0U,
  0x0U, 0x0U, 0x0U, 0x0U,
  0x0U, 0x0U, 0x0U, 0x0U,
  0x0U, 0x0U, 0x0U, 0x0U,
  0x0U, 0x0U, 0x0U, 0x0U,
  0x0U, 0x0U, 0x0U, 0x0U,
  0x0U, 0x0U, 0x0U, 0x0U,
  0x0U, 0x0U, 0x0U, 0x0U,
  0x0U, 0x0U, 0x0U, 0x0U,
  0x0U, 0x0U, 0x3f00667cbeed0bf9U, 0x0U,
  0xbe96212f00000000U, 0x0U, 0x3e9a14953d1e07fbU, 0x3ef4f2c500000000U,
  0x0U, 0x0U, 0x0U, 0x0U,
  0x0U, 0x3ef0ff5fU, 0x0U, 0x0U,
  0x0U, 0x0U, 0x0U, 0x0U,
  0x0U, 0x0U, 0x0U, 0x0U,
  0x0U, 0x0U, 0x0U, 0x0U,
  0x0U, 0x0U, 0x0U, 0x0U,
  0x0U, 0x0U, 0x0U, 0x0U,
  0x0U, 0x0U, 0x0U, 0x0U,
  0x0U, 0x0U, 0x0U, 0x0U,
  0x0U, 0x0U, 0x0U, 0x0U,
  0x0U, 0x0U, 0x0U, 0x0U,
  0x0U, 0x0U, 0x0U, 0x0U,
  0x0U, 0x0U, 0x0U, 0x0U,
  0x0U, 0x0U, 0x0U, 0x0U,
  0x0U, 0x0U, 0x0U, 0x0U,
  0x0U, 0x0U, 0x0U, 0x0U,
  0x0U, 0x0U, 0x0U, 0x0U,
  0x0U, 0x0U, 0x0U, 0x0U,
  0x0U, 0x0U, 0x0U, 0x0U,
  0x0U, 0x0U, 0x0U, 0x0U,
  0x0U, 0x0U, 0x0U, 0x0U,
  0x0U, 0x0U, 0x0U, 0x0U,
  0x0U, 0x0U, 0x0U, 0x0U,
  0x0U, 0x0U, 0x0U, 0x0U,
  0x0U, 0x0U, 0x0U, 0x0U,
  0x0U, 0x0U, 0x0U, 0x0U,
  0x0U, 0x0U, 0x0U, 0x0U,
  0x0U, 0x0U, 0x0U, 0x0U,
  0x0U, 0x0U, 0x0U, 0x0U,
  0x0U, 0x0U, 0x0U, 0x0U,
  0x0U, 0x0U, 0x0U, 0x0U,
  0x0U, 0x0U, 0x0U, 0x0U,
  0x0U, 0x0U, 0x0U, 0x0U,
  0x0U, 0x0U, 0x0U, 0x0U,
  0x0U, 0x0U, 0x0U, 0x0U,
  0x0U, 0x0U, 0x0U, 0x0U,
  0x0U, 0x0U, 0x0U, 0x0U,
  0x0U, 0x0U, 0x0U, 0x0U,
  0x0U, 0x0U, 0x0U, 0x0U,
  0x0U, 0x0U, 0x0U, 0x0U,
  0x0U, 0x0U, 0x0U, 0x0U,
  0x0U, 0x0U, 0x0U, 0x0U,
  0x0U, 0x0U, 0x0U, 0x0U,
  0x0U, 0x0U, 0x0U, 0x0U,
  0x0U, 0x0U, 0x0U, 0x0U,
  0x0U, 0x0U, 0x0U, 0x0U,
  0x0U, 0x0U, 0x0U, 0x0U,
  0x0U, 0x0U, 0x0U, 0x0U,
  0x0U, 0x0U, 0x0U, 0x0U,
  0x0U, 0x0U, 0x0U, 0x0U,
  0x0U, 0x0U, 0x0U, 0x0U,
  0x0U, 0x0U, 0x0U, 0x0U,
  0x0U, 0x0U, 0x0U, 0x0U,
  0x0U, 0x0U, 0x0U, 0x0U,
  0x0U, 0x0U, 0x0U, 0x0U,
  0x0U, 0x0U, 0x0U, 0x0U,
  0x0U, 0x0U, 0x0U, 0x0U,
  0x0U, 0x0U, 0x0U, 0x0U,
  0x0U, 0x0U, 0x0U, 0x0U,
  0x0U, 0x0U, 0x0U, 0x0U,
  0x0U, 0x0U, 0x0U, 0x0U,
  0x0U, 0x0U, 0x0U, 0x0U,
  0x0U, 0x0U, 0x0U, 0x0U,
  0x0U, 0x0U, 0x0U, 0x0U,
  0x0U, 0x0U, 0x0U, 0x0U,
  0x0U, 0x0U, 0x0U, 0x0U,
  0x0U, 0x0U, 0x0U, 0x0U,
  0x0U, 0x0U, 0x0U, 0x0U,
  0x0U, 0x0U, 0x0U, 0x0U,
  0x0U, 0x0U, 0x0U, 0x0U,
  0x0U, 0x0U, 0x0U, 0x0U,
  0x0U, 0x0U, 0x0U, 0x0U,
  0x0U, 0x0U, 0x0U, 0x0U,
  0x0U, 0x0U, 0x0U, 0x0U,
  0x0U, 0x0U, 0x0U, 0x0U,
  0x0U, 0x0U, 0x0U, 0x0U,
  0x0U, 0x0U, 0x0U, 0x0U,
  0x0U, 0x0U, 0x0U, 0x0U,
  0x0U, 0x0U, 0x0U, 0x0U,
  0x0U, 0x0U, 0x0U, 0x0U,
  0x0U, 0x0U, 0x0U, 0x0U,
  0x0U, 0x0U, 0x0U, 0x0U,
  0x0U, 0x0U, 0x0U, 0x0U,
  0x0U, 0x0U, 0x0U, 0x0U,
  0x0U, 0x0U, 0x0U, 0x0U,
  0x0U, 0x0U, 0x0U, 0x0U,
  0x0U, 0x0U, 0x0U, 0x0U,
  0x0U, 0x3f0459e200000000U, 0x3e4d70c7U, 0x0U,
  0x0U, 0x0U, 0xbf065396U, 0x0U,
  0xbf0459e23f14277cU, 0x0U, 0x3f14277c00000000U, 0x0U,
  0x0U, 0x0U, 0x0U, 0x0U,
  0x0U, 0x0U, 0xbf7adfdfU, 0x0U,
  0x0U, 0x0U, 0x0U, 0x0U,
  0x0U, 0x0U, 0x0U, 0x0U,
  0x0U, 0x0U, 0x0U, 0x0U,
  0x0U, 0x0U, 0x0U, 0x0U,
  0x0U, 0x0U, 0x0U, 0x0U,
  0x0U, 0x0U, 0x0U, 0x0U,
  0x0U, 0x0U, 0x0U, 0x0U,
  0x0U, 0x0U, 0x0U, 0x0U,
  0x0U, 0x0U, 0x0U, 0x0U,
  0x0U, 0x0U, 0x0U, 0x0U,
  0x0U, 0x0U, 0x0U, 0x0U,
  0x0U, 0x0U, 0x0U, 0x0U,
  0x0U, 0x0U, 0x0U, 0x0U,
  0x0U, 0x0U, 0x0U, 0x0U,
  0x0U, 0x0U, 0x0U, 0x0U,
  0x0U, 0x0U, 0x0U, 0x0U,
  0x0U, 0x0U, 0x0U, 0x0U,
  0x0U, 0x0U, 0x0U, 0x0U,
  0x0U, 0x0U, 0x0U, 0x0U,
  0x0U, 0x0U, 0x0U, 0x0U,
  0x0U, 0x0U, 0x0U, 0x0U,
  0x0U, 0x0U, 0x0U, 0x0U,
  0x0U, 0x0U, 0x0U, 0x0U,
  0x0U, 0x0U, 0x0U, 0x0U,
  0x0U, 0x0U, 0x0U, 0x0U,
  0x0U, 0x0U, 0x0U, 0x0U,
  0x3a0dd49fb9aa073fU, 0xb94b29073cd58b45U, 0x3ad2d76ebaf33d1cU, 0xb925c8b0b9d786e8U,
  0x3a63fdfdbb0bdf15U, 0xba6c07553aa4d0f7U, 0xb9f6239fb9213162U, 0xbb0d2f61b965d34cU,
  0x3ab4d006bae45694U, 0x398169bf38a979afU, 0x3a1a950db98df351U, 0x3aa4a61c3b110528U,
  0xbad09cddbda8f781U, 0xbac49a27bac0e24dU, 0xba2a7d1439f16655U, 0xb90b057bb94421edU,
  0x0U, 0x0U, 0x0U, 0x0U,
  0x0U, 0x0U, 0x0U, 0x0U,
  0x0U, 0x0U, 0x0U, 0x0U,
  0x0U, 0x0U, 0x0U, 0x0U,
  0x0U, 0x0U, 0x0U, 0x0U,
  0x0U, 0x0U, 0x0U, 0x0U,
  0x0U, 0x0U, 0x0U, 0x0U,
  0x0U, 0x0U, 0x0U, 0x0U,
  0x0U, 0x0U, 0x0U, 0x0U,
  0x0U, 0x0U, 0x0U, 0x0U,
  0x0U, 0x0U, 0x0U, 0x0U,
  0x0U, 0x0U, 0x0U, 0x0U,
  0x0U, 0x0U, 0x0U, 0x0U,
  0x0U, 0x0U, 0x0U, 0x0U,
  0x0U, 0x0U, 0x0U, 0x0U,
  0x0U, 0x0U, 0x0U, 0x0U,
  0x0U, 0x0U, 0x0U, 0x0U,
  0x0U, 0x0U, 0x0U, 0x0U,
  0x0U, 0x0U, 0x0U, 0x0U,
  0x3f7b1e5600000000U, 0x0U, 0x0U, 0x0U,
  0x0U, 0x0U, 0x0U, 0x0U,
  0x0U, 0x0U, 0x0U, 0x0U,
  0x0U, 0x0U, 0x0U, 0x0U,
  0x0U, 0x0U, 0x0U, 0x0U,
  0x0U, 0x0U, 0x0U, 0x0U,
  0x0U, 0x0U, 0x0U, 0x0U,
  0x0U, 0x0U, 0x0U, 0x0U,
  0x0U, 0x0U, 0x0U, 0x0U,
  0x0U, 0x0U, 0x0U, 0x0U,
  0x0U, 0x0U, 0x0U, 0x0U,
  0x0U, 0x0U, 0x0U, 0x0U,
  0x0U, 0x0U, 0x0U, 0x0U,
  0x0U, 0x0U, 0x0U, 0x0U,
  0x0U, 0x0U, 0x0U, 0x0U,
  0x0U, 0x0U, 0x0U, 0x0U,
  0x0U, 0x0U, 0x0U, 0x0U,
  0x0U, 0x0U, 0x0U, 0x0U,
  0x0U, 0x0U, 0x0U, 0x0U,
  0x0U, 0x0U, 0x0U, 0x0U,
  0x4022b6ecU, 0x0U, 0x0U, 0x0U,
  0x0U, 0x0U, 0x0U, 0x0U,
  0x0U, 0x0U, 0x0U, 0x0U,
  0x0U, 0x0U, 0x0U, 0x0U,
  0x0U, 0x0U, 0x0U, 0x0U,
  0x0U, 0x0U, 0x0U, 0x0U,
  0x0U, 0x0U, 0x0U, 0x0U,
  0x0U, 0x0U, 0x0U, 0x0U,
  0x0U, 0x0U, 0x0U, 0x0U,
  0x0U, 0x0U, 0x0U, 0x0U,
  0x0U, 0x0U, 0x0U, 0x0U,
  0x0U, 0x0U, 0x0U, 0x0U,
  0x0U, 0x0U, 0x0U, 0x0U,
  0x0U, 0x0U, 0x0U, 0x0U,
  0x0U, 0x0U, 0x0U, 0x0U,
  0x0U, 0x0U, 0x0U, 0x0U,
  0x0U, 0x0U, 0x0U, 0x0U,
  0x0U, 0xbf75fe5fU, 0x0U, 0x0U,
  0x0U, 0x0U, 0x0U, 0x0U,
  0x0U, 0x0U, 0x0U, 0x0U,
  0x0U, 0x0U, 0x0U, 0x0U,
  0x0U, 0x0U, 0x0U, 0x0U,
  0x0U, 0x0U, 0x0U, 0x0U,
  0x0U, 0x0U, 0x0U, 0x0U,
  0x0U, 0x0U, 0x0U, 0x0U,
  0x0U, 0x0U, 0x0U, 0x0U,
  0x0U, 0x0U, 0x0U, 0x0U,
  0x0U, 0x0U, 0x0U, 0x0U,
  0x0U, 0x0U, 0x0U, 0x0U,
  0x0U, 0x0U, 0x0U, 0x0U,
  0x0U, 0x0U, 0x0U, 0x0U,
  0x0U, 0x0U, 0x0U, 0x0U,
  0x0U, 0x0U, 0x0U, 0x0U,
  0x0U, 0x0U, 0x0U, 0x0U,
  0x0U, 0x0U, 0x0U, 0x0U,
  0x0U, 0x0U, 0x0U, 0x0U,
  0x0U, 0x0U, 0x0U, 0x0U,
  0x0U, 0x0U, 0x0U, 0x0U,
  0x0U, 0x0U, 0x0U, 0x0U,
  0x0U, 0x0U, 0x0U, 0x0U,
  0x0U, 0x0U, 0x0U, 0x0U,
  0x0U, 0x0U, 0x0U, 0x0U,
  0x0U, 0x0U, 0x0U, 0x0U,
  0x0U, 0x0U, 0x0U, 0x0U,
  0x0U, 0x0U, 0x0U, 0x0U,
  0x0U, 0x0U, 0x0U, 0x0U,
  0x0U, 0x0U, 0x0U, 0x0U,
  0x0U, 0x0U, 0x0U, 0x0U,
  0x0U, 0x0U, 0x0U, 0x0U,
  0x0U, 0x0U, 0x0U, 0x0U,
  0x0U, 0x0U, 0x0U, 0x0U,
  0x0U, 0x0U, 0x0U, 0x0U,
  0x0U, 0x0U, 0x0U, 0x0U,
  0x0U, 0x0U, 0x0U, 0x0U,
  0x0U, 0x0U, 0x0U, 0x0U,
  0x0U, 0x0U, 0x0U, 0x0U,
  0x0U, 0x0U, 0x0U, 0x0U,
  0x0U, 0x0U, 0x0U, 0x0U,
  0x0U, 0x0U, 0x0U, 0x0U,
  0x0U, 0x0U, 0x0U, 0x0U,
  0x0U, 0x0U, 0x0U, 0x0U,
  0x0U, 0x0U, 0x0U, 0x0U,
  0x0U, 0x0U, 0x0U, 0x0U,
  0x0U, 0x0U, 0x0U, 0x0U,
  0x0U, 0x0U, 0x0U, 0x0U,
  0x0U, 0x0U, 0x0U, 0x0U,
  0x0U, 0x0U, 0x0U, 0x0U,
  0x0U, 0x0U, 0x0U, 0x0U,
  0x0U, 0x0U, 0x0U, 0x0U,
  0x0U, 0x0U, 0x0U, 0x0U,
  0x0U, 0x0U, 0x0U, 0x0U,
  0x0U, 0x0U, 0x0U, 0x0U,
  0x0U, 0x0U, 0x0U, 0x0U,
  0x0U, 0x3fb5eeccU, 0x0U, 0x0U,
  0x0U, 0x0U, 0x0U, 0x0U,
  0x0U, 0x0U, 0x0U, 0x0U,
  0x0U, 0x0U, 0x0U, 0x0U,
  0x0U, 0x0U, 0x0U, 0x0U,
  0x0U, 0x0U, 0x0U, 0x0U,
  0x0U, 0x0U, 0x0U, 0x0U,
  0x0U, 0x0U, 0x0U, 0x0U,
  0x0U, 0x0U, 0x0U, 0x0U,
  0x0U, 0x0U, 0x0U, 0x0U,
  0x0U, 0x0U, 0x0U, 0x0U,
  0x0U, 0x0U, 0x0U, 0x0U,
  0x0U, 0x0U, 0x0U, 0x0U,
  0x0U, 0x0U, 0x0U, 0x0U,
  0x0U, 0x0U, 0x0U, 0x0U,
  0x0U, 0x0U, 0x0U, 0x0U,
  0x0U, 0x0U, 0x0U, 0x0U,
  0x0U, 0x0U, 0x0U, 0x0U,
  0x0U, 0x0U, 0x0U, 0x0U,
  0x0U, 0x0U, 0x0U, 0x0U,
  0x0U, 0x0U, 0x0U, 0x0U,
  0x0U, 0x0U, 0x0U, 0x3f68bf20U,
  0x0U, 0x0U, 0x0U, 0x0U,
  0x0U, 0x0U, 0xbfa1a12cU, 0x0U,
  0x0U, 0x0U, 0x0U, 0x0U,
  0x0U, 0x0U, 0x0U, 0x0U,
  0x0U, 0x0U, 0x0U, 0x0U,
  0x0U, 0x0U, 0x0U, 0x0U,
  0x0U, 0x0U, 0x0U, 0x0U,
  0x0U, 0x0U, 0x0U, 0x0U,
  0x0U, 0x0U, 0x0U, 0x0U,
  0x0U, 0x0U, 0x0U, 0x0U,
  0x0U, 0x0U, 0x0U, 0x0U,
  0x0U, 0x0U, 0x0U, 0x0U,
  0x0U, 0x0U, 0x0U, 0x0U,
  0x0U, 0x0U, 0x0U, 0x0U,
  0x0U, 0x0U, 0x0U, 0x0U,
  0x0U, 0x0U, 0x0U, 0x0U,
  0x0U, 0x0U, 0x0U, 0x0U,
  0x0U, 0x0U, 0x0U, 0x0U,
  0x0U, 0x0U, 0x0U, 0x0U,
  0x0U, 0x0U, 0x0U, 0x0U,
  0x0U, 0x0U, 0x0U, 0x0U,
  0x0U, 0x0U, 0x0U, 0x0U,
  0x0U, 0x0U, 0x0U, 0x0U,
  0x0U, 0x0U, 0x0U, 0x0U,
  0x0U, 0x0U, 0x0U, 0x0U,
  0x0U, 0x0U, 0x0U, 0x0U,
  0x0U, 0x0U, 0x0U, 0x0U,
  0x4008d8ac00000000U, 0x0U, 0x0U, 0x0U,
  0x0U, 0x0U, 0x0U, 0x0U,
  0x0U, 0x0U, 0x0U, 0x0U,
  0x0U, 0x0U, 0x0U, 0x0U,
  0x0U, 0x0U, 0x0U, 0x0U,
  0x0U, 0x0U, 0x0U, 0x0U,
  0x0U, 0x0U, 0x0U, 0x0U,
  0x0U, 0x0U, 0x0U, 0x0U,
  0x0U, 0x0U, 0x0U, 0x0U,
  0x0U, 0x0U, 0x0U, 0x0U,
  0x0U, 0x0U, 0x0U, 0x0U,
  0x0U, 0x0U, 0x0U, 0x0U,
  0x0U, 0x0U, 0x0U, 0x0U,
  0x0U, 0x0U, 0x0U, 0x0U,
  0x0U, 0x0U, 0x0U, 0x0U,
  0x0U, 0x0U, 0x0U, 0x0U,
  0x0U, 0x0U, 0x0U, 0x0U,
  0x0U, 0x0U, 0x0U, 0x0U,
  0x0U, 0x0U, 0x0U, 0x0U,
  0x0U, 0x0U, 0x0U, 0x0U,
  0x0U, 0x0U, 0x0U, 0x0U,
  0x0U, 0x0U, 0x0U, 0x0U,
  0x0U, 0x0U, 0x0U, 0x0U,
  0x0U, 0x0U, 0x0U, 0x0U,
  0x0U, 0x0U, 0x0U, 0x0U,
  0x0U, 0x0U, 0x0U, 0x0U,
  0x0U, 0x0U, 0x0U, 0x0U,
  0x0U, 0x0U, 0x0U, 0x0U,
  0x0U, 0x0U, 0x0U, 0x0U,
  0x0U, 0x0U, 0x0U, 0x0U,
  0x0U, 0x0U, 0x0U, 0x0U,
  0x0U, 0x0U, 0x0U, 0x0U,
  0x0U, 0x0U, 0x0U, 0x0U,
  0x0U, 0x0U, 0x0U, 0x0U,
  0x0U, 0x0U, 0x0U, 0x0U,
  0x0U, 0x0U, 0x0U, 0x0U,
  0x0U, 0x0U, 0x0U, 0x0U,
  0x0U, 0x0U, 0x0U, 0x0U,
  0x0U, 0x0U, 0x0U, 0x0U,
  0x0U, 0x0U, 0x0U, 0x0U,
  0x0U, 0x0U, 0x0U, 0x0U,
  0x0U, 0x0U, 0x0U, 0x0U,
  0x0U, 0x0U, 0x0U, 0x0U,
  0x0U, 0x0U, 0x0U, 0x0U,
  0x0U, 0x0U, 0x0U, 0x0U,
  0x0U, 0x0U, 0x0U, 0x0U,
  0x0U, 0x0U, 0x0U, 0x0U,
  0x0U, 0x0U, 0x0U, 0x0U,
  0x0U, 0x0U, 0x0U, 0x0U,
  0x0U, 0x0U, 0x0U, 0x0U,
  0x0U, 0x0U, 0x0U, 0x0U,
  0x0U, 0x0U, 0x0U, 0x0U,
  0x0U, 0x0U, 0x0U, 0x0U,
  0x0U, 0x0U, 0x0U, 0x0U,
  0x0U, 0x0U, 0x0U, 0x0U,
  0x0U, 0x0U, 0x0U, 0x0U,
  0x0U, 0x0U, 0x0U, 0x0U,
  0x0U, 0x0U, 0x0U, 0x0U,
  0x0U, 0x0U, 0x0U, 0x0U,
  0x0U, 0x0U, 0x0U, 0x0U,
  0x0U, 0x0U, 0x0U, 0x0U,
  0x0U, 0x0U, 0x0U, 0x0U,
  0x0U, 0x0U, 0x0U, 0x0U,
  0x0U, 0x0U, 0x0U, 0x0U,
  0x0U, 0x0U, 0x0U, 0x0U,
  0x0U, 0x0U, 0x0U, 0x0U,
  0x0U, 0x0U, 0x0U, 0x0U,
  0x0U, 0x0U, 0x0U, 0x0U,
  0x0U, 0x0U, 0x0U, 0x0U,
  0x0U, 0x0U, 0x0U, 0x0U,
  0x0U, 0x0U, 0x0U, 0x0U,
  0x0U, 0x0U, 0xbf79fcb1U, 0x0U,
  0xbdac67a600000000U, 0x0U, 0x0U, 0x0U,
  0x0U, 0x0U, 0x0U, 0x0U,
  0x0U, 0x0U, 0x0U, 0x0U,
  0x0U, 0x0U, 0x0U, 0x0U,
  0x0U, 0x0U, 0x0U, 0x0U,
  0x0U, 0x0U, 0x0U, 0x0U,
  0x0U, 0x0U, 0x0U, 0x0U,
  0x0U, 0x0U, 0x0U, 0x0U,
  0x0U, 0x0U, 0x0U, 0x0U,
  0x0U, 0x0U, 0x0U, 0x0U,
  0x0U, 0x0U, 0x0U, 0x0U,
  0x0U, 0x0U, 0x0U, 0x0U,
  0x0U, 0x0U, 0x0U, 0x0U,
  0x0U, 0x0U, 0x0U, 0x0U,
  0x0U, 0x0U, 0x0U, 0x0U,
  0x0U, 0x0U, 0x0U, 0x0U,
  0x0U, 0x0U, 0x0U, 0x0U,
  0x0U, 0x0U, 0x0U, 0x0U,
  0x0U, 0x0U, 0x0U, 0x0U,
  0x0U, 0x0U, 0x0U, 0x0U,
  0x0U, 0x0U, 0x0U, 0x0U,
  0x0U, 0x0U, 0x0U, 0x0U,
  0x0U, 0x0U, 0x0U, 0x0U,
  0xbca0fd6d37f710edU, 0xba2aef4b3a9ed651U, 0xba30a00eb9153867U, 0xb90162143a7bb43eU,
  0x3952b220bef8a744U, 0x39672265ba3831bfU, 0x3a03305bba5a7e41U, 0x3abd7d9e3b11c0b1U,
  0x3a2fa6e03a13d31cU, 0xb9b681ceb92591acU, 0xba25986cbae1af8cU, 0x3a11c6bd39cc7295U,
  0xba55533f39b1c000U, 0x3a4310c7bc0a60c8U, 0xb95902ec383689b8U, 0x3887d766baf39e3dU,
  0x0U, 0x0U, 0x0U, 0x0U,
  0x0U, 0x0U, 0x0U, 0x0U,
  0x0U, 0x0U, 0x0U, 0x0U,
  0x0U, 0x0U, 0x0U, 0x0U,
  0x0U, 0x0U, 0x0U, 0x0U,
  0x0U, 0x0U, 0x0U, 0x0U,
  0x0U, 0x0U, 0x0U, 0x0U,
  0x0U, 0x0U, 0x0U, 0x0U,
  0x0U, 0x0U, 0x0U, 0x0U,
  0x0U, 0x0U, 0x0U, 0x0U,
  0x0U, 0x0U, 0x0U, 0x0U,
  0x0U, 0x0U, 0x0U, 0x0U,
  0x0U, 0x0U, 0x0U, 0x0U,
  0x0U, 0x0U, 0x0U, 0x0U,
  0x0U, 0x0U, 0x0U, 0x0U,
  0x0U, 0x0U, 0x0U, 0x0U,
  0xbf4d313100000000U, 0x0U, 0x0U, 0x0U,
  0xbf2afe54U, 0x0U, 0x0U, 0x0U,
  0x0U, 0x0U, 0x0U, 0x0U,
  0x0U, 0x0U, 0x0U, 0x0U,
  0x0U, 0x0U, 0x0U, 0x0U,
  0x0U, 0x0U, 0x0U, 0x0U,
  0x0U, 0x0U, 0x0U, 0x0U,
  0x0U, 0x0U, 0x0U, 0x0U,
  0x0U, 0x0U, 0x0U, 0x0U,
  0x0U, 0x0U, 0x0U, 0x0U,
  0x0U, 0x0U, 0x0U, 0x0U,
  0x0U, 0x0U, 0x0U, 0x0U,
  0x0U, 0x0U, 0x0U, 0x0U,
  0x0U, 0x0U, 0x0U, 0x0U,
  0x0U, 0x0U, 0x0U, 0x0U,
  0x0U, 0x0U, 0x0U, 0x0U,
  0x0U, 0x0U, 0x0U, 0x0U,
  0x0U, 0x0U, 0x0U, 0x0U,
  0x0U, 0x0U, 0x0U, 0x0U,
  0x0U, 0x0U, 0x0U, 0x0U,
  0x0U, 0x0U, 0x0U, 0x0U,
  0x0U, 0x0U, 0x0U, 0x0U,
  0x0U, 0x0U, 0x0U, 0x0U,
  0x0U, 0x0U, 0x0U, 0x0U,
  0x0U, 0x0U, 0x0U, 0x0U,
  0x0U, 0x0U, 0x0U, 0x0U,
  0x0U, 0x0U, 0x0U, 0x0U,
  0x0U, 0x0U, 0x0U, 0x0U,
  0x0U, 0x0U, 0x0U, 0x0U,
  0x0U, 0x0U, 0x0U, 0x0U,
  0x0U, 0x0U, 0x0U, 0x0U,
  0x0U, 0x0U, 0x0U, 0x0U,
  0x0U, 0x0U, 0x0U, 0x0U,
  0x0U, 0x0U, 0x0U, 0x0U,
  0x0U, 0x0U, 0x0U, 0x0U,
  0x0U, 0x0U, 0x0U, 0x0U,
  0x0U, 0x0U, 0x0U, 0x0U,
  0x0U, 0x0U, 0x0U, 0x0U,
  0x0U, 0x0U, 0x0U, 0x0U,
  0x0U, 0x0U, 0x0U, 0x0U,
  0x0U, 0x0U, 0x0U, 0x0U,
  0x3f2319f9U, 0x0U, 0x0U, 0x0U,
  0x0U, 0x0U, 0x0U, 0x0U,
  0x0U, 0x0U, 0x0U, 0x0U,
  0x0U, 0x0U, 0x0U, 0x0U,
  0x0U, 0x0U, 0x0U, 0x0U,
  0x0U, 0x0U, 0x0U, 0x0U,
  0x0U, 0x0U, 0x0U, 0x0U,
  0x0U, 0x0U, 0x0U, 0x0U,
  0xbf4a8fbeU, 0x0U, 0x0U, 0x0U,
  0x0U, 0x0U, 0x0U, 0x0U,
  0x0U, 0x0U, 0x0U, 0x0U,
  0x0U, 0x0U, 0x0U, 0x0U,
  0x0U, 0x0U, 0x0U, 0x0U,
  0x0U, 0x0U, 0x0U, 0x0U,
  0x0U, 0x0U, 0x0U, 0x0U,
  0x0U, 0x0U, 0x0U, 0x0U,
  0x0U, 0x0U, 0x0U, 0x0U,
  0x0U, 0x0U, 0x0U, 0x0U,
  0x0U, 0x0U, 0x0U, 0x0U,
  0x0U, 0x0U, 0x0U, 0x0U,
  0x3ebd687cU, 0x0U, 0x0U, 0x0U,
  0x0U, 0x0U, 0x0U, 0x0U,
  0x0U, 0xbf84d949U, 0x0U, 0x0U,
  0x0U, 0x0U, 0x0U, 0x0U,
  0x0U, 0x0U, 0x0U, 0x0U,
  0x0U, 0x0U, 0x0U, 0x0U,
  0x0U, 0x0U, 0x0U, 0x0U,
  0x0U, 0x0U, 0x0U, 0x0U,
  0x0U, 0x0U, 0x0U, 0x0U,
  0x0U, 0x0U, 0x0U, 0x0U,
  0x0U, 0x0U, 0x0U, 0x0U,
  0x0U, 0x0U, 0x0U, 0x0U,
  0x0U, 0x0U, 0x0U, 0x0U,
  0x0U, 0x0U, 0x0U, 0x0U,
  0x0U, 0x0U, 0x0U, 0x0U,
  0x0U, 0x0U, 0x0U, 0x0U,
  0x0U, 0x0U, 0x0U, 0x0U,
  0x0U, 0x0U, 0x0U, 0x0U,
  0x0U, 0x0U, 0x0U, 0x0U,
  0x3fa70c2600000000U, 0x0U, 0x0U, 0x0U,
  0x0U, 0x0U, 0x0U, 0x0U,
  0x0U, 0x0U, 0x0U, 0x0U,
  0x0U, 0x0U, 0x0U, 0x0U,
  0x0U, 0x0U, 0x0U, 0x0U,
  0x0U, 0x0U, 0x0U, 0x0U,
  0x0U, 0x0U, 0x0U, 0x0U,
  0x0U, 0x0U, 0x0U, 0x0U,
  0x0U, 0x0U, 0x0U, 0x0U,
  0x0U, 0x0U, 0x0U, 0x0U,
  0x0U, 0x0U, 0x0U, 0x0U,
  0x0U, 0x0U, 0x0U, 0x0U,
  0x0U, 0x0U, 0x0U, 0x0U,
  0x0U, 0x0U, 0x0U, 0x0U,
  0x0U, 0x0U, 0x0U, 0x0U,
  0x0U, 0x0U, 0x0U, 0x0U,
  0x0U, 0x0U, 0x0U, 0x0U,
  0x0U, 0x0U, 0x0U, 0x0U,
  0x0U, 0x0U, 0x0U, 0x0U,
  0x0U, 0x0U, 0x0U, 0x0U,
  0x0U, 0x0U, 0x0U, 0x0U,
  0x0U, 0x0U, 0x0U, 0x0U,
  0x0U, 0x0U, 0x0U, 0x0U,
  0x0U, 0x0U, 0x0U, 0x0U,
  0x0U, 0x0U, 0x0U, 0x0U,
  0x0U, 0x0U, 0x0U, 0x0U,
  0x0U, 0x0U, 0x0U, 0x0U,
  0x0U, 0x0U, 0x0U, 0x0U,
  0x0U, 0x0U, 0x0U, 0x0U,
  0x0U, 0x0U, 0x0U, 0x0U,
  0x0U, 0x0U, 0x0U, 0x0U,
  0x0U, 0x0U, 0x0U, 0x0U,
  0x380d566038fd7562U, 0xb9000c2638c79781U, 0x397221bbb8b60803U, 0xb896ba1eb8f06c47U,
  0x381a1610b800aa24U, 0x3789030837680f50U, 0xb81a3fb43585d784U, 0xb9063261b8012f4aU,
  0xb8d9774038591f2fU, 0x390303d1b91213fbU, 0x386be63036430fd0U, 0xb9e248edb8f13b6aU,
  0x38bc697f37c486f8U, 0xb90ae8deb8e268c1U, 0xb98364f636e4dae0U, 0x37e884b838092d5cU,
  0x386f94c3b915e85aU, 0x38c6255236d11096U, 0x38a63250bebf9959U, 0xb75d8570392582a9U,
  0xb82cef81b689cb34U, 0xb845857e35276800U, 0x39d665e3b9011b38U, 0x3868e7c638818d0dU,
  0x38eeb436b91d43baU, 0x3f95dc28396a89c2U, 0x387629ae38c2cab0U, 0x3944dd44389bbe90U,
  0x3770ac48b90147d1U, 0xb99098693835554eU, 0x38e6de8739393a92U, 0x3919b60fb9238e8cU,
  0xb8914020b8d92c64U, 0x37e6e350384d9360U, 0x38895e3d38ab0a2aU, 0x38534516b9825e34U,
  0x38763c3bb80f6cd6U, 0x38162b9b39407b02U, 0xb90ad112398b01c0U, 0x36e434d0b9478f6dU,
  0xb96d00563895b0efU, 0xb89cf5a0393716e4U, 0x38f93720b9353339U, 0x38d2ab703921d7e0U,
  0xb925977eb6c9e2e4U, 0x38c44964b7d52ab0U, 0x370b64b0b8e0655eU, 0xb8a3d2a0b8a9a806U,
  0xb980dd5ab94ac3dcU, 0xb9842300b8522b55U, 0xb68755e0b6882280U, 0x3964dbe7388b7868U,
  0x39841c64b8185c34U, 0xb8a8cfa8b8d82604U, 0x398d0e86388b6640U, 0xb7011e90b7cf2484U,
  0xb953b11239990893U, 0xb91b0dd23826749eU, 0xb7c2351c3910b899U, 0xb8c914c7381335ceU,
  0x37d23ab0b91d96abU, 0x38af415ab9044ddaU, 0xb91d9cde380967baU, 0x393cf8a83892e6f0U,
  0x38ae5ba937a82ea8U, 0x37b4a148b95d783aU, 0x39240550398d7b76U, 0x382a271e39dfdabfU,
  0xb8bb6ce9b928e814U, 0x3962b84a3901e4ccU, 0x39204f50b92a18b9U, 0xb7bd54363845d290U,
  0x392b525a36e80870U, 0xb5bd0f8039194174U, 0xb87405f2b8d70bfdU, 0xb77e31c0391c6866U,
  0xb9725a30b68533a0U, 0x391d028cb88f196eU, 0xb88141b2395203a2U, 0x38faea5138e8df78U,
  0x39823fdc395d5115U, 0x388853aab91ab4e7U, 0x3743c860b925084cU, 0xb79643ca390863e9U,
  0x390367823923d42eU, 0xb845e1f2b886b09cU, 0xb6c1f380b8a8fdf0U, 0x391ec15cb8a5f7a6U,
  0xb7bbe8e8b97213d6U, 0x39645ba0b96cf9faU, 0x390d22ba392328e2U, 0x398d2632390240ccU,
  0xb80e21f939ad02dbU, 0x370197a8393ff80fU, 0x36b84870b90928baU, 0x36ff75a038ff2aeaU,
  0xb8a6d3ba388ec740U, 0xb90dedd139aa3a84U, 0xb81d2e8a392ad99eU, 0x3993cb6d38ef2254U,
  0xb7c067acb9060922U, 0x39118c6eb880c0baU, 0xb7be37603902858eU, 0x38bc7d39b88e9ea2U,
  0xb90b6dacb9944bbaU, 0x393eca54b6693cd0U, 0x368ba718b6e0d750U, 0xb8daccdd38b12ed5U,
  0x38909b82b8545e92U, 0x38727b08b92821deU, 0xb80268b4b779dc50U, 0x37213ac0b71aeb20U,
  0x36e8d960b9229ad0U, 0xb8dae179390cb2dfU, 0x37199b60b8a705c2U, 0xb8f5a703b957a158U,
  0x3919f83b38c19563U, 0x385d058039121788U, 0x380bafd339031c23U, 0xb8829d1fbdfaa7b7U,
  0xb908b0303e950d4eU, 0x38aa0286b8aef2ceU, 0xb8346084372daa90U, 0x38b20d46b8f0d0bdU,
  0x3917142639fe3dc1U, 0xb8c38f28b95c8cb0U, 0xb85c26f3386fdac0U, 0x372f0368b733d860U,
  0x3941d6b43838f15eU, 0xb8a693c6b91184a3U, 0xb75d9250b8a31ba4U, 0xb8044a64b990dad4U,
  0xb82ccf5ab924017aU, 0x38647b3eb90c6611U, 0x389ba8a0b944d142U, 0x390ae3a1b722b170U,
  0xb8f5fd3bb9a689ecU, 0xb8d56d30b85a0776U, 0xb987f731393f6129U, 0x38b2a32d397f97aeU,
  0x3865835038eefa72U, 0xb959ad78b8cf38d2U, 0xb9085563b6fdc4d0U, 0xb8b11698b7d530f8U,
  0xb8950774365f8538U, 0xb82d2940378277faU, 0xb8ce8bcc3dc2f1efU, 0x38b227303889961dU,
  0xb859c39bb91b5ee0U, 0xb8f36f2137f9d32cU, 0x38e84e7c38cfdb7bU, 0xb77bebaa3d0884aeU,
  0xb9b4b526b80c70d1U, 0x3887c333b7ae3b78U, 0xb861c5acb9420837U, 0x38d2be2ab8ac9cdeU,
  0x390ff4a6bed5a9a2U, 0xb88c6c2838030647U, 0x38a30763391a6c24U, 0x373d4f1839a50421U,
  0x3926dd86b5145d00U, 0xb911e08c38bed094U, 0x3907fc3fbf2a6c4eU, 0x388c9adab8c18076U,
  0x3726c428b946abc1U, 0x36bcd240398a7883U, 0x38880cfab91d24e6U, 0x389bf595387b1ab6U,
  0x37fa1280b81eb3c4U, 0x38e36521b8e0f25dU, 0xb89e02d4379968afU, 0x38a4bf80b8d8b904U,
  0xb99cc7bd3f88a612U, 0x38a4a79d38db13c6U, 0x39053fd33830d26cU, 0x39124a3eb8dced39U,
  0x3940a4d43894d555U, 0xb7e3be50392803a6U, 0xb7a850583d80db77U, 0x38823996b88f1c95U,
  0x39038ca8b93439f6U, 0xb8e2f4bf37f9de20U, 0xb6dfdfc0b92f19dcU, 0x37a3f9aabd9e32ebU,
  0x397042b93843e38cU, 0xbed7ba56b9136908U, 0xb7bb475ab8f83df7U, 0xb6f493c03955e02dU,
  0xb7b718a1b808e915U, 0xb8b50c503815b0cfU, 0x38b76669379d5e00U, 0x37b9def4b83144ceU,
  0x37888b64b7c5e9d8U, 0x3867c2dcb8dd3ee0U, 0xb768d328bf0e98f5U, 0x393e482e39809ee6U,
  0x3973a93eb958ee4cU, 0xb80b5950389a8264U, 0xb9d5c7bcb77e5aa0U, 0xb90432c03eb57e5bU,
  0x39080a15bf19091aU, 0xb8908b2ab68e0778U, 0x390d8c6c388ae920U, 0x38785044b8b877f3U,
  0xb904760039ab0decU, 0xb94bf756b8fdc974U, 0x391632ce37d47fa8U, 0x38b9554438e6a6deU,
  0x39ddbd5436ecaa60U, 0x3858fbd2b92fab4cU, 0x38d3fc67b855b5c2U, 0xb8987996b917f552U,
  0xb71b39e035f7b800U, 0x398887c138bbb683U, 0x36895a6a37bc18b4U, 0x379933dc3900c472U,
  0x387a1d8a392c1e0aU, 0x38cb49c3b95719faU, 0x391fc4fd37ce2690U, 0x3907de36b85ce926U,
  0x388a7d66393301e7U, 0x370551203701f340U, 0x38ef79e338a6cf6aU, 0x3904d7edb8133674U,
  0xb88eaf5639103ab8U, 0x38b1d67db84c3833U, 0x3509920038de9cbaU, 0xb80ec392377b21f8U,
  0xb8fb224e389678ddU, 0x399a74efb94d26fbU, 0x38c95efcb9132be8U, 0x391612feb816d34eU,
  0x38a68ed6387f80b8U, 0xb98dc90838880d80U, 0xb8afa8b6b511a000U, 0xb994c7f838a55e86U,
  0xb800a5d438503ed0U, 0xb7b567ccb8c8b2f8U, 0x35c19440b8093a8cU, 0x387ade2239168798U,
  0x39351da8b8c60407U, 0xb807bfbf391d0216U, 0x37d0257439d73b41U, 0xb8ad6255b8f686d0U,
  0x37b0fe9039300e64U, 0xb7d524e0b8af0144U, 0x38a4eb393681b166U, 0x3920312138c0f27eU,
  0x386dfeb1b994ea6cU, 0xb8610252b8ef9506U, 0xb8975e60b9a4b465U, 0xb9355ef8b917f4a1U,
  0x36e3407039a9d3aeU, 0x38155b62b92177adU, 0x38454c4a395b7ebeU, 0xb8e511bb359e9740U,
  0xbe57bc7eb8c1de3eU, 0x399cec5f38ba1acfU, 0x392ff8183851fa74U, 0x3e052688b9dc1db9U,
  0x3d2148cc380441e5U, 0xbd7025e3bd99bce6U, 0xb99384c8beb34780U, 0xb965c4b338132859U,
  0x3d5f47b4b8cc394dU, 0x3939c450b6fdf1a0U, 0x3959ada1b8a46545U, 0x36df9298b900e98cU,
  0x3787a061381c5e76U, 0xb89460da3ff10c0dU, 0x397fb8cf3c0d8816U, 0x39353a2c364aa538U,
  0x3d7109793990bc79U, 0xb95e4a80b8ccbda0U, 0xb99849783887bdd3U, 0xb85a306c36fac2f0U,
  0x38d8126639b3705cU, 0xb8175c58b84cc97bU, 0x390d59e43eab9b16U, 0xb92d5146b9c0316aU,
  0x37f2477ab91d6c17U, 0x37151be2b8f50cccU, 0x394caa203973881fU, 0xb70a23f8b7e72878U,
  0xb8b06dcab982161aU, 0x38c15ac3b7b071eaU, 0x39192c9eb8a93540U, 0x37371630392ec929U,
  0xbd4eaf0bb8a913d6U, 0x38ccaa62b75d8860U, 0xb99169e6b83829b2U, 0xbc8f46793988d668U,
  0x3c506cacb8051d54U, 0x3e4ae181bc1a56f6U, 0xb7b276143e86a647U, 0x38a6cba0398a4db7U,
  0x380bcdceb85a7e5eU, 0x39834d61b8fcf5f2U, 0xb829443cb9818fb7U, 0xb8dff8b5b80beb40U,
  0x38343e5fb88d70baU, 0xb8d176b2b887cb88U, 0x393c779f38ac73e9U, 0x385d237238ea55bcU,
  0xb97b785eb900975aU, 0x39406d5c3972fbddU, 0xb8d52bd6b74f8730U, 0x3c6fb41fb88eda8cU,
  0xb7bcb7f8b82c1658U, 0x3e7699b137236748U, 0xb86a0b92bbcac581U, 0x3905c7c23851fdd0U,
  0xb80497deb9383b5bU, 0x380f97d6b897c6e9U, 0xb821c610b8f5933fU, 0x3730e6b0b8ec5defU,
  0x3e89af73b7cd0332U, 0x37e98f54b83cd636U, 0x389b366b38c2fe88U, 0x38ad1650b8c4e896U,
  0x3d44c2b5396b4289U, 0x398cced9b925733dU, 0xb880f932b8ca5872U, 0xb8203d7037b90bfdU,
  0xb9307fbf393071f5U, 0xb9228d1a37b3ca28U, 0xb90158553843ab5cU, 0xb721c310b96eaef2U,
  0x381d5106b63ccc20U, 0x3949ff09b5513898U, 0xb8e048b638bb23fbU, 0x38e1f8553895e5f0U,
  0x3815865038cd5f60U, 0x38f532e0b758a110U, 0xb8a6dde5b837f31cU, 0x391f0d5ab8545ec0U,
  0x3506ec0037870116U, 0x38b6e4d8b6ebbc13U, 0xb8d18099b8a7d31cU, 0x3e4649f2b9eb3933U,
  0xb994aa68b74f2360U, 0x3ce427b1385b26e8U, 0x38aa5e15bd4e20a1U, 0x35fe0e80b930c5acU,
  0x371d9ea9b7e4c9f0U, 0xb81f2874b8c4fe42U, 0x39a08ce2b80a5b5aU, 0x3e6c4cdb37d7273eU,
  0xb9809b24395e5314U, 0xb8d412043827f27bU, 0x38f90402bea2892dU, 0x39411ce6371389c0U,
  0x3f391373b81a0e5eU, 0xb799588cb91e1a4cU, 0xb8c14f8db889308cU, 0xb91a100037d8f380U,
  0x37fe8e44370f2460U, 0xb96b0abb38d1900dU, 0x38c1018538fa7c98U, 0xb88cd224b9ce8176U,
  0xb58228e037525ff8U, 0x390eda92b7c0c3daU, 0x390d8862b8ceb92eU, 0x3820208c3949ae48U,
  0xb8e65604b8e130e1U, 0x395c1d4ab83ed1dbU, 0xb90823d43876a60bU, 0xb81a3c94394189eaU,
  0x38b032e2b8570aa8U, 0x3947779739847852U, 0xb863b366384c670cU, 0xb73c85a0b8f9e933U,
  0xb90ec52fb8c93e2fU, 0xb8075dea382fe8a2U, 0x37cd083a372d1538U, 0x37437ce83941525aU,
  0xb84ddf6e39034224U, 0x390ce61fb87d254fU, 0xb884c52cb9002462U, 0xb6886400b82546e3U,
  0x395d39e8389f74e1U, 0x3816065bbdb321feU, 0xb991e83839301123U, 0x38cbe98039922692U,
  0x3796dbfd37db016dU, 0x3879f0fc38229b6cU, 0xb75cd26cb6bbf320U, 0xb80ba40a38882060U,
  0x3e8c6dcab8c3760eU, 0xbdb567f4be923922U, 0xb9332d5c39bf2e47U, 0x38acc54d37b4f158U,
  0xbcd003aabd99218fU, 0x3cf5f1583d44c818U, 0xbdb4fe143dff18b3U, 0x3d806fc93de4a23cU,
  0x3d78b893b91955ceU, 0xbd011e113df6d106U, 0xbda55d193dff25e1U, 0x3d7b57c13d31b9beU,
  0x3f7e3798bf866093U, 0x3f5c3c36be5e79caU, 0xbf0985d83e502d8eU, 0xbdd635773f30d264U,
  0xbf1af6ab39c160a4U, 0x3ec36cc2bec49f0dU, 0xbe9423333da13af1U, 0x3f9176e33f327193U,
  0x3ec3d55bbb323050U, 0xc00703743e881c76U, 0xbeb9e8db3f0b9b7cU, 0x3f8cd84f3e52da90U,
  0x3f8ed93a3a7c53c0U, 0x3fb45b4a3f7da5c8U, 0xbda0d3ba3e787d06U, 0x3dcd5632be1d00efU,
  0xbebf4b323a3f15bfU, 0x3faaf7573ebe530eU, 0x3fb877263dd6d154U, 0xbee755fc3f10bd2cU,
  0x3f58c026392a140fU, 0x3dea71f53f0c8884U, 0xbeb12b5b3d690ba9U, 0xbe0349e83e74a8edU,
  0x3e1dbeb03d5146e4U, 0x3d9d923fU,
};


ai_buffer g_network_data_map_activations[AI_NETWORK_DATA_ACTIVATIONS_COUNT] = {
  AI_BUFFER_INIT(AI_FLAG_NONE,  AI_BUFFER_FORMAT_U8,
    AI_BUFFER_SHAPE_INIT(AI_SHAPE_BCWH, 4, 1, 256, 1, 1),
    256, NULL, NULL),    /* heap_overlay_pool */
  };
ai_buffer g_network_data_map_weights[AI_NETWORK_DATA_WEIGHTS_COUNT] = {
  AI_BUFFER_INIT(AI_FLAG_NONE,  AI_BUFFER_FORMAT_U8,
    AI_BUFFER_SHAPE_INIT(AI_SHAPE_BCWH, 4, 1, 40652, 1, 1),
    40652, NULL, s_network_network_weights_array_u64),   /* network_weights_array */
  };


/*!
 * @brief Get network activations buffer initialized struct.
 * @ingroup network_data
 * @param[in] ptr a pointer to the activations array storage area
 * @return an ai_buffer initialized struct
 */
AI_DEPRECATED
AI_API_ENTRY
ai_buffer ai_network_data_activations_buffer_get(const ai_handle ptr)
{
  ai_buffer buf = AI_BUFFER_INIT(
    AI_FLAG_NONE, AI_BUFFER_FORMAT_U8,
    AI_BUFFER_SHAPE_INIT(AI_SHAPE_BCWH, 4, 1, AI_NETWORK_DATA_ACTIVATIONS_SIZE, 1, AI_NETWORK_DATA_ACTIVATIONS_COUNT),
    AI_NETWORK_DATA_ACTIVATIONS_SIZE,
    NULL, ptr);
  return buf;
}

/*!
 * @brief Get network weights buffer initialized struct.
 * @ingroup network_data
 * @param[in] ptr a pointer to the weights array storage area
 * @return an ai_buffer initialized struct
 */
AI_DEPRECATED
AI_API_ENTRY
ai_buffer ai_network_data_weights_buffer_get(const ai_handle ptr)
{
  ai_buffer buf = AI_BUFFER_INIT(
    AI_FLAG_NONE, AI_BUFFER_FORMAT_U8|AI_BUFFER_FMT_FLAG_CONST,
    AI_BUFFER_SHAPE_INIT(AI_SHAPE_BCWH, 4, 1, AI_NETWORK_DATA_WEIGHTS_SIZE, 1, AI_NETWORK_DATA_WEIGHTS_COUNT),
    AI_NETWORK_DATA_WEIGHTS_SIZE,
    NULL, ptr);
  return buf;
}


/*!
 * @brief Get network weights array pointer as a handle ptr.
 * @ingroup network_data
 * @return a ai_handle pointer to the weights array
 */
AI_DEPRECATED
AI_API_ENTRY
ai_handle ai_network_data_weights_get(void)
{
  static const ai_u8* const s_network_weights_table[1 + 2] = {
    AI_PTR(AI_MAGIC_MARKER),
    AI_PTR(s_network_network_weights_array_u64),
    AI_PTR(AI_MAGIC_MARKER)
  };

  return AI_HANDLE_PTR(s_network_weights_table);

}


/*!
 * @brief Get network params configuration data structure.
 * @ingroup network_data
 * @return true if a valid configuration is present, false otherwise
 */
AI_API_ENTRY
ai_bool ai_network_data_params_get(ai_network_params* params)
{
  if (!params) return false;
  
  const ai_buffer_array map_activations = 
    AI_BUFFER_ARRAY_OBJ_INIT(AI_FLAG_NONE, AI_NETWORK_DATA_ACTIVATIONS_COUNT, g_network_data_map_activations);
  
  const ai_buffer_array map_weights = 
    AI_BUFFER_ARRAY_OBJ_INIT(AI_FLAG_NONE, AI_NETWORK_DATA_WEIGHTS_COUNT, g_network_data_map_weights);

  return ai_platform_bind_network_params(params, &map_weights, &map_activations);
}


AI_API_DECLARE_END
